<pad>	0
<unk>	0
<s>	0
</s>	0
▁the	-3.84856
,	-4.09958
▁के	-4.22713
s	-4.24051
▁of	-4.41213
▁है	-4.4132
▁में	-4.55242
▁and	-4.73849
▁to	-4.76002
▁	-4.76777
▁in	-4.81181
▁की	-4.81409
।	-4.88555
▁a	-4.90734
▁और	-4.98084
-	-5.02446
▁से	-5.03392
▁का	-5.09311
▁को	-5.11738
▁,	-5.14992
▁is	-5.22182
▁हैं	-5.39084
▁-	-5.50642
ों	-5.52982
▁एक	-5.61349
▁पर	-5.64477
ी	-5.66067
▁कि	-5.76928
▁for	-5.81667
▁that	-5.83919
ed	-5.86199
ing	-5.8845
▁(	-5.90151
▁it	-5.90966
▁'	-5.9405
▁नहीं	-6.00226
▁was	-6.00466
▁लिए	-6.0096
▁भी	-6.02566
▁यह	-6.04989
)	-6.06464
▁on	-6.07398
▁be	-6.07409
▁this	-6.08616
ा	-6.13877
▁इस	-6.13965
न	-6.14497
▁are	-6.15132
क	-6.17111
▁कर	-6.18178
▁as	-6.18679
▁with	-6.2488
▁ने	-6.25751
▁by	-6.25966
d	-6.26027
▁हो	-6.29001
▁था	-6.31131
▁you	-6.33477
▁किया	-6.34272
▁जो	-6.36835
▁he	-6.36889
▁ही	-6.3694
ता	-6.37036
▁not	-6.37767
▁or	-6.39777
'	-6.40641
▁s	-6.42088
t	-6.45534
▁करने	-6.46716
:	-6.50715
े	-6.51163
▁from	-6.52329
▁तो	-6.53986
▁या	-6.54591
ना	-6.57231
▁गया	-6.60248
ly	-6.60397
▁his	-6.61523
▁an	-6.61746
▁i	-6.61888
र	-6.63394
्	-6.64731
▁have	-6.66723
▁at	-6.7007
▁which	-6.70646
▁has	-6.71549
ने	-6.72987
er	-6.73556
ल	-6.74526
▁“	-6.75187
▁but	-6.80409
?	-6.80992
▁आप	-6.81058
▁can	-6.81612
▁अपने	-6.83072
a	-6.83346
स	-6.85674
▁”	-6.85736
▁they	-6.86139
y	-6.86281
म	-6.87979
▁we	-6.88236
▁वह	-6.89641
त	-6.9022
▁रूप	-6.90896
ं	-6.93893
▁one	-6.9493
▁तथा	-6.95538
▁कुछ	-6.96081
▁all	-6.9614
▁साथ	-6.96945
▁जाता	-6.97648
▁न	-6.98914
▁there	-6.98943
e	-7.00438
▁तक	-7.02448
▁करना	-7.03147
▁वे	-7.03998
▁जा	-7.05732
▁थे	-7.06617
▁so	-7.06833
▁द्वारा	-7.07283
▁होता	-7.07674
ित	-7.09126
▁their	-7.111
▁will	-7.11238
%	-7.1157
▁थी	-7.11832
▁दिया	-7.11874
▁सकता	-7.12072
▁if	-7.13305
al	-7.13373
▁किसी	-7.16199
▁आ	-7.16879
ो	-7.16937
▁were	-7.18898
▁कोई	-7.21879
▁had	-7.24505
▁india	-7.24546
▁अ	-7.25238
n	-7.25295
▁समय	-7.25627
▁also	-7.26819
▁जब	-7.27497
व	-7.27811
re	-7.28148
i	-7.29605
▁बहुत	-7.30887
m	-7.31233
▁बाद	-7.31875
▁हम	-7.32379
r	-7.3265
▁करते	-7.33378
▁भारत	-7.3413
▁when	-7.34277
ज	-7.34853
प	-7.35517
य	-7.36995
▁)	-7.37419
▁its	-7.38543
▁time	-7.38628
▁about	-7.38808
▁your	-7.38811
▁do	-7.38834
▁out	-7.38851
▁रहा	-7.39798
ब	-7.40083
▁other	-7.40172
ि	-7.40223
ियों	-7.41248
▁who	-7.41296
▁people	-7.42271
▁more	-7.42363
▁up	-7.43057
ऊ	-7.43126
▁करें	-7.43134
द	-7.43315
▁no	-7.43904
▁रहे	-7.44061
▁been	-7.44106
▁सकते	-7.44761
▁अधिक	-7.45055
ट	-7.4658
▁ये	-7.46868
▁these	-7.47096
▁मैं	-7.47557
▁अपनी	-7.4772
ते	-7.48061
/	-7.48443
g	-7.49276
▁होती	-7.49755
es	-7.50142
▁होने	-7.51731
▁करता	-7.51754
p	-7.52326
कर	-7.5245
▁may	-7.53704
▁some	-7.53762
▁कम	-7.53825
▁what	-7.53843
▁them	-7.54578
▁हुआ	-7.54949
▁लेकिन	-7.55562
श	-7.56251
▁un	-7.56495
▁only	-7.56906
ह	-7.57331
▁तरह	-7.57488
c	-7.57636
ओं	-7.57829
▁उनके	-7.58051
▁वाले	-7.58332
▁हुए	-7.58422
▁उस	-7.58726
▁()	-7.58898
▁after	-7.59392
▁like	-7.59679
;	-7.61031
▁कारण	-7.61279
▁इन	-7.62154
ऋ	-7.63032
ला	-7.63213
▁काम	-7.63847
▁मे	-7.64061
रा	-7.64281
▁पहले	-7.6432
▁क्या	-7.64394
in	-7.64566
▁re	-7.64631
ण्श्	-7.64999
िक	-7.65156
छ्ष	-7.65677
”	-7.66593
ें	-7.66691
▁नाम	-7.67472
▁उसे	-7.68201
्य	-7.68214
▁वि	-7.68234
▁new	-7.6871
ड	-7.68924
▁two	-7.69571
ीय	-7.69775
▁any	-7.70398
▁चाहिए	-7.70551
▁व	-7.70751
▁कार्य	-7.7077
▁दो	-7.71289
▁over	-7.71342
▁उन्हें	-7.71514
▁प्रकार	-7.71585
or	-7.7262
री	-7.72652
▁बात	-7.72931
o	-7.73095
▁इसके	-7.73736
ग	-7.73748
ती	-7.73799
▁government	-7.73931
l	-7.74541
या	-7.75053
▁उसके	-7.75063
▁कहा	-7.76009
▁अब	-7.76077
ic	-7.76096
▁should	-7.76145
▁world	-7.76408
▁into	-7.76797
th	-7.76917
▁>	-7.77291
▁?	-7.77489
ु	-7.77815
▁<	-7.79347
rrb	-7.79976
▁सभी	-7.8052
lrb	-7.80779
▁अन्य	-7.80789
▁स	-7.80894
▁many	-7.81571
▁her	-7.81573
ation	-7.81943
▁बारे	-7.82009
▁indian	-7.8228
ड़	-7.82315
की	-7.82471
▁जाने	-7.82627
▁होते	-7.82668
▁प्र	-7.82699
▁प्रति	-7.83329
▁very	-7.835
▁फिर	-7.84097
▁लोगों	-7.84652
▁first	-7.84737
le	-7.84866
an	-7.84981
b	-7.85008
▁उन	-7.85476
▁जाती	-7.85572
ः	-7.85588
▁क	-7.85658
▁गई	-7.86139
▁सरकार	-7.86379
able	-7.86933
▁would	-7.87153
▁म	-7.87588
▁than	-7.87677
k	-7.87931
▁him	-7.87948
ion	-7.88712
▁लिये	-7.88788
सी	-7.89495
ख	-7.90251
ई	-7.9042
▁made	-7.90685
▁my	-7.90954
▁because	-7.91227
▁गए	-7.91802
नी	-7.91889
▁under	-7.9195
▁जैसे	-7.92048
▁दी	-7.92657
▁उन्होंने	-7.92666
▁यदि	-7.92675
▁years	-7.93456
▁de	-7.93567
ण	-7.94036
▁me	-7.94086
▁क्षेत्र	-7.94474
▁भारतीय	-7.94653
▁state	-7.95328
ness	-7.95421
▁:	-7.95497
▁she	-7.95613
▁देश	-7.95756
▁most	-7.96282
का	-7.96352
▁man	-7.9681
ए	-7.9711
ज़	-7.97364
▁होगा	-7.97546
ity	-7.97688
▁now	-7.98352
▁work	-7.98363
▁then	-7.9865
▁/	-7.98797
▁could	-7.99029
ma	-7.99378
▁our	-7.995
वा	-7.99948
▁अगर	-8.00449
us	-8.00965
से	-8.0105
▁get	-8.01197
▁उनकी	-8.01579
▁सबसे	-8.01879
▁ले	-8.01934
▁go	-8.0196
▁even	-8.01982
▁पास	-8.02057
▁used	-8.02795
▁प्राप्त	-8.03011
▁रही	-8.03216
▁हुई	-8.03569
▁प्रयोग	-8.04714
▁life	-8.04724
ली	-8.04823
▁सकती	-8.0577
en	-8.06029
▁राज्य	-8.06169
▁d	-8.06363
it	-8.06434
ra	-8.07486
▁लोग	-8.07863
▁जीवन	-8.08361
▁हर	-8.09144
▁इसे	-8.09273
▁per	-8.0936
ri	-8.09407
▁एवं	-8.09545
▁ए	-8.09721
▁बार	-8.09724
ur	-8.0977
एं	-8.09776
▁सं	-8.09863
▁ओर	-8.09986
▁make	-8.1009
च	-8.10387
ti	-8.10667
na	-8.10835
▁use	-8.11138
ment	-8.1168
ाई	-8.11873
▁such	-8.12668
▁जाना	-8.12736
मा	-8.12766
▁p	-8.12949
▁केवल	-8.13096
▁ऐसा	-8.13701
▁होना	-8.14004
h	-8.14208
▁ब	-8.14369
▁part	-8.1445
▁where	-8.14661
▁कई	-8.14756
▁प	-8.15279
फ	-8.15657
ू	-8.16301
▁year	-8.1655
▁वाली	-8.16947
▁पूर्व	-8.17235
▁being	-8.17312
▁how	-8.17461
la	-8.18004
्स	-8.18265
▁अपना	-8.18901
▁इ	-8.19022
ta	-8.19728
▁मुझे	-8.19903
ar	-8.20081
▁जाते	-8.20101
▁तब	-8.20139
▁before	-8.20265
▁system	-8.20288
▁ग	-8.20438
▁वर्ष	-8.20928
▁आपको	-8.20987
▁बीच	-8.21113
il	-8.21224
िंग	-8.21376
▁court	-8.2172
▁name	-8.21845
▁उ	-8.21894
li	-8.22582
▁उपयोग	-8.22781
▁during	-8.22832
▁भाग	-8.22986
▁way	-8.2299
▁country	-8.23018
▁called	-8.2315
ia	-8.23596
▁between	-8.23857
u	-8.23938
सा	-8.24073
▁see	-8.241
▁war	-8.24173
ch	-8.24199
▁us	-8.24216
ॉ	-8.24267
▁day	-8.24635
ंग	-8.24639
ै	-8.25268
▁c	-8.25333
▁कभी	-8.25933
▁दिन	-8.2611
िका	-8.26394
▁वो	-8.26577
▁ऐसे	-8.26585
िया	-8.27014
▁करती	-8.2779
ive	-8.27865
▁नि	-8.2795
▁धर्म	-8.28128
▁well	-8.28199
ent	-8.28208
ers	-8.28345
um	-8.28395
▁लिया	-8.28693
ous	-8.2877
▁take	-8.28996
am	-8.29215
▁b	-8.29633
▁बना	-8.29638
▁through	-8.3006
▁back	-8.30369
man	-8.30482
थ	-8.30941
ro	-8.31512
ate	-8.3171
▁अलग	-8.31796
▁number	-8.31999
▁द	-8.32017
f	-8.32047
▁उसकी	-8.32498
▁विश्व	-8.32627
▁said	-8.33028
▁long	-8.33643
as	-8.33711
▁help	-8.33974
▁क्योंकि	-8.34171
▁सु	-8.34207
▁देने	-8.34292
▁e	-8.34337
on	-8.34388
▁here	-8.3492
▁place	-8.35456
el	-8.35465
(	-8.35528
▁just	-8.35556
▁स्थान	-8.35588
▁उसने	-8.35696
के	-8.35777
▁सी	-8.35972
अ	-8.36012
▁साल	-8.36172
▁end	-8.36629
▁ज	-8.36707
▁those	-8.37162
▁1	-8.37299
v	-8.3738
▁दे	-8.37856
▁know	-8.37978
▁व्यक्ति	-8.38013
▁अनुसार	-8.3807
▁विकास	-8.38166
▁|	-8.3819
▁सब	-8.38349
▁right	-8.38353
ant	-8.38531
▁बे	-8.38594
▁good	-8.38853
़	-8.39002
▁दोनों	-8.39056
▁पता	-8.39183
▁different	-8.39384
▁अव	-8.39526
कार	-8.40099
▁भाषा	-8.403
रे	-8.4073
▁national	-8.40771
▁गये	-8.4085
▁अनु	-8.40887
▁great	-8.4098
ul	-8.4141
प्र	-8.41764
वि	-8.41879
▁गयी	-8.42175
x	-8.42193
st	-8.42418
▁set	-8.42852
▁विशेष	-8.43079
▁power	-8.43232
▁हूँ	-8.43756
▁स्थिति	-8.44089
▁इसका	-8.44246
to	-8.44266
दा	-8.44515
▁three	-8.44638
▁सन्	-8.4476
ले	-8.45182
▁किए	-8.45225
▁did	-8.45441
ध	-8.45662
ति	-8.45888
ंड	-8.45987
▁कु	-8.46016
नि	-8.46046
te	-8.46622
▁ख	-8.46625
ve	-8.4691
▁water	-8.46957
▁हमारे	-8.47005
▁युद्ध	-8.47222
▁लगा	-8.47473
at	-8.47591
▁against	-8.47757
w	-8.47769
▁2	-8.48148
▁विचार	-8.48348
ne	-8.48377
di	-8.48607
▁language	-8.49108
▁g	-8.49153
इ	-8.49303
जी	-8.49309
ँ	-8.49389
▁much	-8.49541
▁ल	-8.49609
▁high	-8.49611
!	-8.49662
▁तीन	-8.49842
▁must	-8.50071
गी	-8.5008
▁found	-8.5024
▁उत्तर	-8.50302
▁house	-8.50315
▁मिल	-8.50384
▁चार	-8.50489
▁down	-8.50836
ll	-8.51093
▁co	-8.51195
▁पा	-8.51221
▁सा	-8.51377
▁हमें	-8.51859
▁उनका	-8.52049
▁information	-8.52658
▁list	-8.52705
▁hindi	-8.52762
▁same	-8.52772
ठ	-8.52825
id	-8.5313
ck	-8.53571
▁need	-8.54155
the	-8.54306
▁आधार	-8.5447
▁{	-8.5447
▁दूसरे	-8.54741
भ	-8.54813
▁while	-8.55018
▁known	-8.55019
▁every	-8.55108
▁शुरू	-8.55465
se	-8.5556
▁own	-8.55574
फ़	-8.55653
जा	-8.56074
▁काफी	-8.56096
▁important	-8.56131
स्	-8.56255
ce	-8.56273
▁जिसमें	-8.56361
▁last	-8.56518
▁अभि	-8.56557
यों	-8.56557
ism	-8.5686
▁अनेक	-8.56976
▁उसका	-8.57063
▁t	-8.57115
▁both	-8.5719
▁want	-8.57472
▁file	-8.5771
मान	-8.57722
▁त	-8.57822
lo	-8.58072
▁law	-8.58249
▁form	-8.58308
आ	-8.58629
▁each	-8.58683
ary	-8.5889
▁अन	-8.59085
▁19	-8.59336
2	-8.59466
▁बा	-8.59692
▁नही	-8.59887
▁बन	-8.59971
▁given	-8.59976
▁public	-8.60594
sh	-8.6069
▁सामान्य	-8.60798
▁जी	-8.60837
▁does	-8.60884
age	-8.60978
▁दर	-8.61031
▁come	-8.61253
▁3	-8.61417
▁प्रभाव	-8.61944
▁उपलब्ध	-8.61979
▁वाला	-8.6225
पर	-8.62331
▁र	-8.62336
▁dis	-8.62359
▁दौरान	-8.62574
▁आदि	-8.6261
ry	-8.62646
▁ला	-8.62807
ियां	-8.62908
▁आपके	-8.63227
▁अमेरिका	-8.63377
z	-8.63484
▁इसमें	-8.63731
ya	-8.6386
▁due	-8.63983
गा	-8.6405
▁n	-8.64217
less	-8.64477
▁भ	-8.64478
▁मेरे	-8.64542
▁श	-8.65017
▁states	-8.65059
▁इससे	-8.65074
ci	-8.65154
is	-8.6516
et	-8.65279
▁m	-8.65708
▁प्रमुख	-8.65711
▁case	-8.65716
ist	-8.65975
टी	-8.66017
▁home	-8.6623
ter	-8.66292
▁human	-8.6666
▁“”	-8.66743
▁महत्वपूर्ण	-8.66869
ौ	-8.66891
▁na	-8.66899
▁निर्माण	-8.67061
▁च	-8.67088
पी	-8.67182
▁बाहर	-8.67226
▁पी	-8.67334
▁प्रक्रिया	-8.67796
▁कहते	-8.67831
▁घर	-8.67949
▁मध्य	-8.6795
▁शामिल	-8.68001
▁आज	-8.68018
▁सहायता	-8.68078
▁main	-8.68128
▁योजना	-8.68185
▁ना	-8.68389
▁free	-8.68485
▁ऐसी	-8.68496
▁इसलिए	-8.68539
▁<>	-8.68802
▁another	-8.69547
▁अथवा	-8.69589
▁उप	-8.6964
▁think	-8.69998
▁जिसे	-8.70133
▁political	-8.70166
▁k	-8.70383
▁small	-8.70464
▁राष्ट्रीय	-8.70569
ish	-8.70584
▁अर्थ	-8.70816
▁person	-8.70822
▁air	-8.7102
मी	-8.71157
▁देना	-8.71275
में	-8.71297
▁पूरी	-8.71457
▁ma	-8.71513
टा	-8.71945
▁सूची	-8.71983
▁हेतु	-8.71984
▁आगे	-8.72119
}	-8.72346
▁change	-8.72418
▁इसी	-8.72471
▁ह	-8.72564
▁position	-8.72691
▁मैंने	-8.72888
▁open	-8.73245
▁account	-8.73281
▁जल	-8.73447
क्ष	-8.73745
▁give	-8.74068
▁चाहते	-8.74102
▁जाए	-8.74144
▁सेवा	-8.74251
▁रंग	-8.74281
पूर्ण	-8.74612
▁न्यायालय	-8.74746
▁बनाने	-8.74861
▁god	-8.74877
▁बिना	-8.74895
ge	-8.75062
रो	-8.75289
▁मूल	-8.75416
स्ट	-8.75462
▁british	-8.75481
va	-8.7559
co	-8.75649
▁स्तर	-8.75666
ha	-8.75699
वर	-8.75796
ni	-8.75917
▁f	-8.76083
▁ज्यादा	-8.7615
्र	-8.76251
▁लगभग	-8.76394
▁going	-8.76493
▁without	-8.76578
एँ	-8.76744
“”	-8.76844
▁परि	-8.7686
हा	-8.7688
▁la	-8.76887
▁मुख्य	-8.76969
vi	-8.77066
me	-8.77484
▁ka	-8.77488
▁'%	-8.77502
▁यहाँ	-8.7766
▁order	-8.77684
▁प्रतिशत	-8.77843
▁according	-8.78004
▁data	-8.78054
म्ब	-8.78089
▁बड़ी	-8.781
बा	-8.78108
j	-8.78227
▁अधिकार	-8.78389
▁शब्द	-8.78443
▁don	-8.78507
▁ra	-8.78562
▁however	-8.78591
को	-8.78775
▁राज	-8.78839
▁यहां	-8.79089
tic	-8.79191
▁old	-8.79321
▁president	-8.79321
▁जिस	-8.79356
▁परिवर्तन	-8.79406
▁period	-8.79408
स्त	-8.79626
ओ	-8.79666
est	-8.79693
▁local	-8.79733
▁मु	-8.79782
वे	-8.80214
▁second	-8.80273
▁जैसा	-8.80356
▁सि	-8.8051
▁control	-8.8055
ak	-8.80611
ad	-8.80661
▁group	-8.80702
▁service	-8.80769
▁जहां	-8.80781
▁अभी	-8.80792
▁support	-8.80963
▁अप	-8.81088
क्स	-8.81097
दार	-8.81098
▁मंदिर	-8.81167
▁pro	-8.81262
▁social	-8.813
▁cannot	-8.81365
ies	-8.81416
ted	-8.81472
▁four	-8.81629
▁विभिन्न	-8.81659
▁सके	-8.81733
▁दुनिया	-8.81838
▁non	-8.81951
▁भर	-8.82008
▁ओ	-8.82053
ated	-8.82149
▁जानकारी	-8.82318
ाव	-8.82366
▁ली	-8.8237
▁18	-8.82454
▁minister	-8.82683
वी	-8.8272
▁done	-8.8281
घ	-8.8286
▁body	-8.83068
▁car	-8.83095
▁development	-8.83268
▁हे	-8.83304
▁book	-8.83466
de	-8.83541
▁o	-8.83738
▁उद्योग	-8.83865
ण्ड	-8.83927
▁पे	-8.84009
▁vi	-8.84038
▁capital	-8.84097
▁got	-8.84122
be	-8.84266
▁left	-8.84451
▁ध्यान	-8.84541
▁संख्या	-8.84619
▁खेल	-8.84635
▁category	-8.84772
▁स्थित	-8.84774
▁find	-8.85094
▁ई	-8.85221
▁process	-8.85225
बी	-8.85337
▁तौर	-8.85684
▁general	-8.85817
▁पत्र	-8.86136
▁came	-8.86284
ful	-8.8637
▁देखा	-8.86393
पन	-8.86457
▁प्रदान	-8.86536
▁यू	-8.86609
▁children	-8.86701
sa	-8.86981
सं	-8.87013
▁आम	-8.87211
▁put	-8.87424
▁muslim	-8.87497
▁child	-8.87509
▁देते	-8.87558
मे	-8.87818
▁u	-8.87835
▁उच्च	-8.87894
▁present	-8.88084
▁head	-8.88117
▁congress	-8.88136
ड़ी	-8.88147
▁al	-8.88163
▁विषय	-8.88163
▁आर्थिक	-8.88329
ार	-8.88338
▁hand	-8.88414
▁काल	-8.88566
▁रोग	-8.886
▁संबंध	-8.8861
▁रि	-8.88718
▁type	-8.88797
▁days	-8.89036
▁देता	-8.89293
▁things	-8.89347
▁mo	-8.89361
ting	-8.89528
▁तैयार	-8.89633
1	-8.89768
▁act	-8.89802
▁ऊपर	-8.8983
▁large	-8.89904
▁हिन्दी	-8.8991
▁अंत	-8.8993
▁little	-8.89936
▁am	-8.89967
▁बदल	-8.90088
र्	-8.90107
ंस	-8.90156
▁show	-8.90332
▁सूचना	-8.90376
▁off	-8.90395
▁इतिहास	-8.90549
गत	-8.90763
▁सम	-8.90777
▁available	-8.90823
▁party	-8.90903
▁उदाहरण	-8.91012
▁मदद	-8.91042
▁south	-8.91069
▁city	-8.91087
no	-8.91094
▁पूर्ण	-8.91119
दी	-8.91171
ीकरण	-8.91189
un	-8.91316
ड़ा	-8.91417
ine	-8.91477
▁say	-8.91602
▁दूर	-8.91724
▁history	-8.91832
he	-8.91945
▁started	-8.91975
ty	-8.91976
▁विधि	-8.91986
ंट	-8.92099
▁रह	-8.92148
im	-8.9219
▁कैसे	-8.92347
▁संविधान	-8.92368
▁चल	-8.92412
▁post	-8.92634
▁लगता	-8.92758
▁5	-8.92815
hi	-8.92863
क्	-8.92952
▁अल	-8.93066
▁computer	-8.93098
ाना	-8.93181
▁निर्णय	-8.93243
ance	-8.93287
▁side	-8.9334
▁again	-8.93405
▁बच्चे	-8.93429
वाद	-8.93515
▁become	-8.93525
▁उत्पादन	-8.93717
▁समूह	-8.94044
▁hindu	-8.94057
▁view	-8.94308
▁whole	-8.94337
ol	-8.94726
▁muslims	-8.94857
▁river	-8.94904
▁men	-8.94916
▁age	-8.95133
▁सही	-8.95222
▁market	-8.95317
▁money	-8.95329
▁policy	-8.95586
▁राम	-8.95621
▁कांग्रेस	-8.95867
▁ca	-8.95895
▁स्वयं	-8.95897
▁land	-8.95943
▁later	-8.96082
▁v	-8.96134
▁look	-8.96208
▁जन्म	-8.96258
▁करके	-8.96282
ut	-8.96383
▁सदस्य	-8.96495
▁आवश्यक	-8.96508
▁बड़े	-8.96527
ian	-8.96634
▁light	-8.96645
▁सामने	-8.96682
▁4	-8.96756
▁समान	-8.96766
▁छोटे	-8.9684
▁area	-8.96996
▁parliament	-8.97031
▁समस्या	-8.97179
▁still	-8.97213
▁far	-8.97269
▁होगी	-8.97349
▁नीति	-8.97358
▁लेकर	-8.97509
▁company	-8.97684
▁फ	-8.97696
ंज	-8.97904
▁full	-8.97904
▁देख	-8.97918
▁pre	-8.97932
न्	-8.97954
▁please	-8.97964
▁आई	-8.9799
▁english	-8.98002
▁ex	-8.9805
▁too	-8.98072
▁पद	-8.98091
ence	-8.98203
▁few	-8.98238
▁मांग	-8.98322
▁why	-8.98588
▁king	-8.9865
▁common	-8.98999
▁पूरा	-8.99086
▁near	-8.99249
▁point	-8.99415
▁खोज	-8.99442
▁स्पष्ट	-8.99453
▁special	-8.99486
up	-8.99509
ंक	-8.99514
▁प्रत्येक	-8.99557
▁संसद	-8.99781
्या	-9.00018
▁कै	-9.00024
ke	-9.00279
▁islam	-9.00298
▁ठीक	-9.0048
छ	-9.00587
▁दक्षिण	-9.00711
▁school	-9.00799
▁थीं	-9.00984
▁संघ	-9.00996
ाय	-9.01063
▁जिसके	-9.0133
▁जिससे	-9.01341
उ	-9.01346
▁family	-9.01355
▁नदी	-9.0146
▁bo	-9.01472
▁since	-9.01474
▁बैंक	-9.01492
▁रे	-9.01507
▁आकार	-9.01571
▁व्यवस्था	-9.01611
▁con	-9.01895
▁fact	-9.0191
▁शक्ति	-9.01993
▁food	-9.02022
▁लेने	-9.02067
▁शरीर	-9.02074
ling	-9.02133
ot	-9.02149
▁sub	-9.02276
go	-9.02327
▁बच्चों	-9.02409
▁ध	-9.02459
▁whether	-9.02516
▁बंद	-9.02627
▁बड़ा	-9.02678
▁नीचे	-9.02866
▁example	-9.0287
▁10	-9.02924
▁शहर	-9.02952
०	-9.03004
तर	-9.03152
tion	-9.03234
▁religion	-9.03271
▁अच्छा	-9.03467
▁always	-9.03579
ja	-9.03648
▁दूसरी	-9.03691
▁start	-9.03797
▁श्रेणीः	-9.03822
▁bank	-9.03902
▁text	-9.03974
▁रखा	-9.04004
▁गो	-9.0401
न्द	-9.04189
▁play	-9.04259
ृ	-9.04296
लि	-9.04391
ir	-9.04416
▁महा	-9.04449
▁मामले	-9.04464
▁means	-9.04474
▁business	-9.04825
ial	-9.05059
▁हाथ	-9.05068
▁आतंकवाद	-9.05145
▁ऋण	-9.05266
▁हों	-9.05277
▁around	-9.05338
▁office	-9.05381
डी	-9.05497
▁पीछे	-9.05543
▁कंपनी	-9.05573
▁जारी	-9.0561
▁महिला	-9.05839
▁away	-9.05963
▁फ़ाइल	-9.05984
्म	-9.0604
ड़े	-9.06052
▁बल्कि	-9.06257
रण	-9.06266
ीन	-9.06275
▁rate	-9.0629
op	-9.06315
▁best	-9.06453
▁today	-9.0653
▁शिक्षा	-9.0655
▁सुरक्षा	-9.0678
▁''	-9.06969
▁constitution	-9.07001
▁among	-9.07048
min	-9.07086
▁माना	-9.07119
वादी	-9.07144
▁आने	-9.07147
▁taken	-9.07174
po	-9.07242
रि	-9.07281
▁सीमा	-9.07417
▁वर्षों	-9.07484
▁उत्पन्न	-9.07595
▁सो	-9.07719
ph	-9.07763
▁within	-9.07881
han	-9.07887
▁किये	-9.07907
▁word	-9.07997
▁women	-9.08066
▁next	-9.08181
▁ट	-9.08345
▁times	-9.08474
▁आवश्यकता	-9.08561
▁lot	-9.08602
▁error	-9.08654
▁सभा	-9.08665
▁जिसका	-9.08701
▁members	-9.08925
▁st	-9.09118
▁यही	-9.09147
▁death	-9.09259
▁key	-9.09373
▁took	-9.09424
▁united	-9.09447
त्त	-9.09481
▁मान	-9.09486
ष	-9.09608
▁वृद्धि	-9.09642
▁।	-9.09665
▁दा	-9.09688
▁परिवार	-9.09709
and	-9.09714
ver	-9.09717
▁health	-9.0974
▁बाजार	-9.10024
▁bar	-9.10041
▁cent	-9.10044
▁6	-9.10121
▁बल	-9.1014
▁इस्तेमाल	-9.10143
▁माल	-9.1026
▁राष्ट्रपति	-9.10269
▁seen	-9.10275
pur	-9.10345
▁हमने	-9.10559
▁keep	-9.1062
▁en	-9.10628
▁north	-9.10673
▁बस	-9.10736
▁राष्ट्र	-9.10822
▁मन	-9.10871
▁फ़	-9.10948
▁sc	-9.10959
कि	-9.112
▁श्रेणी	-9.11294
▁art	-9.11323
▁less	-9.1135
▁कल	-9.11407
▁pa	-9.11407
▁इस्लाम	-9.1143
▁self	-9.11476
▁स्थापित	-9.11586
▁mind	-9.1162
▁रक्त	-9.11664
पा	-9.11773
िस	-9.11775
▁line	-9.118
▁कुल	-9.11918
▁मिला	-9.12008
▁पक्ष	-9.12096
▁became	-9.12145
▁problem	-9.12251
▁पानी	-9.1227
▁international	-9.1233
▁जबकि	-9.12399
od	-9.12445
▁प्रवेश	-9.12464
ात्मक	-9.12465
▁प्रस्ताव	-9.12553
▁गा	-9.12588
▁really	-9.12605
▁ram	-9.12632
▁प्रणाली	-9.12637
▁स्थानीय	-9.12673
▁मानव	-9.1268
da	-9.12707
▁though	-9.12756
श्	-9.12764
▁east	-9.12877
कारी	-9.1299
▁जगह	-9.13055
वार	-9.13147
पुर	-9.1319
▁नियंत्रण	-9.13253
▁read	-9.13266
pa	-9.13409
▁central	-9.13444
▁पिछले	-9.13506
▁inter	-9.13521
▁लग	-9.13558
▁plant	-9.13566
जन	-9.1357
▁एस	-9.13593
▁किंतु	-9.136
खा	-9.1364
▁बि	-9.13644
▁never	-9.13701
▁रहने	-9.13745
▁%	-9.13801
▁district	-9.13813
wa	-9.13833
▁पुरुष	-9.13899
▁bill	-9.13941
▁जमा	-9.14112
▁ऐ	-9.142
▁heart	-9.14247
▁industry	-9.1425
▁धन	-9.14264
▁संदेश	-9.14273
▁शायद	-9.14312
िन	-9.14374
▁young	-9.14379
▁स्वीकार	-9.14379
▁चला	-9.1439
si	-9.14426
▁क्षमता	-9.14531
▁परिणाम	-9.14563
त्र	-9.14567
▁blood	-9.14626
ba	-9.14778
▁विश्वास	-9.1484
▁अकबर	-9.14854
▁मात्रा	-9.14913
▁समाज	-9.15072
▁economic	-9.15187
▁चित्र	-9.15254
ास	-9.15255
▁मा	-9.15266
म्	-9.15276
▁test	-9.15434
ंत	-9.15566
▁temple	-9.15605
▁foreign	-9.15636
▁सेना	-9.15673
ये	-9.15722
▁रखने	-9.15767
त्व	-9.15796
mi	-9.15966
▁ad	-9.1603
▁छ	-9.16089
ंद	-9.16126
▁जन	-9.16256
▁countries	-9.16273
ating	-9.16293
िल	-9.16386
▁based	-9.16411
▁result	-9.16455
▁w	-9.16673
▁वर्ग	-9.16675
gu	-9.16696
▁बनाया	-9.16704
▁five	-9.16774
▁went	-9.16844
▁face	-9.16876
▁विज्ञान	-9.16956
▁परंतु	-9.17147
▁matter	-9.17164
▁thought	-9.17174
▁class	-9.1745
▁पि	-9.17479
▁लाख	-9.17548
▁something	-9.17557
▁...	-9.17557
▁घ	-9.17655
▁पाया	-9.17656
▁run	-9.1776
pi	-9.17786
यां	-9.17846
▁level	-9.18079
bi	-9.1828
▁इजरायल	-9.18312
▁culture	-9.18336
▁love	-9.18349
▁गु	-9.18366
▁value	-9.18406
:%	-9.18408
▁सामाजिक	-9.18425
▁थ	-9.18428
▁network	-9.18468
▁प्रयास	-9.18527
▁15	-9.18561
▁pi	-9.18722
▁call	-9.18953
▁मत	-9.19104
▁ja	-9.19141
om	-9.19186
▁मेरी	-9.19208
▁कानून	-9.19232
▁council	-9.19318
▁address	-9.19331
▁etc	-9.19333
3	-9.19369
▁di	-9.1941
▁जाएगा	-9.19742
▁often	-9.1975
▁मै	-9.19785
os	-9.19806
▁possible	-9.19912
▁अच्छी	-9.19912
▁check	-9.19987
▁साहित्य	-9.20044
▁ha	-9.20121
▁लोक	-9.20154
▁action	-9.20197
▁अंग	-9.2021
र्स	-9.20218
▁दल	-9.20281
▁समाप्त	-9.20336
▁services	-9.20354
मन	-9.20468
▁दृष्टि	-9.20648
▁संभव	-9.20847
स्थ	-9.20856
▁question	-9.20951
▁वायु	-9.21114
▁better	-9.21178
▁पार्टी	-9.2118
▁समझ	-9.21196
▁लाभ	-9.21232
▁working	-9.21253
▁बहु	-9.21261
▁नया	-9.21317
▁हमारी	-9.2147
हार	-9.2159
▁short	-9.21697
टर	-9.21731
▁पैदा	-9.21804
्व	-9.21822
ga	-9.21827
mo	-9.21833
▁मि	-9.21839
▁इं	-9.22016
▁स्	-9.22016
▁सुधार	-9.22252
ca	-9.22303
▁date	-9.22449
▁able	-9.22481
▁million	-9.22534
▁west	-9.22651
▁पहली	-9.22738
▁akbar	-9.22868
▁movement	-9.22892
▁छोड़	-9.2305
▁संकेत	-9.23251
काल	-9.23286
▁using	-9.23286
बे	-9.23294
▁bi	-9.23317
रूप	-9.23469
▁बी	-9.2376
▁access	-9.2376
▁real	-9.23769
▁अरब	-9.23808
▁let	-9.23826
▁खुद	-9.23868
शा	-9.2393
▁प्रथम	-9.23965
▁श्री	-9.23984
डा	-9.24016
▁कोशिश	-9.24035
nt	-9.24208
ka	-9.24235
▁union	-9.2424
▁religious	-9.24241
▁le	-9.24262
▁american	-9.24285
▁r	-9.24293
▁film	-9.24307
▁words	-9.24337
▁वहां	-9.24384
▁अधि	-9.24433
▁story	-9.24482
▁जाये	-9.24558
वाह	-9.24685
▁रहते	-9.24735
▁अध्ययन	-9.24797
▁ड	-9.24847
▁बने	-9.2488
ाइ	-9.24908
▁देशों	-9.24988
▁20	-9.25043
▁pay	-9.25044
▁राय	-9.25182
▁woman	-9.25221
स्क	-9.25243
▁लगे	-9.25249
▁ta	-9.25448
▁अनुभव	-9.25851
▁प्रदेश	-9.25934
ान	-9.25943
▁उसी	-9.25983
▁अंतिम	-9.25994
▁डि	-9.26096
▁12	-9.26169
▁middle	-9.26197
▁hard	-9.26242
▁सक्रिय	-9.26346
▁red	-9.26487
▁लाल	-9.26537
▁क्यों	-9.26543
land	-9.26641
चा	-9.26751
▁हा	-9.26763
tal	-9.26789
▁big	-9.26802
▁आधुनिक	-9.26904
▁mu	-9.26904
शी	-9.26908
▁सारे	-9.2698
त्	-9.27146
▁h	-9.27174
▁विस्तार	-9.27221
▁जनता	-9.2724
▁video	-9.27512
▁kind	-9.27559
▁century	-9.27616
▁might	-9.27691
▁भूमिका	-9.27789
▁जांच	-9.27845
▁ro	-9.27878
▁सुभाष	-9.27906
▁israel	-9.27963
▁delhi	-9.27974
▁गति	-9.27981
ac	-9.28032
▁प्रस्तुत	-9.28082
▁problems	-9.28143
▁terrorism	-9.28167
▁;	-9.28175
▁ठ	-9.28182
▁वापस	-9.28199
▁संबंधित	-9.28241
▁उससे	-9.28442
▁वर्तमान	-9.2855
▁clear	-9.28559
▁cost	-9.28605
▁बै	-9.28778
ंच	-9.28874
▁ब्रिटिश	-9.28911
▁लागू	-9.28911
▁आय	-9.28937
▁रहता	-9.29014
▁mumbai	-9.29129
▁मूल्य	-9.29188
▁ho	-9.292
▁cha	-9.29256
▁बाल	-9.29287
▁पार	-9.29319
▁report	-9.29394
भा	-9.29426
▁व्यापार	-9.29477
ure	-9.2959
बल	-9.29668
▁संपर्क	-9.29711
▁modern	-9.29787
▁tell	-9.29805
▁पृष्ठ	-9.29805
▁स्व	-9.29854
▁संयुक्त	-9.29876
रु	-9.29919
rs	-9.30012
▁देती	-9.30115
▁cricket	-9.30151
ढ़	-9.30195
▁live	-9.30338
▁आया	-9.30346
ोर	-9.30391
▁हूं	-9.30399
▁दिल्ली	-9.30447
▁जहाँ	-9.30522
▁anti	-9.30522
▁अनुमति	-9.30596
मो	-9.30611
▁विभाग	-9.30612
“	-9.30622
▁खा	-9.30641
ग्	-9.30708
ज़ा	-9.30754
▁care	-9.30842
कों	-9.3085
per	-9.30933
▁says	-9.30941
डे	-9.3097
▁शासन	-9.3106
▁once	-9.31074
▁front	-9.31161
हर	-9.31183
▁making	-9.31266
▁past	-9.31328
▁production	-9.31346
▁निर्धारित	-9.31366
▁education	-9.31382
▁प्रश्न	-9.31454
▁department	-9.31479
▁page	-9.31532
▁code	-9.31556
▁वास्तव	-9.3158
१	-9.31745
▁माध्यम	-9.31777
▁याद	-9.31829
क़	-9.31875
र्ज	-9.31898
▁सहायक	-9.31927
▁phone	-9.32042
▁हमेशा	-9.32079
▁विकसित	-9.32194
▁सदन	-9.32243
▁along	-9.32281
▁lo	-9.32289
▁field	-9.32323
▁पहचान	-9.32407
▁लि	-9.32454
▁written	-9.32573
▁अधिकारी	-9.32592
लो	-9.32636
▁freedom	-9.3283
ap	-9.32848
▁सिर्फ	-9.32954
▁राजा	-9.33065
▁tree	-9.33133
▁अधिकांश	-9.33145
▁plan	-9.33243
▁सोच	-9.33292
▁project	-9.33296
▁सिंह	-9.33302
con	-9.33372
▁sp	-9.33389
▁किस	-9.33447
यो	-9.3358
▁su	-9.33633
▁major	-9.337
पत्र	-9.3375
▁चुनाव	-9.33902
▁आदेश	-9.33959
▁रचना	-9.3398
▁having	-9.34039
▁मृत्यु	-9.34042
▁नए	-9.34101
▁already	-9.34192
▁pe	-9.34198
▁करे	-9.34295
▁कह	-9.34307
▁उद्देश्य	-9.34344
▁गंगा	-9.34451
▁thing	-9.34472
हीन	-9.34504
▁दिए	-9.34536
▁se	-9.34575
▁certain	-9.34592
▁मुंबई	-9.34651
▁ni	-9.3466
▁singh	-9.34819
▁failed	-9.34877
शन	-9.34973
▁article	-9.3499
▁security	-9.35035
▁रुप	-9.35035
▁रिपोर्ट	-9.35117
▁कहीं	-9.35136
▁मगर	-9.35145
),	-9.35173
▁sa	-9.3526
▁structure	-9.35449
▁science	-9.35498
▁further	-9.35499
▁विशिष्ट	-9.35499
▁स्कूल	-9.35647
▁नियम	-9.35794
▁chief	-9.35811
▁अति	-9.35947
▁pu	-9.35963
▁believe	-9.36006
▁america	-9.36013
▁rs	-9.36077
bo	-9.36082
▁तुम	-9.36147
▁गैर	-9.36202
▁झ	-9.36215
men	-9.36275
▁बता	-9.36284
▁कमी	-9.36346
▁disease	-9.36406
▁committee	-9.36407
▁sun	-9.3644
▁create	-9.36488
▁changes	-9.36495
▁police	-9.36587
▁ground	-9.36608
▁बढ़	-9.36625
▁together	-9.36666
ton	-9.36704
▁po	-9.36741
वीं	-9.36931
▁मुस्लिम	-9.36938
▁considered	-9.36978
इस	-9.3698
▁१९	-9.36982
▁course	-9.37012
▁literature	-9.37058
▁सह	-9.37076
रू	-9.37092
्यू	-9.3716
▁society	-9.37215
▁गुण	-9.37236
▁related	-9.37244
▁हाल	-9.37277
ियाँ	-9.37307
▁son	-9.37308
▁complete	-9.37332
▁reason	-9.37348
ber	-9.37431
▁सर	-9.37466
ts	-9.37489
▁देखने	-9.37574
ही	-9.37605
▁contact	-9.37609
▁संस्कृत	-9.37623
िए	-9.37689
▁team	-9.37727
▁tax	-9.37772
५	-9.37782
▁0	-9.37938
▁डाल	-9.37996
ite	-9.38096
ee	-9.38169
▁ताकि	-9.38182
ig	-9.38195
चर	-9.38231
▁कंप्यूटर	-9.38243
▁नई	-9.38267
▁rule	-9.38313
▁दिनों	-9.3835
ल्ल	-9.38372
▁effect	-9.3838
▁various	-9.38404
▁रोक	-9.3841
ran	-9.38561
▁bad	-9.38674
▁त्रुटि	-9.38683
▁बिल	-9.38705
ोल	-9.38771
▁मर	-9.38799
▁रख	-9.38817
देश	-9.38876
we	-9.38879
▁फिल्म	-9.38885
ाल	-9.38894
▁top	-9.3891
ah	-9.38935
tu	-9.39031
▁deal	-9.39046
▁himself	-9.39202
▁earth	-9.39306
led	-9.39372
▁जि	-9.39387
▁x	-9.39433
▁आधारित	-9.39469
▁प्रभावित	-9.39473
▁मेरा	-9.39489
यें	-9.39513
▁role	-9.39526
▁कला	-9.39618
▁tri	-9.397
▁पोजीशन	-9.39766
▁talk	-9.39812
▁half	-9.39858
▁provided	-9.39935
▁मुद्रा	-9.39953
्क	-9.39958
▁राजनीतिक	-9.39984
▁मह	-9.39988
▁early	-9.40141
▁खर्च	-9.40186
▁क्रिकेट	-9.40252
▁application	-9.40282
▁7	-9.40337
▁low	-9.40342
▁केन्द्र	-9.40374
war	-9.40388
८	-9.40429
न्त	-9.40452
▁mother	-9.40502
▁मुसलमानों	-9.40518
▁चाहे	-9.4052
▁अंतर	-9.40584
▁demand	-9.40613
क़्	-9.40632
▁sha	-9.40648
▁अतिरिक्त	-9.40658
िट	-9.4069
▁समर्थन	-9.40695
▁population	-9.40821
▁cause	-9.40921
बर	-9.40966
▁यात्रा	-9.41018
▁san	-9.41023
▁pakistan	-9.41203
▁पुनः	-9.41247
▁thus	-9.41256
▁गलत	-9.41287
▁turn	-9.41412
▁क्षेत्रों	-9.41476
tra	-9.41583
▁actually	-9.41597
▁पूरे	-9.41649
▁क्रिया	-9.41791
ru	-9.41909
▁पुनर्	-9.41913
▁लिखा	-9.41941
▁mi	-9.42031
tri	-9.42091
▁term	-9.42114
har	-9.42163
mp	-9.42165
▁केंद्र	-9.42184
▁itself	-9.42301
ized	-9.4231
▁डी	-9.42458
▁months	-9.42475
▁उपकरण	-9.42584
▁तंत्र	-9.42633
▁कीमत	-9.42648
▁विदेशी	-9.4278
६	-9.42814
मु	-9.42856
▁following	-9.42884
pe	-9.42907
्यु	-9.4297
▁पुलिस	-9.42971
▁गिर	-9.42975
▁ga	-9.43021
दर	-9.43092
▁निश्चित	-9.43132
च्छ	-9.43136
▁एल	-9.43157
▁ba	-9.43232
▁आरंभ	-9.43256
ho	-9.43294
▁तुलना	-9.43301
▁ज्ञान	-9.43306
▁पहुंच	-9.43394
▁interest	-9.43422
न्ट	-9.43462
सर	-9.43513
▁अवसर	-9.43582
▁true	-9.43641
म्प	-9.43656
▁user	-9.437
▁चाहिये	-9.43721
▁yet	-9.43733
▁एन	-9.43766
▁पाकिस्तान	-9.43789
▁संस्कृति	-9.44119
▁चाहता	-9.44129
▁सक्षम	-9.4416
▁media	-9.44173
▁credit	-9.44224
▁लक्ष्य	-9.44231
र्क	-9.44288
▁several	-9.44309
▁लेना	-9.44457
▁amount	-9.44484
▁growth	-9.44498
▁ईश्वर	-9.44565
▁price	-9.44574
▁बताया	-9.44609
र्द	-9.44647
▁भूमि	-9.44677
iv	-9.44708
▁prime	-9.44735
▁मनुष्य	-9.44759
▁sanskrit	-9.44768
▁जान	-9.44861
ct	-9.44933
▁imp	-9.4505
▁search	-9.45157
२	-9.45167
▁message	-9.45264
▁nature	-9.45338
न्न	-9.45501
▁दें	-9.45547
▁move	-9.45642
▁अध्यक्ष	-9.45677
▁ball	-9.4572
ana	-9.45775
▁white	-9.46021
▁पै	-9.461
फा	-9.4613
▁current	-9.46152
▁va	-9.46303
▁निर्	-9.46371
▁सरकारी	-9.46384
ंब	-9.46494
▁रो	-9.46703
▁sabha	-9.46748
▁मामलों	-9.46801
▁third	-9.46853
▁धार्मिक	-9.46876
▁income	-9.46878
▁संगीत	-9.46964
▁program	-9.46994
कर्ता	-9.47067
▁till	-9.47089
▁try	-9.47116
िश	-9.47182
जो	-9.47219
▁टे	-9.47242
ud	-9.4726
▁ab	-9.47285
▁संदर्भ	-9.4731
▁करेंगे	-9.47316
▁फोन	-9.47328
▁gave	-9.4735
▁either	-9.47398
▁प्रकाश	-9.47402
तु	-9.47498
▁जिन	-9.47544
▁होकर	-9.47577
▁others	-9.47639
▁आर	-9.47681
ize	-9.47724
▁university	-9.47747
▁single	-9.47754
▁16	-9.47804
▁therefore	-9.47834
▁इतना	-9.47835
▁नये	-9.4788
ator	-9.47883
ep	-9.47935
▁goods	-9.47967
▁अधीन	-9.48006
▁दूसरा	-9.48009
▁writing	-9.48019
▁न्याय	-9.48182
▁industrial	-9.4828
▁युग	-9.48282
em	-9.48329
▁वहाँ	-9.48385
ियो	-9.48403
▁महान	-9.48411
▁अस	-9.48414
▁news	-9.48427
0	-9.48462
▁उचित	-9.48474
▁size	-9.48516
▁j	-9.48525
▁क्र	-9.48534
▁living	-9.48537
▁8	-9.48667
▁western	-9.48713
▁parts	-9.48723
▁रा	-9.48832
▁आपकी	-9.48866
▁बढ	-9.48904
▁दु	-9.48974
ाँ	-9.49014
▁राशि	-9.49065
▁लेखा	-9.49113
करण	-9.49236
▁कृपया	-9.49333
cy	-9.49347
ium	-9.49365
▁पेश	-9.49465
▁father	-9.49517
सन	-9.49526
▁device	-9.49603
▁विकल्प	-9.49618
▁ph	-9.49623
▁subject	-9.49686
▁upon	-9.49699
▁cell	-9.4976
▁वजह	-9.49779
▁soon	-9.49841
▁future	-9.49869
▁increase	-9.49944
वास	-9.5004
▁financial	-9.50047
▁नगर	-9.50091
▁चि	-9.50115
▁य	-9.50119
ji	-9.50148
▁मो	-9.50149
▁विश्वविद्यालय	-9.50226
au	-9.50314
▁study	-9.50315
▁im	-9.50359
▁l	-9.50378
ष्ट	-9.50382
▁मुख	-9.50424
ster	-9.5043
▁छोटी	-9.50453
▁research	-9.50558
ities	-9.50628
▁ढ	-9.50646
▁मार	-9.50657
▁sea	-9.50697
19	-9.50738
▁अपराध	-9.50793
▁बेहतर	-9.50843
▁सका	-9.50864
गो	-9.50931
द्र	-9.51081
ेल	-9.51093
▁bring	-9.51095
▁भीतर	-9.51169
▁fire	-9.51186
▁return	-9.51204
▁फाइल	-9.51225
सु	-9.5125
▁famous	-9.51307
▁supreme	-9.51307
▁islamic	-9.51415
ेट	-9.51415
ng	-9.51498
▁आंदोलन	-9.5158
▁strong	-9.5158
तम	-9.51736
▁होंगे	-9.51793
▁author	-9.51804
▁पु	-9.51819
nd	-9.51835
▁ask	-9.51886
▁निवेश	-9.51923
▁घटना	-9.51978
▁ten	-9.52087
▁व्यवहार	-9.5215
▁trade	-9.52153
▁towards	-9.52157
lu	-9.52178
▁necessary	-9.52218
▁provide	-9.52353
▁मशीन	-9.52588
ियन	-9.52602
वन	-9.52634
▁books	-9.52637
▁स्थापना	-9.52677
▁अवधि	-9.52695
▁member	-9.52709
▁built	-9.52728
नु	-9.52739
ven	-9.52846
ten	-9.52944
▁space	-9.53042
▁डे	-9.53071
▁ar	-9.53076
▁समिति	-9.53209
▁शि	-9.53252
▁मार्ग	-9.53284
▁centre	-9.53301
▁generally	-9.5331
▁तरीके	-9.53321
▁week	-9.53339
▁खरीद	-9.5341
▁understand	-9.53413
▁उठा	-9.53441
▁popular	-9.53508
▁मंत्री	-9.53551
tur	-9.53554
▁निकल	-9.53571
▁black	-9.53604
▁मुसलमान	-9.53646
राज	-9.53653
▁image	-9.53672
ip	-9.53774
▁almost	-9.53789
भाष्	-9.53795
र्म	-9.53835
▁ज़	-9.53861
▁paper	-9.53898
▁कार्यक्रम	-9.53978
सि	-9.53987
एस	-9.5406
झ	-9.54067
▁जरूरत	-9.54107
▁civil	-9.54132
▁add	-9.54223
ise	-9.54226
▁कहना	-9.54234
▁प्रारंभ	-9.54299
▁doing	-9.54312
▁भू	-9.54313
▁rights	-9.54327
▁जैसी	-9.54354
6	-9.5448
com	-9.54512
▁खास	-9.54513
▁force	-9.54584
▁11	-9.5462
▁republic	-9.5469
▁practice	-9.54718
▁विरोध	-9.54763
क्र	-9.54765
ढ	-9.54801
▁अदालत	-9.54812
▁region	-9.54875
▁अर	-9.54894
▁संगठन	-9.54918
▁पिता	-9.55029
▁section	-9.55055
▁community	-9.55094
▁स्वास्थ्य	-9.55159
▁break	-9.55175
▁poor	-9.55241
▁स्प	-9.55319
टे	-9.55355
▁stop	-9.55457
नाथ	-9.5556
▁दिखाई	-9.55604
▁claim	-9.55637
▁बाहरी	-9.55662
▁पुस्तक	-9.55749
▁जिन्हें	-9.55756
▁पश्चिमी	-9.5576
hu	-9.55791
हृ	-9.55846
ag	-9.55919
▁आपका	-9.55923
▁taking	-9.55951
धान	-9.55969
▁ne	-9.56037
ious	-9.56047
▁cases	-9.56056
▁मिलता	-9.56056
▁feel	-9.56092
so	-9.56184
▁वा	-9.56191
▁pan	-9.562
▁पाने	-9.56253
ical	-9.56262
▁mar	-9.56266
ेशन	-9.56268
बू	-9.5628
जे	-9.56313
व्य	-9.56385
▁ऋ	-9.56397
▁sure	-9.56413
▁डेटा	-9.56451
▁getting	-9.56487
▁sent	-9.56489
▁खंड	-9.56503
▁निर्भर	-9.5652
▁six	-9.56545
▁अमेरिकी	-9.56611
बद्ध	-9.56624
do	-9.56629
▁fall	-9.56636
▁चुका	-9.56646
ात	-9.56705
टि	-9.5676
▁देखें	-9.56773
▁total	-9.56773
▁आता	-9.56796
▁राजनैतिक	-9.56802
▁original	-9.56802
▁areas	-9.56811
▁कार	-9.56947
▁वस्तु	-9.56975
ible	-9.56987
▁कृषि	-9.56994
यर	-9.57053
▁स्वतंत्रता	-9.57114
▁usually	-9.57127
▁रु	-9.57275
ally	-9.5732
▁ब्र	-9.57334
रिया	-9.57343
▁simple	-9.57383
itis	-9.57437
▁meeting	-9.57484
▁इनमें	-9.57495
▁कहानी	-9.57512
▁color	-9.5753
ुल	-9.57551
▁enough	-9.57574
▁comes	-9.5765
mer	-9.57694
▁मी	-9.57694
▁told	-9.57733
ष्ठ	-9.57754
ाम	-9.57774
▁par	-9.5782
वल	-9.57861
▁टन	-9.57902
▁देखते	-9.57964
der	-9.58065
▁fa	-9.58236
ांत	-9.58238
▁themselves	-9.58249
▁जीव	-9.58268
▁personal	-9.58274
▁आते	-9.58294
▁अलावा	-9.58346
र्न	-9.58394
▁रखना	-9.58418
▁mr	-9.58457
दान	-9.58485
▁औद्योगिक	-9.58638
ard	-9.58644
धार	-9.58673
ुक	-9.58735
▁सू	-9.58804
▁उसमें	-9.58858
▁authority	-9.5887
▁li	-9.58909
▁mobile	-9.58931
▁required	-9.58999
▁हिन्दू	-9.5903
▁पहुँच	-9.59055
▁mode	-9.59147
▁ढंग	-9.59156
वान	-9.59242
▁हवा	-9.59289
▁अच्छे	-9.59323
▁born	-9.59399
oc	-9.59409
▁asked	-9.59438
▁टी	-9.5948
▁issue	-9.59488
▁संघर्ष	-9.59525
▁शा	-9.59563
▁individual	-9.59665
▁हिस्सा	-9.59716
▁प्राचीन	-9.59718
▁तु	-9.59762
▁ki	-9.59778
▁टीम	-9.59794
▁ever	-9.59821
▁base	-9.60005
▁quality	-9.60013
▁व्यापक	-9.60013
ology	-9.60045
▁army	-9.60072
▁wall	-9.60092
ां	-9.60241
▁sound	-9.60338
▁महत्व	-9.60505
mon	-9.60528
▁सलाह	-9.60534
▁पांच	-9.60536
▁पाठ	-9.60543
▁अपेक्षा	-9.60565
▁lu	-9.6058
ide	-9.60598
▁प्रेम	-9.60714
▁जाँच	-9.60725
▁दिये	-9.60771
गर	-9.60825
ised	-9.60834
▁character	-9.60834
न्ड	-9.60883
▁मोबाइल	-9.60903
▁close	-9.60916
पाल	-9.60922
line	-9.61001
▁सर्व	-9.61006
▁brought	-9.61007
र्ड	-9.6107
▁source	-9.61137
les	-9.612
▁game	-9.6121
▁memory	-9.61212
▁प्रा	-9.61311
▁इन्हें	-9.61311
fi	-9.6134
▁सत्ता	-9.61341
▁भिन्न	-9.61355
▁आयात	-9.61407
▁विवरण	-9.61413
▁note	-9.6144
▁आयु	-9.6147
गु	-9.61549
िता	-9.61555
्त	-9.61602
▁सार्वजनिक	-9.61607
शोथ	-9.61747
▁वही	-9.61843
▁including	-9.61847
|	-9.61865
कु	-9.61919
▁rest	-9.61941
▁ju	-9.61987
▁rules	-9.62015
▁para	-9.62169
▁knowledge	-9.62249
▁जानते	-9.62281
▁travel	-9.62313
if	-9.62337
son	-9.62406
▁भेज	-9.62423
▁लेते	-9.62498
▁developed	-9.62527
▁धीरे	-9.62539
▁बु	-9.6259
▁नेपाल	-9.62616
▁night	-9.62621
रों	-9.62672
▁month	-9.62736
▁stage	-9.62791
▁सुन	-9.62814
▁refers	-9.62874
dic	-9.6294
▁दिशा	-9.62978
▁ve	-9.6299
▁justice	-9.63036
ler	-9.63062
tha	-9.63159
▁select	-9.63212
भाव	-9.63213
▁अवस्था	-9.63221
▁job	-9.63238
▁नेता	-9.63263
▁fi	-9.63268
▁respect	-9.63307
ab	-9.63319
dh	-9.63361
▁बनाए	-9.6337
▁छोटा	-9.63434
▁जिला	-9.63511
▁पड़ा	-9.63515
र्ट	-9.63551
▁technology	-9.63637
▁स्थल	-9.63674
द्ध	-9.63716
▁sex	-9.6384
▁above	-9.63842
▁pra	-9.63853
▁dr	-9.64011
▁कौन	-9.64028
▁चीन	-9.64033
▁भविष्य	-9.64046
▁until	-9.64151
▁सामग्री	-9.64195
▁write	-9.64219
▁hold	-9.64342
▁पर्याप्त	-9.64357
याँ	-9.64385
▁000	-9.6443
▁path	-9.64439
for	-9.64451
▁जवाब	-9.6446
▁पुत्र	-9.64517
▁योग्य	-9.64572
▁ya	-9.64574
▁decision	-9.64581
▁इनके	-9.64747
▁निकाल	-9.64798
▁विवाद	-9.64811
▁एम	-9.64875
▁हिंदू	-9.64883
▁संबंधी	-9.64946
▁खो	-9.6495
▁software	-9.65187
▁mis	-9.65195
▁वास्तविक	-9.65396
ring	-9.6541
▁अंग्रेजी	-9.65423
one	-9.65433
निया	-9.65437
▁9	-9.6546
▁भाव	-9.65552
▁global	-9.65604
शि	-9.65617
▁बनी	-9.65656
▁पश्चिम	-9.65667
▁boy	-9.65693
▁ज़्यादा	-9.65801
▁मिली	-9.65843
▁china	-9.65864
▁server	-9.65867
▁नामक	-9.65885
चे	-9.65921
यन	-9.65949
end	-9.66036
▁निजी	-9.66051
ow	-9.66087
▁leave	-9.66093
▁संभावना	-9.66128
▁outside	-9.6618
shi	-9.66232
वासी	-9.66269
▁दिल	-9.66295
▁निर्यात	-9.66338
▁भोजन	-9.66444
▁दशक	-9.66461
▁सिद्धांत	-9.66474
▁natural	-9.66518
▁nor	-9.66566
▁road	-9.66571
und	-9.66586
▁decided	-9.66658
▁अंतर्गत	-9.66666
▁spread	-9.66762
▁nepal	-9.66764
▁जिनमें	-9.6678
▁रहती	-9.66853
▁विमान	-9.66895
▁fast	-9.6695
▁center	-9.67
नों	-9.67045
▁दस	-9.67064
▁ti	-9.67077
▁सुरक्षित	-9.67084
शील	-9.67131
▁idea	-9.67198
▁bal	-9.67261
kar	-9.67281
▁played	-9.67292
▁प्रसिद्ध	-9.67298
ची	-9.67299
nk	-9.67342
our	-9.67342
▁multi	-9.67369
▁पहला	-9.67373
द्	-9.67406
ors	-9.6742
▁सीमित	-9.67531
▁हटा	-9.67579
▁ganga	-9.67622
▁१	-9.67625
▁नेटवर्क	-9.67717
ai	-9.67721
▁places	-9.67728
dy	-9.67813
▁प्रकाशित	-9.67926
▁ban	-9.67932
▁सहित	-9.67976
▁दंड	-9.67998
▁google	-9.68001
▁ago	-9.68084
red	-9.68133
ari	-9.68141
▁स्क	-9.68155
▁लड़	-9.68217
निक	-9.68321
▁method	-9.68324
▁least	-9.68368
▁करेगा	-9.68383
ward	-9.68388
▁30	-9.6841
▁created	-9.68419
▁वर्णन	-9.68421
ाइट	-9.68447
ex	-9.68465
▁सम्	-9.68476
▁करीब	-9.68502
▁display	-9.68508
▁needs	-9.68544
way	-9.68562
▁average	-9.68575
▁दृश्य	-9.6864
du	-9.68644
qu	-9.68657
ज्ञ	-9.68683
▁har	-9.68698
▁सेट	-9.68701
lic	-9.68708
▁चु	-9.68733
्ल	-9.68785
▁भुगतान	-9.6879
▁निकट	-9.68801
▁बह	-9.6884
▁मानते	-9.68894
▁फ़िल्म	-9.68898
▁शब्दों	-9.69014
▁continue	-9.69031
▁मिलने	-9.69077
▁difficult	-9.69104
▁visit	-9.69109
ब्	-9.69257
▁folder	-9.6931
▁machine	-9.69313
▁औसत	-9.69332
▁deep	-9.69356
ोन	-9.69367
▁पालन	-9.69427
बार	-9.69431
▁birth	-9.69436
ie	-9.69438
▁चलते	-9.69454
▁सै	-9.69513
▁web	-9.69572
▁mark	-9.69646
▁चुके	-9.69683
ांग	-9.69685
पूर्व	-9.69726
▁घोषणा	-9.69766
▁success	-9.69846
▁press	-9.69863
ified	-9.69889
था	-9.69917
▁प्रशासन	-9.70052
▁भारी	-9.701
▁तर्क	-9.70174
ff	-9.70186
que	-9.70206
▁आती	-9.70315
▁gandhi	-9.70361
▁condition	-9.70397
▁mal	-9.70401
▁प्रदर्शन	-9.70435
▁connection	-9.7045
▁वेतन	-9.70484
▁सफल	-9.70507
▁oil	-9.70543
▁fear	-9.70558
▁ru	-9.70563
िम	-9.70636
▁विंडो	-9.70643
ization	-9.70687
hy	-9.70709
ative	-9.7072
▁enable	-9.70742
▁window	-9.70755
▁send	-9.70761
▁operation	-9.70761
▁करोड़	-9.70827
▁sense	-9.70917
bb	-9.71029
स्प	-9.71037
▁छवि	-9.71044
ीर	-9.71055
▁हि	-9.71076
▁उम्र	-9.71083
मि	-9.71204
▁experience	-9.71223
▁sector	-9.71224
mb	-9.7123
▁wrong	-9.71304
▁match	-9.71371
▁पूंजी	-9.71415
क्त	-9.71426
▁लगी	-9.71441
▁room	-9.71442
▁da	-9.71516
▁th	-9.71531
पट	-9.71595
▁held	-9.71605
▁विशाल	-9.71616
▁शिकायत	-9.71637
▁साधन	-9.71656
िनी	-9.71669
▁अधिनियम	-9.7175
▁मद	-9.71784
▁capacity	-9.71859
▁industries	-9.71859
ram	-9.71977
▁पड़ता	-9.72003
कल	-9.72009
sion	-9.7202
ूर	-9.72062
fa	-9.72063
▁हिंदुस्तान	-9.72082
▁behind	-9.72082
▁male	-9.72094
▁सिर	-9.7211
▁जायेगा	-9.72112
▁उनसे	-9.72185
▁वाद	-9.72189
▁द्वार	-9.72202
▁ko	-9.72214
qui	-9.7227
▁agreement	-9.72322
▁सर्वर	-9.7238
▁गांधी	-9.72396
ाह	-9.72407
▁exchange	-9.72419
ोप	-9.72491
q	-9.72516
▁सिस्टम	-9.7254
▁legal	-9.72677
▁यूरोप	-9.727
▁krishna	-9.72728
▁क्रम	-9.72747
▁pradesh	-9.72753
ill	-9.72819
bar	-9.72832
३	-9.72835
▁environment	-9.72839
▁established	-9.72983
▁भा	-9.73076
▁mor	-9.73078
▁सकें	-9.73082
हित	-9.73251
▁समझा	-9.73308
▁internet	-9.73321
डि	-9.73394
▁विरुद्ध	-9.73435
▁जिसने	-9.7351
▁military	-9.73542
्न	-9.73549
▁बो	-9.73565
▁share	-9.73599
ार्थ	-9.73611
mar	-9.73622
▁situation	-9.73769
▁कल्पना	-9.7377
▁बंगाल	-9.7379
▁स्रोत	-9.73913
▁terms	-9.73924
नो	-9.73943
▁यद्यपि	-9.73996
▁kept	-9.74001
ंगी	-9.74017
▁village	-9.74033
ki	-9.74079
▁कदम	-9.74079
ara	-9.74123
▁हालांकि	-9.74224
▁ख़	-9.74277
▁bit	-9.74291
▁जोड़	-9.74302
िय	-9.74338
▁link	-9.74368
▁प्रोग्राम	-9.74504
▁आदमी	-9.74618
▁hu	-9.74682
▁conditions	-9.74689
▁app	-9.74746
eg	-9.74761
out	-9.74773
▁advice	-9.74795
▁earlier	-9.74795
▁चर्चा	-9.74796
ze	-9.74806
्ज	-9.74815
धा	-9.74906
▁march	-9.74979
▁संरचना	-9.75008
▁पसंद	-9.75025
▁त्रि	-9.75071
▁receive	-9.75104
▁fund	-9.75116
▁nation	-9.7516
▁तेल	-9.75193
▁अगले	-9.75257
ding	-9.75334
यी	-9.75383
▁files	-9.75407
▁14	-9.75456
▁जे	-9.7546
▁ancient	-9.75486
▁क़्योंकि	-9.75488
▁बर	-9.75492
▁answer	-9.75556
▁star	-9.75589
▁तरफ	-9.75636
▁वीडियो	-9.75706
ाक	-9.7574
र्ण	-9.75822
पूर्वक	-9.75838
▁पड़े	-9.75852
▁basis	-9.75861
▁समाचार	-9.75946
नीय	-9.7598
▁record	-9.76044
▁entire	-9.76044
▁अनुप्रयोग	-9.76064
av	-9.76069
▁बिजली	-9.7618
▁मात्र	-9.76216
ाप	-9.76219
▁बल्लेबाज	-9.76273
▁item	-9.7631
▁महीने	-9.76356
▁began	-9.76391
ea	-9.76399
osis	-9.76432
ft	-9.76443
▁basic	-9.76448
▁europe	-9.76454
▁content	-9.7653
्ट	-9.76613
▁energy	-9.76646
▁पढ़	-9.76696
▁चौ	-9.76714
▁flow	-9.76747
▁passed	-9.7678
▁moon	-9.76793
▁अम	-9.76959
▁भावना	-9.77023
▁music	-9.77047
▁उपर	-9.77079
त्य	-9.77085
िये	-9.77111
▁bengal	-9.77111
▁डिस्क	-9.77131
gi	-9.77134
▁चू	-9.7714
▁cut	-9.7715
▁wrote	-9.77232
सऋ	-9.77308
▁percent	-9.77331
▁quite	-9.7739
▁progress	-9.77442
▁हल	-9.77455
time	-9.77459
▁administration	-9.77467
▁forward	-9.77502
▁आनंद	-9.77595
▁खाता	-9.77627
▁फल	-9.77638
▁design	-9.77654
▁particular	-9.77689
▁तार	-9.77717
▁प्रतिक्रिया	-9.7772
▁commission	-9.77757
▁कठिन	-9.77791
▁रोगी	-9.77828
▁जितन	-9.77932
▁समुदाय	-9.77939
▁risk	-9.77944
▁lord	-9.77945
▁सामान	-9.77963
ेन	-9.78028
बि	-9.78029
▁anything	-9.78058
इन	-9.78078
▁आशा	-9.78086
▁सुविधा	-9.7809
▁निर्मित	-9.781
tar	-9.78162
nath	-9.78163
▁courts	-9.78164
▁loss	-9.7821
▁normal	-9.78283
▁महाभारत	-9.78299
ang	-9.78381
▁चा	-9.78438
cc	-9.785
▁पदार्थ	-9.78505
▁sign	-9.78526
▁groups	-9.78531
▁board	-9.78531
▁माता	-9.7861
▁similar	-9.78634
▁step	-9.78635
▁मू	-9.78679
ning	-9.78683
▁material	-9.78769
▁खोल	-9.78856
▁cho	-9.78882
cul	-9.78895
▁fort	-9.78989
लू	-9.79105
▁पो	-9.79117
▁आरोप	-9.7916
▁lower	-9.79197
▁इच्छा	-9.79206
▁रखते	-9.79213
che	-9.79255
tor	-9.79255
▁doctor	-9.7929
▁कीट	-9.79291
▁save	-9.79345
चार	-9.79361
▁अंदर	-9.79392
▁officer	-9.79394
▁tu	-9.79408
▁सीधे	-9.79488
▁limited	-9.79512
▁card	-9.79546
▁सदस्यों	-9.79557
▁inside	-9.7967
▁published	-9.79697
▁मेल	-9.79847
▁green	-9.79848
▁अस्थि	-9.79854
chi	-9.799
▁जीन	-9.79913
tr	-9.79948
▁नयी	-9.79953
▁शताब्दी	-9.7997
▁makes	-9.79999
फल	-9.80082
▁निर्दिष्ट	-9.80091
▁महसूस	-9.80091
▁learn	-9.80135
▁assembly	-9.80212
▁मतलब	-9.80212
देव	-9.80245
िर	-9.80319
▁nothing	-9.80336
laughter	-9.80358
▁संस्थान	-9.80365
ाब	-9.80379
▁meaning	-9.80486
▁treatment	-9.80536
▁साधारण	-9.80581
▁fe	-9.80612
▁नव	-9.80652
▁उपचार	-9.80727
▁programme	-9.80781
▁17	-9.80819
5	-9.80858
९	-9.80981
▁लगाया	-9.80993
▁port	-9.81019
▁y	-9.81032
▁asia	-9.81049
▁evidence	-9.81062
▁राज़्य	-9.81062
▁hands	-9.81074
▁वै	-9.81105
▁attack	-9.81179
▁certificate	-9.81184
bu	-9.81195
▁सवाल	-9.81209
▁मौजूद	-9.81211
▁organization	-9.8131
ny	-9.81322
▁अनुच्छेद	-9.81324
▁प्रकट	-9.81324
▁करनी	-9.81363
▁higher	-9.81383
▁style	-9.8143
▁सरल	-9.81432
▁named	-9.81476
न्स	-9.81491
▁बोल	-9.81523
▁sometimes	-9.81552
▁रक्षा	-9.81577
,000	-9.81578
युक्त	-9.81711
▁perhaps	-9.81797
▁hindus	-9.81806
▁mean	-9.81851
▁letter	-9.81873
▁बच	-9.81879
▁cells	-9.81926
▁शेष	-9.81937
▁active	-9.81979
▁gra	-9.81979
▁chi	-9.82042
▁उत्पाद	-9.82087
▁unit	-9.82094
▁statement	-9.82113
▁बढ़ा	-9.82144
▁अनुमान	-9.82163
नाम	-9.82179
▁कवि	-9.82182
▁चिकित्सा	-9.82239
▁comment	-9.82256
▁forces	-9.82262
▁मुक्त	-9.82282
▁private	-9.8229
स्व	-9.82341
▁official	-9.82341
▁हृदय	-9.8237
जि	-9.82374
▁enter	-9.82395
▁screen	-9.82403
▁fo	-9.82418
▁powers	-9.82431
▁आए	-9.82482
▁सुना	-9.82513
▁opinion	-9.82537
▁species	-9.82543
▁मिलती	-9.82578
ose	-9.82586
▁default	-9.82603
▁पद्धति	-9.82608
▁script	-9.82705
▁सिद्ध	-9.82733
▁मल	-9.82737
ner	-9.82744
▁डर	-9.82791
▁charge	-9.82815
▁selected	-9.82883
▁building	-9.82972
▁साफ	-9.82998
▁lead	-9.83001
▁स्मृति	-9.8311
▁लेख	-9.83132
▁door	-9.83132
▁वन	-9.83133
▁procedure	-9.83158
बाबू	-9.83263
र्ग	-9.83265
▁२	-9.83296
▁रन	-9.83299
▁accept	-9.83325
▁सारी	-9.83357
ुर	-9.83395
sha	-9.83409
▁leaders	-9.83415
▁works	-9.83494
▁सत्र	-9.83502
▁लघु	-9.8354
▁25	-9.8358
धि	-9.83589
▁जाति	-9.83658
▁female	-9.83658
▁परीक्षण	-9.83659
एक	-9.8366
▁सुंदर	-9.83664
▁series	-9.83673
▁बनाना	-9.8373
पे	-9.83743
▁ता	-9.83761
ान्त	-9.83775
▁शैली	-9.83804
ned	-9.8381
तः	-9.83851
▁ऑ	-9.83929
द्द	-9.83932
▁du	-9.83962
pro	-9.83981
▁व्य	-9.84005
▁met	-9.84048
▁आत्म	-9.84083
▁जु	-9.84085
▁patient	-9.84115
▁खिलाफ	-9.8412
▁आपने	-9.84121
▁सर्वाधिक	-9.84145
▁मीडिया	-9.84165
▁प्रमाण	-9.84166
▁संस्था	-9.84208
▁वेब	-9.84234
▁इतनी	-9.84286
ाया	-9.84288
▁समुद्र	-9.84306
▁परियोजना	-9.84361
▁languages	-9.84389
▁raj	-9.84449
pr	-9.84477
▁वी	-9.84491
▁नष्ट	-9.84543
kh	-9.84659
▁wanted	-9.84666
भि	-9.84683
▁england	-9.84792
▁title	-9.84808
▁अग्र	-9.84818
▁(%	-9.84826
▁round	-9.84865
▁दीवार	-9.84881
▁purpose	-9.84884
▁whose	-9.84901
▁विदेश	-9.8502
isation	-9.85028
▁रहना	-9.85145
▁हमारा	-9.85205
▁increased	-9.85318
▁लिख	-9.85322
▁सीख	-9.85373
▁fight	-9.85409
▁ट्यूब	-9.85427
श्त	-9.85429
▁joint	-9.85499
▁poet	-9.85508
▁tr	-9.85537
su	-9.85539
ress	-9.8556
वर्ती	-9.8557
▁अल्प	-9.85604
▁50	-9.8562
7	-9.85756
cl	-9.85802
▁क़	-9.85802
▁block	-9.85838
▁document	-9.85861
▁नोट	-9.85886
ुआ	-9.85894
ूल	-9.86028
▁जिसकी	-9.86057
▁प्रदर्शित	-9.86066
यू	-9.86087
▁फा	-9.86089
side	-9.8611
▁दर्शन	-9.8612
▁allow	-9.86124
▁range	-9.8613
▁गंभीर	-9.86152
▁ac	-9.86229
िस्ट	-9.86276
▁ch	-9.86285
▁cave	-9.86313
▁balance	-9.86339
▁वेद	-9.86342
▁सौ	-9.86346
gan	-9.86423
क्रम	-9.86497
▁chandra	-9.86577
▁pattern	-9.86581
▁management	-9.86593
▁sur	-9.86597
प्त	-9.8665
▁इन्	-9.86667
टो	-9.8667
▁limit	-9.86691
▁looking	-9.8676
▁हु	-9.86783
▁सच	-9.86809
ियम	-9.86815
▁version	-9.86851
▁table	-9.86877
▁शांति	-9.86883
▁prevent	-9.86932
▁जीत	-9.86942
▁संग्रह	-9.86947
▁मिले	-9.86948
mit	-9.87035
हन	-9.87072
▁ob	-9.87101
▁copy	-9.87124
ub	-9.8717
▁रात	-9.87206
▁instead	-9.87228
▁मैदान	-9.87242
▁पकड़	-9.87266
▁परिषद	-9.87306
दे	-9.87321
▁beginning	-9.87361
▁email	-9.87364
▁comp	-9.8737
▁सात	-9.87459
▁types	-9.87469
▁निधि	-9.87502
▁तय	-9.87592
चि	-9.8761
▁तट	-9.87636
▁ways	-9.87706
▁आक्रमण	-9.87773
ham	-9.87781
▁lost	-9.87793
ष्	-9.87816
रस	-9.87838
▁khan	-9.87886
▁एशिया	-9.87988
▁तल	-9.88014
▁राजस्थान	-9.88022
र्व	-9.88034
▁शाखा	-9.88062
▁लगाने	-9.88105
▁कुंजी	-9.88134
▁गृह	-9.88234
ju	-9.88279
▁output	-9.883
▁ke	-9.88344
्रा	-9.88397
▁सम्बन्धी	-9.88397
▁clean	-9.88403
▁stay	-9.88414
▁स्वरूप	-9.8842
▁majority	-9.88462
▁खाना	-9.8849
tes	-9.88504
▁park	-9.88541
ple	-9.88557
▁israeli	-9.88618
▁विडियो	-9.88668
▁पुराने	-9.8869
▁अवि	-9.88706
▁फैल	-9.8878
▁street	-9.88797
▁ri	-9.88831
▁micro	-9.88882
vo	-9.88905
>	-9.88963
ध्य	-9.8902
▁won	-9.89037
▁rise	-9.89059
▁cultural	-9.89061
▁वातावरण	-9.89062
्रि	-9.89066
▁leader	-9.89072
्वा	-9.89085
ens	-9.89099
पि	-9.89137
▁अर्	-9.89198
ns	-9.89281
▁pur	-9.89398
▁meet	-9.8944
▁physical	-9.8946
ery	-9.89472
▁पड़	-9.89487
ेश	-9.89553
▁specific	-9.89668
▁सत्य	-9.89766
tin	-9.89809
▁परन्तु	-9.89858
▁pass	-9.89872
ेर	-9.89907
लर	-9.89917
▁जहाज	-9.90004
▁वित्तीय	-9.90026
▁lok	-9.90092
▁उठ	-9.90133
▁hope	-9.90151
▁चयन	-9.90199
▁seven	-9.90229
▁maha	-9.90237
▁scale	-9.90282
▁गेंद	-9.90291
ship	-9.90316
▁dead	-9.90378
▁cl	-9.9051
▁separate	-9.90524
▁enjoy	-9.90526
▁gl	-9.90541
▁आये	-9.90548
ंगा	-9.90618
▁विजय	-9.90664
▁भाई	-9.90674
▁reach	-9.90674
▁अपील	-9.90683
dha	-9.90689
▁allowed	-9.90689
▁peace	-9.907
▁si	-9.90761
▁बच्चन	-9.90795
▁लो	-9.90864
io	-9.90904
cal	-9.90936
ेड	-9.9101
▁z	-9.9103
▁निर्देश	-9.91041
▁economy	-9.91064
▁कक्ष	-9.91157
▁समस्याओं	-9.91195
▁complex	-9.91199
▁१५	-9.9122
▁payment	-9.91257
▁temples	-9.91283
▁शीर्ष	-9.91302
▁प्राकृतिक	-9.91334
▁तत्व	-9.91384
▁लागत	-9.91385
ख़	-9.91461
▁beautiful	-9.91469
▁easy	-9.9147
▁इस्लामी	-9.91483
ंप	-9.91509
गल	-9.91512
▁command	-9.91594
▁el	-9.91693
▁विरोधी	-9.9172
▁activities	-9.91741
▁received	-9.91831
▁13	-9.91845
योग	-9.91853
▁प्रतीक	-9.91861
ration	-9.91875
tan	-9.91885
▁संशोधन	-9.91888
▁नजर	-9.91915
▁लक्षण	-9.91922
▁पाए	-9.91944
▁election	-9.9195
▁build	-9.91971
शास्त्र	-9.91972
4	-9.9199
▁पृथ्वी	-9.92013
▁runs	-9.92097
▁स्वतंत्र	-9.92122
▁load	-9.92172
▁३	-9.92197
रत	-9.92239
▁presented	-9.92272
▁eye	-9.92295
▁european	-9.92373
▁अं	-9.9241
▁appeal	-9.92422
▁master	-9.9243
▁ste	-9.92463
लैंड	-9.92491
▁भार	-9.92542
▁पुरस्कार	-9.92559
fe	-9.9256
▁प्रधानमंत्री	-9.9256
▁plants	-9.92584
▁आस	-9.92621
▁thank	-9.92793
▁स्थानों	-9.92824
▁property	-9.92844
ping	-9.92898
▁session	-9.92912
▁तेज	-9.92931
▁director	-9.92952
▁institute	-9.9297
▁पश्चात	-9.92971
▁dec	-9.92994
▁प्रकृति	-9.92995
▁follow	-9.93013
▁फि	-9.93022
nu	-9.93145
▁wide	-9.93158
pl	-9.93182
▁निम्न	-9.93245
००	-9.93252
▁saw	-9.93265
▁ह्य	-9.93312
▁include	-9.93356
▁independence	-9.93383
▁rather	-9.93399
ाकार	-9.93444
ल्स	-9.93455
ोड	-9.93461
▁task	-9.93471
mm	-9.93478
▁cross	-9.93528
ile	-9.93556
▁कर्म	-9.93576
▁अत्यधिक	-9.9366
▁पथ	-9.93664
▁लौट	-9.93666
▁वालों	-9.93684
▁paid	-9.93705
pt	-9.93713
bha	-9.93729
▁सफलता	-9.93731
▁arab	-9.93746
▁award	-9.93754
▁cre	-9.93778
▁hospital	-9.93798
▁मकान	-9.938
▁आमतौर	-9.93801
▁africa	-9.93813
▁बैठ	-9.93859
▁प्रचार	-9.93982
cr	-9.93999
▁protect	-9.94033
tle	-9.94044
▁direction	-9.94113
▁मित्र	-9.9414
▁conflict	-9.94215
▁generation	-9.94218
▁धारा	-9.94255
▁tried	-9.94274
शु	-9.94284
▁export	-9.94323
▁direct	-9.94338
यह	-9.94376
gh	-9.94421
▁उल्लेख	-9.94488
ble	-9.94495
▁longer	-9.94529
सो	-9.94596
▁secret	-9.94616
▁साम्राज्य	-9.94633
र्त	-9.94649
▁ऑफ	-9.9472
▁राज्यों	-9.94728
▁transport	-9.94736
▁benefit	-9.9474
▁लिंग	-9.9474
▁com	-9.94863
▁ali	-9.94894
▁द्वीप	-9.9494
▁reading	-9.94982
ेज	-9.94993
▁je	-9.95007
▁cap	-9.95072
यु	-9.95087
क्षा	-9.95155
▁rich	-9.95348
▁update	-9.95365
ंड़	-9.95399
▁ver	-9.9547
लन	-9.95487
गम	-9.95522
▁वैज्ञानिक	-9.95598
▁mad	-9.95623
▁नागरिक	-9.95628
▁exp	-9.95632
▁जिनके	-9.95656
▁flag	-9.95662
▁अनिवार्य	-9.95758
▁गणराज्य	-9.95759
▁किन्तु	-9.95899
▁हिंदी	-9.95907
▁regard	-9.95907
▁वंश	-9.95975
▁station	-9.96038
▁attempt	-9.96041
▁अक्सर	-9.96041
▁review	-9.96049
▁तेजी	-9.96121
▁अंक	-9.96124
पति	-9.96134
▁sen	-9.96206
ib	-9.9624
▁बैठक	-9.96297
प्ट	-9.96312
ug	-9.9637
▁लिपि	-9.96387
▁loan	-9.9639
▁आसान	-9.96458
▁kashmir	-9.96467
▁activity	-9.96472
▁विफल	-9.96481
▁forest	-9.96496
lan	-9.96533
king	-9.96539
▁तकनीक	-9.96552
▁शोध	-9.9657
▁सप्ताह	-9.96609
fo	-9.9665
▁final	-9.96664
कुल	-9.96743
▁stock	-9.96752
▁square	-9.96752
▁लोकप्रिय	-9.96756
▁राजनीति	-9.96795
▁{}	-9.96817
▁colour	-9.96886
▁importance	-9.96984
oid	-9.96992
▁जरूरी	-9.97025
▁सुनिश्चित	-9.97038
िड	-9.97071
▁टा	-9.97079
▁consider	-9.97109
ेंगे	-9.97131
गे	-9.9714
▁देव	-9.97151
mal	-9.97163
▁प्रशिक्षण	-9.97181
▁विधेयक	-9.97181
▁hit	-9.9723
मय	-9.97235
▁अधिकारियों	-9.97236
ंघ	-9.97253
▁shape	-9.97295
▁मस्तिष्क	-9.97309
▁डाक	-9.9731
▁especially	-9.97325
▁festival	-9.97325
▁ऊर्जा	-9.97325
▁wife	-9.97328
▁vote	-9.97365
▁produce	-9.97377
van	-9.97435
▁शिव	-9.97439
▁approach	-9.97468
▁rajasthan	-9.97468
▁मुख़्य	-9.97468
▁correct	-9.97469
▁garden	-9.97471
▁status	-9.97479
▁शेयर	-9.97507
▁count	-9.9757
▁lakh	-9.97631
▁jo	-9.97651
▁responsible	-9.97756
hra	-9.97762
▁steel	-9.97783
ture	-9.97808
▁कुरान	-9.97813
▁उपाय	-9.97843
▁tube	-9.97851
▁चुन	-9.97878
▁जेल	-9.97898
▁independent	-9.97901
जीव	-9.97979
▁संख़्या	-9.98047
ाइल	-9.98128
▁bas	-9.98238
▁खाते	-9.98304
▁college	-9.98335
▁everything	-9.98335
▁animals	-9.98353
▁former	-9.98398
▁एच	-9.98429
▁external	-9.9848
एम	-9.98482
▁गुफा	-9.98497
▁द्वि	-9.98529
▁सहयोग	-9.98536
▁goes	-9.98596
कृत	-9.98601
▁hours	-9.98622
▁remember	-9.98625
▁trial	-9.98633
▁खान	-9.98646
▁मार्च	-9.98651
▁लेखक	-9.98654
▁विवाह	-9.98723
▁che	-9.98735
ani	-9.98754
iya	-9.98761
▁shah	-9.9885
▁उत्तरी	-9.9897
आर	-9.98973
▁चरण	-9.98984
वत	-9.9901
▁बीज	-9.99049
▁रेलवे	-9.99072
▁matters	-9.99095
▁net	-9.99108
▁standard	-9.99247
▁function	-9.9925
▁below	-9.99288
जनक	-9.99294
▁fit	-9.9934
tation	-9.99353
▁profit	-9.99387
ik	-9.99449
राम	-9.99518
▁changed	-9.99597
▁sam	-9.99638
▁criminal	-9.99649
▁coming	-9.99649
▁subhas	-9.99759
▁format	-9.99773
▁across	-9.99796
▁stories	-9.99796
▁भु	-9.99836
▁नौ	-9.99853
▁connect	-9.99914
▁५	-9.99938
▁site	-9.99942
▁target	-9.99943
▁avoid	-9.99944
ोस	-9.99978
तक	-9.9998
ron	-9.99982
▁trans	-10.0002
▁अंश	-10.0006
▁audio	-10.0008
▁although	-10.0009
▁कृष्ण	-10.0011
ूँ	-10.0012
▁दिखा	-10.0014
ंध	-10.0015
▁व्यवसाय	-10.0024
जर	-10.0024
▁followed	-10.0025
प्प	-10.0026
▁पैर	-10.0026
ाद	-10.0038
▁pal	-10.0039
▁running	-10.004
▁damage	-10.004
कना	-10.0041
▁scheme	-10.0044
▁कथा	-10.0044
स्त्र	-10.0049
क्षण	-10.005
▁तथ्य	-10.0058
एल	-10.0059
लु	-10.0062
▁पत्थर	-10.0068
▁milk	-10.0068
▁kingdom	-10.0069
▁स्ट	-10.007
डो	-10.0073
▁questions	-10.0074
▁तरीका	-10.0083
ay	-10.0098
▁labour	-10.0098
▁sri	-10.0104
▁हवाई	-10.0105
सू	-10.0108
▁sin	-10.0109
▁विस्तृत	-10.0113
▁लें	-10.0113
▁medical	-10.0113
▁नियमित	-10.0114
▁deposit	-10.0122
▁सूर्य	-10.0131
ियर	-10.0131
▁solar	-10.0136
tru	-10.0138
▁exercise	-10.0143
▁फूल	-10.0145
▁ट्र	-10.0153
▁transfer	-10.0157
nch	-10.0162
▁मानक	-10.0165
ev	-10.0167
sis	-10.0173
▁रवीन्द्रनाथ	-10.0173
▁finance	-10.0173
▁इक	-10.0175
▁100	-10.018
▁difference	-10.018
let	-10.0182
▁auto	-10.0185
ठा	-10.0185
घर	-10.0191
▁politics	-10.0203
▁gives	-10.0205
▁pain	-10.021
▁super	-10.021
▁रेखा	-10.0211
▁eight	-10.0213
▁details	-10.0215
uc	-10.0226
ंभ	-10.0226
▁नियत	-10.023
▁survey	-10.0233
▁password	-10.0233
▁duty	-10.0235
टन	-10.0242
▁व्यय	-10.0243
▁choose	-10.0249
तंत्र	-10.0252
▁box	-10.0253
ल्	-10.0257
▁प्रगति	-10.0259
▁host	-10.0263
▁speed	-10.0263
▁आरम्भ	-10.0264
ाधिकार	-10.0266
▁सऋ	-10.0271
▁उपस्थित	-10.0272
▁चले	-10.0274
▁तंत्रिका	-10.0276
▁अर्थव्यवस्था	-10.0279
▁मैच	-10.0285
▁takes	-10.0287
▁insects	-10.0288
▁win	-10.0288
▁ब्रिटेन	-10.0294
▁carried	-10.0294
्ग	-10.0311
▁houses	-10.0313
▁rama	-10.0315
▁notice	-10.0319
▁आफ	-10.0321
▁reference	-10.0325
बो	-10.0326
▁eyes	-10.0328
▁moment	-10.0333
▁revolution	-10.0337
▁model	-10.0337
▁पर्वत	-10.0354
▁shi	-10.0356
▁कोशिका	-10.0359
▁caused	-10.036
▁पल	-10.036
रम	-10.0362
▁someone	-10.0362
▁cover	-10.0367
ger	-10.0368
▁गोल	-10.0377
▁फ़ोल्डर	-10.0385
▁शुरुआत	-10.0385
▁alone	-10.0387
▁touch	-10.0388
▁fundamental	-10.04
▁बावजूद	-10.04
▁friends	-10.0406
▁sh	-10.0416
▁सर्वेक्षण	-10.0416
▁brain	-10.0421
ica	-10.0426
▁युक्ति	-10.0428
▁roy	-10.0431
▁नी	-10.0433
▁forms	-10.0438
पो	-10.044
▁violence	-10.0447
▁मना	-10.0449
▁ministers	-10.0452
▁banks	-10.0457
▁formed	-10.0459
▁कोड	-10.0462
▁voice	-10.0462
▁अत्यंत	-10.0462
▁influence	-10.0474
▁advance	-10.0474
▁bat	-10.0476
▁असफल	-10.0477
▁बराबर	-10.0477
▁batsman	-10.0477
गार	-10.0478
▁अप्र	-10.048
▁radio	-10.0481
▁stone	-10.049
▁pollution	-10.0493
▁मनो	-10.0493
▁नस्ल	-10.0494
सार	-10.0495
▁sar	-10.0498
▁गैस	-10.0498
▁चीज़	-10.05
▁fine	-10.0502
▁parties	-10.0504
धर	-10.0505
▁अंतर्	-10.0507
▁संस्करण	-10.0508
▁horse	-10.0508
▁movie	-10.0508
रिक	-10.051
▁बीमारी	-10.0511
▁sort	-10.0512
▁कं	-10.0525
▁विचारों	-10.0528
▁चुकी	-10.053
some	-10.0531
▁gas	-10.0531
▁lives	-10.0532
▁संपूर्ण	-10.0535
gra	-10.054
▁entry	-10.054
▁आयोग	-10.0548
▁pen	-10.0551
▁mail	-10.0553
▁जल्दी	-10.0556
▁collection	-10.0556
▁shown	-10.0562
name	-10.0568
▁भूल	-10.0569
▁मुश्किल	-10.0571
▁हजार	-10.0578
▁truth	-10.0586
▁बचा	-10.0589
val	-10.0591
▁चलता	-10.0593
▁कविता	-10.0594
▁पुराण	-10.0597
मेंट	-10.0601
▁इंटरनेट	-10.0602
▁संसार	-10.0605
▁गुप्त	-10.0605
हे	-10.0606
▁bear	-10.0607
▁अनुवाद	-10.0613
▁accepted	-10.0622
▁setting	-10.0623
▁affect	-10.0633
ेस	-10.0634
▁serious	-10.0636
▁कार्यालय	-10.0653
▁व्यक्तिगत	-10.0656
▁प्राय	-10.0657
ृत	-10.0658
घात	-10.0658
▁कूट	-10.0662
ग़	-10.0662
▁विपरीत	-10.0665
▁stand	-10.0668
▁speech	-10.0675
▁website	-10.0681
▁युवा	-10.0681
▁उपयोगकर्ता	-10.0686
▁gain	-10.0691
शाला	-10.0691
▁मौसम	-10.0696
▁वैसे	-10.0701
▁सौर	-10.0701
▁घट	-10.0701
▁कर्ण	-10.0702
▁शिकार	-10.0705
ika	-10.0713
चल	-10.0721
दु	-10.0726
▁worship	-10.0728
▁देखभाल	-10.0728
▁सम्मिलित	-10.0728
▁द्वितीय	-10.0728
स्थान	-10.073
▁aim	-10.0742
▁सूक्ष्म	-10.0744
▁giving	-10.0744
ँग	-10.0749
▁देर	-10.0754
ini	-10.0755
मुख	-10.0762
▁die	-10.0765
▁हत्या	-10.0776
▁प्रभावी	-10.0783
▁नर	-10.0783
▁दवा	-10.0789
▁greater	-10.0791
ौल	-10.0793
▁motion	-10.0798
▁writer	-10.0802
▁rain	-10.0803
▁struggle	-10.0808
▁cur	-10.0809
▁ir	-10.0812
▁असर	-10.0813
▁powerful	-10.0813
्ज़	-10.0821
▁uttar	-10.0824
▁भाषण	-10.0824
▁explain	-10.0827
▁shall	-10.0833
▁कश्मीर	-10.084
▁apart	-10.0842
▁feed	-10.0842
▁कानूनी	-10.0843
▁बनाई	-10.0843
▁केंद्रीय	-10.0849
ko	-10.0849
▁शो	-10.0849
▁ill	-10.0849
rate	-10.0855
▁राजधानी	-10.0856
▁बातचीत	-10.0856
्ता	-10.0856
▁चे	-10.0858
▁expect	-10.086
▁पूछ	-10.0862
▁व्यक्तियों	-10.087
▁christian	-10.0872
▁साम	-10.0874
lar	-10.0878
8	-10.0879
िटी	-10.0879
▁bra	-10.0879
▁fish	-10.0884
▁channel	-10.0888
▁bombay	-10.0888
विज्ञान	-10.0891
मत	-10.0898
▁carry	-10.0899
▁extra	-10.0899
▁शीघ्र	-10.0904
▁doubt	-10.0904
▁नेहरू	-10.0904
▁picture	-10.0906
▁organisation	-10.0907
▁training	-10.0907
▁watch	-10.0909
▁contract	-10.091
▁iran	-10.0912
▁judge	-10.0919
▁url	-10.092
यक	-10.0921
▁trying	-10.0924
▁कार्रवाई	-10.0936
ेश्वर	-10.094
▁लु	-10.0947
प्	-10.0947
▁spirit	-10.0952
▁दावा	-10.0955
▁दबा	-10.0956
▁प्रधान	-10.0959
▁अर्ध	-10.0962
▁विभाजन	-10.0963
thi	-10.0963
▁पारित	-10.0967
▁रू	-10.0968
▁finally	-10.0968
▁felt	-10.0969
▁पाँच	-10.0969
▁पूर्वी	-10.097
▁didn	-10.0976
ably	-10.0979
▁died	-10.0981
▁आग	-10.0982
▁empire	-10.0985
▁ध्वनि	-10.0986
▁अध	-10.0989
▁पाई	-10.0992
▁sal	-10.0996
ॉल	-10.1001
▁नेतृत्व	-10.1001
▁track	-10.1001
▁हिंसा	-10.1002
▁daily	-10.1002
▁produced	-10.1007
▁अना	-10.1015
▁buy	-10.1016
▁aid	-10.1018
▁बजाय	-10.102
ेय	-10.1029
▁बद	-10.1034
▁pressure	-10.1036
▁instrument	-10.1038
▁सम्मान	-10.1045
▁जाल	-10.1045
▁bha	-10.105
▁सेवाओं	-10.1054
खी	-10.106
्रे	-10.106
▁कॉ	-10.106
▁ran	-10.1062
▁object	-10.1065
▁beyond	-10.1067
▁कठोर	-10.1067
▁स्थिर	-10.1067
▁मंदिरों	-10.108
▁अश	-10.1082
▁विश्लेषण	-10.1083
▁वर्ण	-10.1084
▁प्ल	-10.1087
ency	-10.1089
▁आदर्श	-10.109
wan	-10.1091
▁बनाये	-10.1093
चन	-10.1094
▁tradition	-10.1098
▁भगवान	-10.11
▁particularly	-10.1102
lam	-10.1112
▁यंत्र	-10.1114
▁previous	-10.1116
▁dream	-10.1116
▁location	-10.1117
▁विशेषता	-10.1126
▁बदलाव	-10.1126
▁budget	-10.1133
▁जनवरी	-10.1133
▁चक्र	-10.1133
ral	-10.1134
▁तभी	-10.1134
▁आतंकवादी	-10.1135
stan	-10.1139
▁import	-10.114
ability	-10.1148
▁tonnes	-10.1149
▁tagore	-10.1149
▁किताब	-10.115
▁kar	-10.1154
ient	-10.1155
▁मैने	-10.1157
▁lake	-10.1161
act	-10.1161
▁draw	-10.1166
ther	-10.1166
▁बदलने	-10.1167
▁स्त्री	-10.1168
▁साइट	-10.1173
▁iron	-10.1178
▁recent	-10.1188
ach	-10.1189
▁town	-10.119
▁cla	-10.1194
▁तापमान	-10.12
▁१८	-10.1221
▁develop	-10.1223
▁जानी	-10.1232
▁conference	-10.1232
▁करा	-10.1232
▁safe	-10.1249
tric	-10.125
▁भेजा	-10.1252
▁ग्रंथ	-10.1255
ists	-10.126
hor	-10.1263
▁situated	-10.1266
▁जलवायु	-10.1266
▁अधिकतर	-10.1266
▁settings	-10.1268
▁विधान	-10.127
वेद	-10.1273
▁इनका	-10.1276
▁पीठ	-10.1277
par	-10.128
▁अद्यतन	-10.1282
धी	-10.1294
▁संचार	-10.1297
ili	-10.1298
▁supply	-10.1299
my	-10.1301
ign	-10.1302
▁समक्ष	-10.1305
▁included	-10.1306
▁बनने	-10.1306
▁drive	-10.1308
▁आउट	-10.1311
▁remove	-10.1314
▁हैः	-10.1314
▁font	-10.1317
set	-10.1325
टिक	-10.1328
ash	-10.1333
▁समाधान	-10.1333
▁40	-10.1334
uri	-10.1335
िज	-10.1335
▁बाकी	-10.1335
▁drugs	-10.1336
वर्त	-10.1336
▁needed	-10.1338
all	-10.1338
of	-10.1342
ड्	-10.1343
▁democratic	-10.1344
▁frame	-10.1346
▁except	-10.1347
▁workers	-10.1349
▁added	-10.1351
▁प्रमाणपत्र	-10.1351
ese	-10.1351
▁कप	-10.1357
▁फैला	-10.1357
▁described	-10.1361
▁प्रेरित	-10.1367
भाग	-10.1367
nal	-10.1368
ey	-10.1375
▁laws	-10.1376
कालीन	-10.138
▁दर्ज	-10.1382
▁prince	-10.1383
▁प्रौद्योगिकी	-10.1383
▁अंतरराष्ट्रीय	-10.1384
▁तर	-10.1384
▁rock	-10.1388
▁led	-10.1395
tive	-10.1396
पात	-10.1396
▁nehru	-10.14
▁गुणवत्ता	-10.14
▁अनुकूल	-10.14
▁इनकी	-10.14
▁governor	-10.1403
▁काव्य	-10.1409
तन	-10.1411
▁एक्स	-10.1412
▁challenge	-10.1417
▁बिल्कुल	-10.1417
▁कर्मचारी	-10.1418
▁click	-10.1418
▁construction	-10.1419
▁रखी	-10.1426
▁जमीन	-10.1435
िस्तान	-10.1437
▁cast	-10.1438
▁एड	-10.1439
▁col	-10.1441
lin	-10.1449
मार	-10.145
▁यु	-10.1451
▁६	-10.1452
▁resources	-10.1459
ries	-10.1459
▁लाइन	-10.1464
ैल	-10.1464
▁store	-10.1466
ox	-10.1468
▁प्रबंधन	-10.1472
▁अली	-10.1474
▁observed	-10.1475
▁provides	-10.1479
पत	-10.1481
▁24	-10.1483
▁terrorist	-10.1484
ala	-10.1489
मार्ग	-10.1489
▁mass	-10.149
▁bu	-10.149
▁gets	-10.1495
चक	-10.1495
▁proper	-10.1497
▁तस्वीर	-10.1498
well	-10.1502
▁bus	-10.1509
▁दोष	-10.1509
क़्त	-10.1513
▁length	-10.152
▁latest	-10.1522
▁chance	-10.1523
▁faith	-10.1525
▁kan	-10.1526
▁effective	-10.1529
▁सेटिंग	-10.1533
▁आइ	-10.1537
▁जनसंख्या	-10.1537
pp	-10.1538
▁समा	-10.1539
मेल	-10.1543
▁जिनका	-10.1544
▁speaker	-10.1547
▁speak	-10.1551
▁किस्म	-10.1551
▁attention	-10.1554
▁न्यूनतम	-10.1554
▁स्थायी	-10.1554
▁मिनट	-10.1554
▁friend	-10.1556
▁सार	-10.1559
▁पट	-10.1559
▁extension	-10.1564
ue	-10.1569
▁खींच	-10.1572
ॉन	-10.1572
▁bone	-10.1575
▁rec	-10.1575
▁बाग	-10.1578
▁ideas	-10.158
▁ge	-10.1584
▁परंपरा	-10.1587
ट्र	-10.1588
▁volume	-10.1589
▁fixed	-10.1591
▁likely	-10.1592
▁protection	-10.1593
ped	-10.1597
▁टो	-10.16
▁weight	-10.1602
▁newspaper	-10.1606
▁disk	-10.1606
▁firm	-10.1607
▁पढ	-10.1609
▁खाद्य	-10.1611
med	-10.1613
फर	-10.1617
▁january	-10.1623
▁सर्वोच्च	-10.1623
▁border	-10.1623
▁दिमाग	-10.1623
▁बातों	-10.1624
▁स्वतः	-10.1625
▁investment	-10.1626
▁मानना	-10.163
use	-10.1638
▁democracy	-10.1641
बन्ध	-10.1644
▁आल	-10.1646
▁accounts	-10.1648
ल्ड	-10.1649
ग्रस्त	-10.165
▁os	-10.1653
▁girl	-10.1654
▁ताकत	-10.1657
oo	-10.1658
▁नियंत्रित	-10.1658
▁घटक	-10.166
▁सामना	-10.1664
▁remain	-10.1667
ek	-10.1668
▁wa	-10.1669
▁पड	-10.167
▁अत	-10.1672
▁छूट	-10.1673
▁communication	-10.1676
▁temperature	-10.1676
▁storage	-10.1676
▁cu	-10.1677
त्मक	-10.1683
ification	-10.1683
▁भाष्	-10.1684
▁स्तंभ	-10.1688
▁व्यक़्ति	-10.169
▁telephone	-10.1693
▁mandapa	-10.1696
▁min	-10.1705
▁ईसा	-10.1706
▁उपयोगी	-10.1708
▁जर्मनी	-10.1708
▁additional	-10.1709
▁bharat	-10.1711
▁maximum	-10.1711
▁gold	-10.1711
▁बातें	-10.1712
▁लगातार	-10.1712
▁सां	-10.1714
▁होनी	-10.1715
▁cities	-10.1716
▁रखे	-10.1718
▁rep	-10.1718
▁वित्त	-10.1718
ट्ट	-10.1719
▁branch	-10.1723
▁continued	-10.1724
▁offer	-10.1728
▁शिखर	-10.1728
▁blue	-10.1728
▁हस्ताक्षर	-10.1728
▁cor	-10.173
▁foot	-10.173
▁students	-10.173
दर्श	-10.1731
▁root	-10.1731
▁names	-10.1733
af	-10.1737
▁न्यू	-10.1743
▁सांस्कृतिक	-10.1746
पूर	-10.1746
▁रद्द	-10.1748
▁आजादी	-10.175
भी	-10.1751
▁सन	-10.1755
dra	-10.1759
▁कोर्ट	-10.1763
▁executive	-10.1763
▁domestic	-10.1763
▁संकट	-10.1765
▁नियमों	-10.1765
▁आत्मा	-10.1766
ath	-10.1771
▁हित	-10.1773
▁hill	-10.1775
▁shows	-10.1776
▁धु	-10.1779
ांक	-10.1779
▁thinking	-10.1779
▁october	-10.1781
▁response	-10.1781
▁discussion	-10.1783
▁involved	-10.1784
▁शत्रु	-10.1798
▁मुगल	-10.18
▁आठ	-10.1803
▁प्रयुक्त	-10.1804
▁मालिक	-10.1811
▁मजबूत	-10.1816
▁पुर	-10.1816
▁equal	-10.1817
▁assistant	-10.1817
▁internal	-10.1817
▁else	-10.1819
▁पैसे	-10.1823
▁उतर	-10.1827
वाला	-10.1829
▁dance	-10.183
▁animal	-10.1832
▁वार्षिक	-10.1834
▁अवैध	-10.1834
▁battle	-10.1834
▁क़्या	-10.1836
▁sentence	-10.1836
▁grant	-10.1836
▁खुश	-10.1843
▁न्यायाधीश	-10.1847
▁भागों	-10.1848
ura	-10.1851
▁प्रदूषण	-10.1851
▁रस	-10.1852
ef	-10.1855
work	-10.1856
▁हार	-10.1861
▁परीक्षा	-10.1862
▁रखें	-10.1868
▁corporation	-10.1869
▁threat	-10.1869
गन	-10.1869
▁प्रारूप	-10.1871
▁री	-10.1874
ग्रह	-10.1875
▁संग	-10.1877
gen	-10.1877
mat	-10.1877
▁issues	-10.1879
▁surface	-10.1887
cur	-10.1888
▁दूध	-10.1889
▁grand	-10.1889
र्थ	-10.1897
तल	-10.1898
▁हानि	-10.1899
लाइन	-10.1899
▁अस्तित्व	-10.1905
▁प्यार	-10.1905
▁skin	-10.1917
▁खत्म	-10.1923
og	-10.1925
▁results	-10.1925
ापन	-10.1925
▁शीर्षक	-10.1927
▁कब	-10.1929
ual	-10.1929
▁पत्नी	-10.1941
▁श्वेत	-10.1941
ctor	-10.1942
▁becomes	-10.1943
▁}	-10.1945
भार	-10.1947
▁moral	-10.195
▁grow	-10.1959
मल	-10.1959
▁hall	-10.1964
▁islands	-10.1964
त्ता	-10.1972
▁calcutta	-10.1976
▁northern	-10.1977
▁tool	-10.1987
▁products	-10.1993
▁सड़क	-10.1995
▁cons	-10.1995
▁टि	-10.1996
लेख	-10.1999
▁ku	-10.2003
▁उद्	-10.201
▁directly	-10.2012
▁te	-10.2012
▁दैनिक	-10.2012
▁trust	-10.2013
▁शुरु	-10.2013
ction	-10.2014
▁pipes	-10.2016
कला	-10.2017
▁लै	-10.2018
▁चुनें	-10.2019
▁wish	-10.202
▁sexual	-10.2031
▁qua	-10.2032
meter	-10.2033
ियत	-10.2035
▁depend	-10.2038
▁क्रांति	-10.2038
▁em	-10.2039
भर	-10.2042
▁देवी	-10.2042
▁सूर	-10.2048
और	-10.2048
▁double	-10.2049
▁exist	-10.2049
▁पुरानी	-10.205
▁इकाई	-10.2052
▁acid	-10.2055
▁fair	-10.2057
▁चन्द्र	-10.206
dev	-10.2062
▁लिखी	-10.2063
▁association	-10.2067
▁क्ल	-10.2068
▁product	-10.2068
▁traditional	-10.2068
▁करो	-10.2068
▁प्रत्यक्ष	-10.207
▁पूजा	-10.2074
▁मिलते	-10.208
▁प्रांत	-10.2083
▁division	-10.2085
▁ईरान	-10.2087
▁ensure	-10.209
▁declared	-10.2092
फ़ा	-10.2095
हु	-10.2096
ght	-10.21
▁दस्तावेज	-10.2101
दारी	-10.2101
her	-10.2102
▁कमजोर	-10.2103
ौर	-10.2103
▁publication	-10.2105
▁शुल्क	-10.2106
▁concerned	-10.2113
day	-10.2116
▁पुन	-10.2116
▁era	-10.2117
▁मौजूदा	-10.2117
▁डा	-10.2128
▁त्याग	-10.2129
▁दबाव	-10.2129
▁concern	-10.2129
▁mahal	-10.2134
gal	-10.2137
▁हाथों	-10.2139
▁छत	-10.2147
▁स्क्रीन	-10.2148
▁log	-10.2151
▁mon	-10.2155
▁kha	-10.2159
▁contains	-10.216
▁बर्	-10.2163
▁sw	-10.2166
not	-10.2177
▁छा	-10.2183
nc	-10.2185
▁appointed	-10.2186
over	-10.219
20	-10.2193
ava	-10.2193
▁sleep	-10.2194
▁अचानक	-10.2194
▁प्रतिनिधि	-10.2195
▁जोर	-10.2195
▁parents	-10.2197
za	-10.2203
▁sad	-10.2204
rat	-10.2204
▁ताल	-10.2207
▁आवाज	-10.2209
▁धन्यवाद	-10.2213
▁विशेषज्ञ	-10.2217
वक	-10.2219
चित्र	-10.2222
▁poems	-10.2223
▁उद्योगों	-10.2224
▁वार	-10.2226
▁late	-10.2226
like	-10.2229
▁q	-10.2229
▁desert	-10.2231
▁आंतरिक	-10.2231
▁annual	-10.2231
▁decide	-10.2231
▁रखता	-10.2234
▁निगम	-10.2235
ric	-10.2239
▁वस्तुओं	-10.2241
istic	-10.2242
▁चै	-10.2243
▁कर्मचारियों	-10.225
▁जोखिम	-10.225
dar	-10.2253
▁doesn	-10.2257
मक	-10.226
▁waste	-10.2261
▁नेत्र	-10.2265
▁अंध	-10.2266
हत	-10.2266
▁connected	-10.2267
▁unable	-10.2268
▁घंटे	-10.2268
▁कितना	-10.227
▁अनुपात	-10.2271
▁spot	-10.2279
ंगे	-10.2285
▁fr	-10.2286
▁staff	-10.2287
▁अंतर्राष्ट्रीय	-10.2287
mor	-10.2289
▁event	-10.2291
▁वाल	-10.2292
▁player	-10.2293
▁consist	-10.2295
cus	-10.2296
ऐ	-10.2299
बंध	-10.2299
▁useful	-10.2303
▁london	-10.2305
▁resolution	-10.2305
▁reached	-10.2307
▁agra	-10.231
▁रेडियो	-10.2312
▁उभर	-10.2316
▁सतह	-10.2318
ect	-10.2326
▁बजट	-10.2327
▁कट	-10.2327
▁piece	-10.2335
den	-10.2337
वाँ	-10.2341
▁companies	-10.2342
▁गुट	-10.2348
ुन	-10.235
▁जापान	-10.2351
▁saint	-10.2361
▁belong	-10.2362
▁heat	-10.2364
▁nine	-10.2366
▁consumer	-10.2368
▁caste	-10.2372
▁लगाना	-10.2374
▁नैतिक	-10.238
▁railway	-10.2387
▁arm	-10.2388
▁पत	-10.2393
▁बोर्ड	-10.2393
▁निर्धारण	-10.2397
▁अफ्रीका	-10.2399
▁आसपास	-10.2399
▁phase	-10.24
▁brother	-10.2405
▁nations	-10.2408
▁successful	-10.2408
▁अल्	-10.2414
▁proposal	-10.2417
▁शुद्ध	-10.2418
▁इंडिया	-10.2418
िष्ट	-10.2425
▁origin	-10.2426
▁appear	-10.2432
▁numbers	-10.2434
▁सभ्यता	-10.2439
▁pick	-10.2442
मर	-10.2442
▁mid	-10.2451
▁पर्यावरण	-10.2455
▁april	-10.2455
भु	-10.2457
▁cold	-10.2457
▁मोड	-10.2458
टक	-10.2459
▁partner	-10.2459
▁regular	-10.246
▁happen	-10.2463
▁column	-10.2465
nic	-10.2469
▁घोषित	-10.2474
▁तत्काल	-10.2474
▁अभियान	-10.2476
ैक	-10.2481
▁seems	-10.2485
▁complaint	-10.2486
▁इल	-10.249
ute	-10.2493
▁शासक	-10.2493
▁planning	-10.2494
▁मई	-10.2496
▁खुले	-10.2496
▁germany	-10.2499
आई	-10.2504
▁60	-10.2505
▁अधिकतम	-10.2505
▁relationship	-10.2512
▁allowance	-10.2514
rn	-10.2515
▁माप	-10.2516
▁leg	-10.2525
▁खराब	-10.2531
esh	-10.2532
▁22	-10.2532
द्य	-10.2533
▁उच्चतम	-10.2534
nes	-10.2536
▁लगों	-10.2537
▁सुख	-10.2542
log	-10.2544
▁21	-10.2549
ris	-10.2549
▁गीत	-10.2549
▁मुहम्मद	-10.255
▁रास्ता	-10.255
▁focus	-10.255
दि	-10.2551
▁26	-10.2552
▁लाने	-10.2555
श्च	-10.2561
न्य	-10.2565
लोक	-10.2566
▁अनुसंधान	-10.2569
▁palestinian	-10.2578
▁convert	-10.2578
▁प्रथा	-10.2582
yan	-10.2584
▁input	-10.2585
▁बच्चा	-10.2588
▁palace	-10.2588
▁हिमालय	-10.2588
▁primary	-10.2588
▁apply	-10.2592
rd	-10.2592
▁अन्त	-10.2596
▁gu	-10.2597
▁कार्यों	-10.2599
▁remote	-10.2607
▁मौत	-10.2607
▁सम्बन्ध	-10.2608
▁महल	-10.261
▁संसदीय	-10.2623
▁mouth	-10.2626
लिंग	-10.2633
▁rid	-10.2634
▁opportunity	-10.2645
▁हासिल	-10.2646
▁dam	-10.2646
▁प्राथमिक	-10.2647
▁जय	-10.265
ूक	-10.2651
▁cash	-10.2651
but	-10.2654
▁सदी	-10.2658
ess	-10.266
▁goal	-10.2663
▁वहीं	-10.2665
▁संरक्षण	-10.2667
▁largest	-10.2674
▁दिख	-10.2674
पद	-10.2677
▁पहुंचा	-10.2678
▁significant	-10.2684
▁dark	-10.2684
ore	-10.2685
▁pound	-10.2685
cious	-10.2687
▁install	-10.269
▁acc	-10.2696
▁स्वर	-10.2697
▁directory	-10.2699
▁agree	-10.27
▁minimum	-10.2703
च्च	-10.2704
▁download	-10.2704
वै	-10.2705
छा	-10.2706
▁असल	-10.2709
▁hi	-10.2711
▁नेताओं	-10.2713
▁स्तन	-10.2714
▁maintain	-10.2715
▁ची	-10.2715
तऋ	-10.2715
▁ब्ल	-10.2716
▁प्रान्त	-10.2717
▁signal	-10.2717
▁op	-10.2719
वासियों	-10.2722
▁background	-10.2723
▁कार्ड	-10.2732
▁ready	-10.2736
▁भाषाओं	-10.2736
▁heard	-10.2736
▁commercial	-10.2742
▁जिन्होंने	-10.2742
▁मंडप	-10.2742
▁सद	-10.2743
▁चीनी	-10.2754
kha	-10.2755
तया	-10.2757
ell	-10.2758
▁accident	-10.2761
▁धरती	-10.2761
▁debt	-10.2762
ंडा	-10.2762
▁officers	-10.2763
▁फी	-10.2764
▁अक्षम	-10.2767
▁अभिलेख	-10.2771
▁saying	-10.2772
▁गांव	-10.2773
000	-10.2776
▁map	-10.2776
▁br	-10.2778
▁medicine	-10.2781
▁ग्रामीण	-10.2781
▁संहिता	-10.2781
▁गुरु	-10.2783
▁चाह	-10.2784
▁उतार	-10.279
▁रोकने	-10.279
▁प्रारंभिक	-10.2791
▁measure	-10.2791
▁relations	-10.2793
▁poly	-10.2795
▁expected	-10.2796
▁systems	-10.2796
▁height	-10.2799
▁ग्रहण	-10.28
▁दुकान	-10.28
▁गरीब	-10.2804
▁wood	-10.2806
▁essential	-10.2806
▁कागज	-10.2808
dis	-10.2811
▁फ्र	-10.2812
▁tab	-10.2814
▁elephant	-10.282
▁evolution	-10.282
▁पवित्र	-10.282
▁heavy	-10.282
▁आखिर	-10.2824
▁हाँ	-10.2826
▁happened	-10.283
▁province	-10.2833
▁affected	-10.2836
ew	-10.2837
हो	-10.2839
▁विद्युत	-10.2839
▁persons	-10.2844
▁learning	-10.2845
ice	-10.2846
▁july	-10.2846
▁नील	-10.285
▁स्वीकृति	-10.2854
▁पढ़ने	-10.2858
▁आनुवंशिक	-10.2859
▁उद्यम	-10.2859
▁टूट	-10.286
▁23	-10.2868
▁walk	-10.2871
▁figure	-10.2873
▁description	-10.2879
▁permission	-10.2879
▁shrine	-10.2888
▁लिखे	-10.2892
एन	-10.2896
▁उत्	-10.2896
ालय	-10.2899
▁quran	-10.2899
सल	-10.2901
न्ध	-10.2905
ular	-10.2905
▁चीज	-10.2906
▁():	-10.2907
▁मान्यता	-10.2908
▁समस्त	-10.2915
▁failure	-10.2919
▁season	-10.292
▁मानसिक	-10.292
▁reform	-10.2922
▁समझने	-10.2933
▁iraq	-10.2934
डिया	-10.2935
अप	-10.2938
row	-10.2943
car	-10.2945
▁coal	-10.2946
लेट	-10.2946
▁band	-10.295
ier	-10.2953
▁शिशु	-10.2953
▁probably	-10.2957
▁vishnu	-10.2957
▁धातु	-10.2957
▁इतने	-10.2958
by	-10.2959
▁उपबंध	-10.2959
ेक	-10.296
▁poetry	-10.296
hal	-10.2965
▁चाल	-10.2966
lum	-10.2968
aries	-10.2977
▁अंड	-10.2978
▁manner	-10.2983
▁def	-10.2984
▁चलने	-10.2985
▁cow	-10.2987
ker	-10.2987
▁gar	-10.2987
▁element	-10.2994
▁invest	-10.2995
▁दि	-10.2996
▁atomic	-10.2997
तार	-10.3004
सम	-10.3009
▁ship	-10.3017
▁सोचा	-10.3018
▁लोड	-10.302
▁वैध	-10.3022
▁जून	-10.3024
▁lack	-10.3025
▁अमर	-10.3026
iness	-10.3028
▁देंगे	-10.3029
▁flu	-10.303
▁भि	-10.3035
▁हिस्से	-10.3037
▁चिंता	-10.3037
▁इराक	-10.3038
▁edit	-10.3046
▁wind	-10.3048
▁शोर	-10.3048
▁अभिगम	-10.3048
▁indians	-10.3049
▁गर्भ	-10.3051
▁eastern	-10.3057
▁बम	-10.3058
▁कबीर	-10.3058
▁अधिकारों	-10.3059
▁hot	-10.306
?”	-10.3064
▁bomb	-10.3064
▁सहज	-10.3065
▁causes	-10.3067
▁चिह्न	-10.3071
▁broad	-10.3077
▁खतरा	-10.3077
▁पंक्ति	-10.3077
▁चालू	-10.3081
▁पात्र	-10.3084
▁सागर	-10.3086
▁जुड़	-10.3087
abad	-10.3088
▁दान	-10.3091
▁sand	-10.3092
▁recently	-10.3094
▁concept	-10.3095
▁मंत्रालय	-10.3097
▁कार्यवाही	-10.3099
▁leading	-10.3102
▁photo	-10.3108
▁stream	-10.3109
▁perform	-10.311
▁पशु	-10.3116
▁संगणक	-10.3117
▁youtube	-10.3117
▁rural	-10.3118
▁चोट	-10.312
▁दिखाया	-10.3124
▁लेता	-10.3126
णी	-10.3127
▁users	-10.3128
▁opening	-10.3131
▁lay	-10.3133
▁दुर्घटना	-10.3137
ठी	-10.3138
ाणु	-10.3142
▁elected	-10.3147
▁print	-10.3151
ung	-10.3157
▁equipment	-10.3158
▁चुनौती	-10.3158
▁प्रो	-10.3165
▁भौतिक	-10.3169
▁disc	-10.3169
▁billion	-10.317
▁pat	-10.3171
▁daughter	-10.3178
▁wicket	-10.3178
▁subscribe	-10.3179
डर	-10.3181
▁nav	-10.3182
▁items	-10.3185
▁mental	-10.3187
▁जाएगी	-10.3188
▁kh	-10.3189
क्ट	-10.3193
▁daniel	-10.3198
▁manufacture	-10.3198
▁ministry	-10.3198
▁सूत्र	-10.3199
फी	-10.3201
raj	-10.3201
▁killed	-10.3203
mu	-10.3203
▁ऋस	-10.3205
▁feeling	-10.3209
▁दुख	-10.3214
▁drug	-10.3216
▁circumstances	-10.3219
▁bri	-10.3219
▁रास्ते	-10.3219
▁ऐतिहासिक	-10.3219
▁कितनी	-10.3219
▁reduce	-10.3223
▁८	-10.3226
▁mainly	-10.3228
▁खाली	-10.3229
ada	-10.3229
म्भ	-10.323
▁request	-10.3231
▁soft	-10.3235
▁effects	-10.3238
▁crime	-10.324
र्च	-10.3244
▁teacher	-10.3246
्ड	-10.3246
▁arch	-10.3247
▁weeks	-10.3247
▁race	-10.3248
▁mountain	-10.3248
▁wage	-10.3254
ीस	-10.3255
▁ड़	-10.3256
▁माह	-10.3258
▁कीजिए	-10.3259
▁authorities	-10.3261
▁interesting	-10.3266
▁कलाकार	-10.3268
▁option	-10.3275
▁sat	-10.3279
▁इस्पात	-10.328
▁sum	-10.328
▁agency	-10.328
▁permit	-10.3283
▁काट	-10.3283
▁निर्देशिका	-10.3289
▁expenditure	-10.33
▁scientific	-10.33
▁september	-10.33
▁jail	-10.3309
▁hear	-10.331
▁प्रचलित	-10.3312
▁उदार	-10.3314
लिन	-10.332
्ली	-10.3321
▁twenty	-10.3321
▁happy	-10.3321
▁असमर्थ	-10.3321
ड़िया	-10.3321
▁ref	-10.3325
▁hour	-10.3329
ok	-10.333
▁charges	-10.3337
▁raised	-10.334
गढ़	-10.3341
▁husband	-10.3341
▁expert	-10.3341
▁whom	-10.3341
▁क्ष	-10.3343
ून	-10.3343
▁mount	-10.3346
ties	-10.335
▁जड़	-10.335
jo	-10.3364
▁reasons	-10.3369
▁कराने	-10.3378
▁ideal	-10.3383
▁ocean	-10.3383
▁ताजमहल	-10.3383
▁rajya	-10.3386
▁ज्यादातर	-10.3389
▁२००	-10.339
▁परिवर्तित	-10.3403
▁तुरंत	-10.3403
▁parliamentary	-10.3411
स्टर	-10.3411
▁manager	-10.3412
ov	-10.3418
▁seek	-10.342
ंगल	-10.3421
तो	-10.3424
▁release	-10.3426
कर्म	-10.343
▁अनुरूप	-10.3431
▁गाय	-10.3434
▁growing	-10.3436
मैन	-10.3436
ali	-10.344
▁कनेक्शन	-10.3445
▁मॉडल	-10.3445
▁symbol	-10.3446
▁संसाधन	-10.3447
▁thousand	-10.3447
▁व्याख्या	-10.3448
▁जटिल	-10.3449
▁increasing	-10.3452
▁turned	-10.3455
ेगा	-10.3455
ou	-10.3461
▁ag	-10.3462
ल्ला	-10.3462
▁agriculture	-10.3466
▁campaign	-10.3466
शे	-10.3468
▁ham	-10.3469
▁तीव्र	-10.3469
▁shiva	-10.3477
▁placed	-10.3481
▁efforts	-10.3482
न्ना	-10.3487
▁माँ	-10.3488
▁तोड़	-10.3489
▁तुम्हें	-10.3489
▁pot	-10.3489
▁जीवित	-10.3489
▁चमक	-10.349
▁लड़के	-10.3491
▁स्वामी	-10.3493
▁सॉफ्टवेयर	-10.3493
▁dy	-10.3494
▁ग्र	-10.3505
▁afghanistan	-10.3508
▁वैदिक	-10.3508
▁valid	-10.3508
▁mentioned	-10.3508
▁divided	-10.3517
▁upper	-10.3525
जू	-10.3525
▁solution	-10.3528
▁शारीरिक	-10.3528
▁बिक्री	-10.3528
▁औ	-10.353
चित	-10.3536
▁ग़	-10.3539
gr	-10.354
▁पेट	-10.3543
▁पाते	-10.3543
▁straight	-10.3547
▁delete	-10.3552
nce	-10.3552
▁located	-10.3553
ैन	-10.3554
▁नियुक्त	-10.356
▁आकर	-10.357
pu	-10.357
applause	-10.3571
▁responsibility	-10.3571
▁switch	-10.3571
▁झील	-10.3571
रहित	-10.3571
▁दृष्टिकोण	-10.3571
▁everyone	-10.3575
▁भवन	-10.3576
▁लिखने	-10.3579
▁दर्द	-10.3579
रंग	-10.3581
▁worth	-10.3581
▁गूगल	-10.3585
▁vimana	-10.3592
▁immediately	-10.3598
▁taj	-10.36
▁जला	-10.3604
▁adopted	-10.3605
▁तिथि	-10.361
पल	-10.3611
▁ब्रह्म	-10.3612
▁judicial	-10.3613
▁purchase	-10.3613
▁बाह्य	-10.3613
▁क्षति	-10.3615
▁panel	-10.3618
वें	-10.3619
▁निष्कर्ष	-10.362
▁string	-10.362
▁guide	-10.3621
▁डॉलर	-10.3634
nda	-10.3638
▁gone	-10.3639
▁आना	-10.3641
▁chemical	-10.3652
▁gr	-10.3653
▁legislative	-10.3655
▁मस्जिद	-10.3655
▁योगदान	-10.3656
वां	-10.3658
▁lit	-10.366
▁highest	-10.3665
▁मां	-10.3669
ever	-10.3671
मूल	-10.3673
▁मं	-10.3675
▁issued	-10.3676
ula	-10.3676
▁conf	-10.3676
▁november	-10.3676
▁windows	-10.3677
▁फसल	-10.3678
▁संयंत्र	-10.3679
▁बुद्ध	-10.3682
▁हालत	-10.3682
उन	-10.3685
▁कहाँ	-10.3687
▁अनि	-10.3687
▁आसानी	-10.3687
ata	-10.3694
▁southern	-10.3698
▁गठन	-10.3698
▁किनारे	-10.3698
▁dispute	-10.3698
▁ब्राह्मण	-10.3699
▁creation	-10.3704
▁इसने	-10.3704
▁funds	-10.3708
▁bed	-10.371
▁चयनित	-10.3711
▁नौकरी	-10.3715
▁छह	-10.3715
वाल	-10.3715
▁योग	-10.3721
▁चाहती	-10.3724
▁अज	-10.3727
▁initial	-10.3727
wi	-10.3728
▁believed	-10.3729
ट्	-10.3729
▁seed	-10.373
▁फ़िर	-10.3732
▁strength	-10.3736
lation	-10.3736
त्री	-10.3736
▁नाटक	-10.3738
▁कर्तव्य	-10.3741
▁argument	-10.3741
▁married	-10.3741
▁प्राप्ति	-10.3741
▁starting	-10.3741
▁आयी	-10.3744
▁वाद्य	-10.3747
▁employees	-10.375
zz	-10.3751
▁शाह	-10.3756
▁लॉ	-10.3758
▁शक़्ति	-10.3759
▁instance	-10.3762
▁संपत्ति	-10.3764
▁addition	-10.3764
▁tenant	-10.3767
▁ईसाई	-10.3767
▁2000	-10.3768
▁कोशिकाओं	-10.3769
▁join	-10.3776
▁ear	-10.3777
▁conduct	-10.3778
▁तुर्की	-10.3778
▁pop	-10.3783
ंडी	-10.3785
जल	-10.3787
▁theory	-10.3792
▁provision	-10.3792
▁compar	-10.3793
▁एकमात्र	-10.3798
▁उनको	-10.3803
▁accurate	-10.3805
▁प्रयत्न	-10.3805
▁आहार	-10.3809
▁associated	-10.3812
▁fat	-10.3816
▁मोह	-10.382
200	-10.3822
▁climate	-10.3827
▁घरेलू	-10.3827
▁पुस्तिका	-10.3827
▁उपयुक्त	-10.383
▁bond	-10.383
▁श्रृंखला	-10.3831
▁क्लिक	-10.3833
lit	-10.3837
▁intelligence	-10.3848
▁accused	-10.3848
▁invalid	-10.3848
▁analysis	-10.3849
▁morning	-10.3849
▁लोकतंत्र	-10.385
▁drop	-10.3852
ज्य	-10.3856
▁looked	-10.3858
▁qu	-10.3859
▁constitutional	-10.3859
▁गर्म	-10.386
▁legs	-10.3861
▁articles	-10.3861
ob	-10.3861
▁कौ	-10.3863
▁देगा	-10.3864
▁soul	-10.3866
▁दक्षिणी	-10.3868
▁आमदनी	-10.387
▁शु	-10.3873
▁suit	-10.3874
▁असली	-10.3874
▁reader	-10.3875
▁वर्	-10.3876
▁कू	-10.3879
▁पत्त	-10.3881
मिन	-10.3881
▁बेल	-10.3887
▁december	-10.3892
▁studies	-10.3892
▁ब्याज	-10.3892
▁notes	-10.3892
▁baby	-10.3893
▁habit	-10.3893
क्षेत्र	-10.3893
▁huge	-10.3895
▁bush	-10.3895
▁विकेट	-10.3895
▁completed	-10.3901
▁flo	-10.3904
▁corner	-10.3905
vis	-10.3906
षण	-10.3907
▁मानवीय	-10.3908
ologist	-10.3909
▁अदा	-10.391
▁advantage	-10.3914
▁strike	-10.3914
▁अगस्त	-10.3915
रुप	-10.3917
▁बीमार	-10.3917
▁ven	-10.3918
रोध	-10.3919
▁वृक्ष	-10.392
ory	-10.3921
uff	-10.3922
▁points	-10.3925
▁उड़	-10.3929
▁seem	-10.3931
▁मस	-10.3934
▁belief	-10.3935
▁john	-10.3935
▁परिस्थितियों	-10.3936
▁impact	-10.3937
▁airport	-10.3937
▁existence	-10.3937
▁hair	-10.3937
▁cook	-10.3938
▁किरायेदार	-10.394
▁मिटा	-10.3941
▁worked	-10.3945
vel	-10.3947
▁ter	-10.396
▁लेती	-10.3961
▁dev	-10.3972
ेंट	-10.3973
ियाई	-10.3974
▁अक्षर	-10.3976
▁जाकर	-10.3979
▁foundation	-10.3984
▁wants	-10.3984
अलग	-10.3988
▁fully	-10.3994
▁icon	-10.3997
▁गणना	-10.3997
▁lock	-10.4
56	-10.4001
▁डाउनलोड	-10.4001
▁sweet	-10.4001
▁प्रतीत	-10.4002
aka	-10.4005
स्तर	-10.4011
zi	-10.4012
दो	-10.4013
▁str	-10.4019
ोट	-10.4021
▁फोटो	-10.4021
▁आवेदन	-10.4022
▁chrome	-10.4023
▁breed	-10.4023
▁लेट	-10.4025
▁दौर	-10.4029
▁supported	-10.4031
ade	-10.4031
jan	-10.4032
▁sport	-10.4039
▁semi	-10.404
ंदा	-10.4041
▁ः	-10.4045
▁cabinet	-10.4045
▁tissue	-10.4045
▁निम्नलिखित	-10.4045
▁सुझाव	-10.4047
▁कुमार	-10.4048
▁shop	-10.4048
▁comm	-10.4051
▁citizens	-10.4052
▁बक	-10.4056
▁मीटर	-10.4057
▁mahabharata	-10.4067
▁distance	-10.4067
▁न्यायिक	-10.4068
cept	-10.4069
▁मुकदमा	-10.4071
▁पैसा	-10.4074
▁सल	-10.4075
▁hum	-10.4079
illa	-10.4083
▁august	-10.409
▁easily	-10.409
▁february	-10.409
▁index	-10.409
don	-10.4093
▁spent	-10.4097
▁earn	-10.4098
hood	-10.41
▁elections	-10.4101
र्य	-10.4107
▁appropriate	-10.4112
▁marriage	-10.4112
▁potential	-10.4112
▁चेतावनी	-10.4112
▁यहूदी	-10.4112
▁cancer	-10.4112
▁मुल्क	-10.4112
▁defence	-10.4113
▁आयोजित	-10.4114
▁june	-10.4116
ley	-10.4119
cha	-10.4121
▁फर	-10.4121
▁मिलकर	-10.4126
▁आलोचना	-10.4134
ically	-10.4135
▁mission	-10.4145
▁reality	-10.4145
भव	-10.4148
▁देखना	-10.4148
खंड	-10.4153
▁पेड़	-10.4153
▁thousands	-10.4154
▁unique	-10.4157
▁उपन्यास	-10.4158
▁प्रतिनिधित्व	-10.4158
▁bound	-10.4162
▁आगरा	-10.4164
▁begin	-10.4166
▁kids	-10.4169
▁noise	-10.4171
▁सहमत	-10.4174
▁museum	-10.4179
▁परामर्श	-10.4179
▁couple	-10.4179
▁लंबे	-10.4179
▁wi	-10.4179
▁हस्त	-10.418
▁फ्ल	-10.4181
▁bird	-10.4182
्ले	-10.42
▁चैनल	-10.4201
▁japan	-10.4201
▁स्वागत	-10.4202
▁printer	-10.4203
कृति	-10.4208
णा	-10.4208
▁sky	-10.4217
▁बदले	-10.4217
des	-10.422
▁ज्ञात	-10.4224
▁translation	-10.4224
▁cat	-10.4225
wal	-10.4227
▁lose	-10.4229
लिक	-10.423
10	-10.4231
ोज	-10.4231
ेरी	-10.4238
▁cra	-10.4245
ans	-10.4246
▁सौंप	-10.4247
▁दिला	-10.4248
▁दूरी	-10.4251
ude	-10.4253
िकल	-10.4257
▁knew	-10.4269
▁अवश्य	-10.4271
▁delay	-10.4272
▁menu	-10.4273
▁bin	-10.4275
▁larger	-10.4277
धन	-10.4277
▁steps	-10.4279
▁उन्हे	-10.4284
▁बहस	-10.4291
▁tamil	-10.4291
▁मास	-10.4292
▁debate	-10.4292
पित	-10.4305
▁himalaya	-10.4307
▁minutes	-10.431
▁दोनो	-10.4314
▁थोड़ा	-10.4314
▁shift	-10.4315
▁schools	-10.4317
light	-10.4323
▁यूरोपीय	-10.4323
▁फै	-10.4326
▁अंग्रेज	-10.4328
▁lines	-10.433
▁slow	-10.4333
िव	-10.4333
यान	-10.4337
▁अस्पताल	-10.4337
▁साबित	-10.4337
lf	-10.4337
▁electricity	-10.4339
स्राव	-10.434
▁counter	-10.4342
▁agent	-10.4345
▁pull	-10.4345
▁represents	-10.4349
नायक	-10.4351
▁जाएं	-10.4353
▁जू	-10.4356
▁dry	-10.4357
▁निष्क्रिय	-10.436
▁दिखाएँ	-10.4363
▁डाय	-10.4364
ज़ी	-10.4364
▁वृ	-10.4366
हिन्दी	-10.4366
ारी	-10.4367
▁वर्षा	-10.4372
▁suggest	-10.4373
▁sides	-10.4376
▁blind	-10.4382
▁विवेक	-10.4382
▁chairman	-10.4384
lay	-10.4385
ल्ट	-10.4387
लम	-10.439
▁खड़े	-10.4391
▁उतन	-10.4394
द्व	-10.4399
▁degree	-10.4399
शिया	-10.4401
▁tea	-10.4401
▁tv	-10.4405
▁रामायण	-10.4405
▁reflect	-10.4405
▁अप्रैल	-10.4406
▁प्रतिभा	-10.4408
▁खाने	-10.4409
▁tour	-10.441
मंडल	-10.4412
▁खड़ा	-10.4415
▁”“	-10.4415
▁prepared	-10.4416
▁train	-10.4421
▁गहरा	-10.4427
▁कॉल	-10.4429
▁जुड़े	-10.443
izing	-10.4433
▁मृत	-10.4435
▁खुल	-10.4435
rm	-10.4436
पोर्ट	-10.4436
▁brahma	-10.4438
दन	-10.4439
▁करार	-10.4441
ड़ना	-10.4444
▁views	-10.4449
▁चुने	-10.4449
ोद	-10.4449
विक	-10.4452
▁बसव	-10.4455
लाई	-10.4463
table	-10.4465
▁experiment	-10.4467
▁चिकित्सक	-10.4475
▁detect	-10.4476
▁offence	-10.448
▁kill	-10.4482
▁island	-10.4482
▁ring	-10.4483
▁york	-10.4497
▁perfect	-10.4498
▁choice	-10.4498
ological	-10.4499
▁साइ	-10.4512
▁मांस	-10.4514
▁eat	-10.4514
▁standing	-10.4515
gar	-10.4518
कल्प	-10.4519
▁attend	-10.4519
▁wait	-10.452
▁revenue	-10.452
▁आकाश	-10.4521
▁डाटा	-10.4523
▁secretary	-10.4524
▁fill	-10.4525
▁उज	-10.4527
कम	-10.4536
▁judges	-10.454
▁फो	-10.4541
ाउ	-10.4542
▁mughal	-10.4544
▁repair	-10.4544
▁murder	-10.4544
▁विद्रोह	-10.4545
▁व्यापारी	-10.4548
bal	-10.4548
▁vision	-10.455
lessness	-10.4552
▁लाया	-10.4552
rum	-10.4555
▁rat	-10.4557
▁बन्द	-10.4557
▁अक्ष	-10.4564
▁agricultural	-10.4567
▁चूंकि	-10.4567
▁शिक्षक	-10.4567
▁leadership	-10.4568
▁reaction	-10.4568
▁बुरा	-10.4583
▁register	-10.4585
▁values	-10.4589
▁tribunal	-10.459
▁निर्वाचन	-10.459
gam	-10.4593
▁expression	-10.4594
▁पड़ी	-10.4596
़ी	-10.4599
▁भले	-10.4603
▁occur	-10.4606
▁पहन	-10.4608
▁असम	-10.461
▁मंच	-10.461
hen	-10.461
▁ध्वज	-10.4614
▁खिलाड़ी	-10.4614
old	-10.4614
र्ष	-10.4617
▁शर	-10.462
▁diseases	-10.4621
ेंस	-10.4623
▁बंध	-10.4624
▁contain	-10.4626
ina	-10.4627
▁फिलीस्तीनी	-10.4628
क्षित	-10.4632
▁topics	-10.4636
▁actor	-10.4636
▁australia	-10.4637
▁integral	-10.4637
▁obama	-10.4637
वाली	-10.4637
▁2007	-10.4638
▁संक्षिप्त	-10.4638
▁holy	-10.4639
▁शास्त्र	-10.4639
▁parent	-10.4641
▁आवास	-10.4644
▁पंजाब	-10.4649
▁facilities	-10.4661
▁घूम	-10.4663
xi	-10.4666
पु	-10.4672
▁installed	-10.4672
▁messages	-10.4679
▁पृथक	-10.4679
▁निभा	-10.4682
मिल	-10.4682
▁फौज	-10.4684
▁सिविल	-10.4685
▁unknown	-10.4685
▁sugar	-10.4685
ाइड	-10.4688
bit	-10.469
१९	-10.4692
atter	-10.4692
फू	-10.4698
▁comments	-10.4698
▁centuries	-10.4708
▁अस्थायी	-10.4708
▁carbon	-10.4708
▁medium	-10.4708
▁housing	-10.4708
▁लिंक	-10.4713
az	-10.4724
५०	-10.4724
▁proved	-10.4727
▁costs	-10.4727
pati	-10.4728
▁extent	-10.4731
▁variety	-10.4731
▁package	-10.4733
▁रुचि	-10.4733
▁इलाज	-10.4734
▁करेगी	-10.4738
▁ज़रूरत	-10.4738
▁factor	-10.4741
ode	-10.4742
▁मूर्ति	-10.4749
▁हमला	-10.4749
बाज	-10.4754
▁इंग्लैंड	-10.4755
▁नुकसान	-10.4755
▁संक्रमण	-10.4757
▁पौ	-10.4759
ising	-10.476
ायन	-10.4765
▁पंच	-10.4768
अर	-10.4768
िक्स	-10.477
▁लगती	-10.4772
▁sale	-10.4775
▁policies	-10.4779
▁गुजरात	-10.478
▁अर्थात	-10.4784
ाहट	-10.4785
▁अक	-10.4788
▁रेल	-10.4788
्ला	-10.479
oli	-10.4792
▁happens	-10.4793
ायी	-10.4799
▁त्वचा	-10.4803
▁2008	-10.4803
▁visible	-10.4803
▁genetic	-10.4805
▁फेंक	-10.4805
▁जिले	-10.4806
▁novel	-10.481
▁हट	-10.4815
पान	-10.4818
▁completely	-10.482
oma	-10.4824
▁george	-10.4826
▁breath	-10.4826
▁latter	-10.4827
▁multiple	-10.4828
▁२०	-10.4831
▁फे	-10.4831
▁fore	-10.4832
▁ash	-10.4836
▁विल	-10.4836
ulate	-10.484
▁fun	-10.484
off	-10.484
ुष	-10.4841
▁units	-10.4843
▁लिखित	-10.4844
▁includes	-10.4846
▁आपस	-10.485
▁amendment	-10.4852
▁returned	-10.4854
▁button	-10.4861
▁अभाव	-10.4868
▁institutions	-10.4871
▁वेबसाइट	-10.4874
▁opposition	-10.4875
▁britain	-10.4875
शल	-10.4875
▁बहुमत	-10.4876
ुट	-10.4878
▁तन	-10.4878
▁sick	-10.4878
थे	-10.488
▁विनिमय	-10.4886
bri	-10.4887
▁पार्क	-10.4888
50	-10.4889
दू	-10.4889
▁ordinary	-10.4898
▁employment	-10.4899
▁मामला	-10.4902
▁desire	-10.4903
▁remains	-10.4904
फे	-10.4909
▁डॉ	-10.4911
ोत्तर	-10.4914
ल्फ	-10.492
▁यातायात	-10.4922
▁सफेद	-10.4922
▁वितरण	-10.4922
▁प्रेमचंद	-10.4923
▁architecture	-10.4923
▁2006	-10.4923
▁penis	-10.4926
▁ड्र	-10.4936
▁flat	-10.4936
▁wo	-10.4943
▁अच	-10.4943
▁देकर	-10.4944
लक	-10.4946
▁french	-10.4947
▁browser	-10.495
▁पेशी	-10.495
▁आपूर्ति	-10.4951
▁लक	-10.4951
▁basava	-10.4952
▁events	-10.4953
▁online	-10.4954
ग्र	-10.4956
▁lac	-10.496
part	-10.4964
▁pure	-10.4964
▁express	-10.4965
ाइन	-10.4967
▁पू	-10.4968
▁teeth	-10.4971
▁नमूने	-10.4971
▁mostly	-10.4972
▁कितने	-10.4972
ix	-10.4973
▁हद	-10.4977
▁स्वस्थ	-10.4982
धारी	-10.4985
ब्र	-10.4987
▁पोर्ट	-10.4989
▁चो	-10.4989
▁chinese	-10.4995
▁kabir	-10.4996
मित	-10.5001
▁whatever	-10.5001
वर्ग	-10.5004
▁ग्राहक	-10.5004
▁custom	-10.5008
▁officials	-10.5009
▁dar	-10.501
▁ऑडियो	-10.5015
▁outer	-10.5019
▁vehicle	-10.5019
▁simply	-10.5019
ibility	-10.502
▁wild	-10.502
▁besides	-10.502
▁indeed	-10.5021
▁performance	-10.5021
▁हुये	-10.5021
ट्स	-10.5023
्री	-10.5025
▁लड़ाई	-10.5026
▁उन्होनें	-10.5029
▁islamist	-10.503
▁planet	-10.5032
्थ	-10.5033
▁links	-10.5033
▁veda	-10.5034
सान	-10.5036
▁traffic	-10.5044
▁confirm	-10.5044
▁camp	-10.5044
यल	-10.5046
▁throughout	-10.5049
ome	-10.5049
▁reserve	-10.505
लिया	-10.5058
▁guarantee	-10.5068
▁gujarat	-10.5068
▁विरूद्ध	-10.5068
▁समझौते	-10.5068
▁वकील	-10.5068
▁presence	-10.5068
▁historical	-10.5069
▁keyboard	-10.5069
▁सहारा	-10.5069
▁institution	-10.5072
fer	-10.5074
▁अन्तर	-10.5074
▁सारा	-10.5075
दाता	-10.5076
्टर	-10.5083
टना	-10.5084
नेट	-10.5086
▁playing	-10.509
▁उत्सर्जन	-10.5093
▁ऊतक	-10.5093
▁योनि	-10.5093
▁breast	-10.5093
▁लंबी	-10.5093
▁secure	-10.5094
tain	-10.5096
▁शत	-10.5099
▁lal	-10.5101
▁organ	-10.5101
▁मॉ	-10.5102
▁raise	-10.5107
▁ser	-10.511
साथ	-10.5111
▁wear	-10.5114
▁निरंतर	-10.5117
▁moving	-10.5117
▁push	-10.5119
▁adult	-10.5123
▁acts	-10.5129
ष्टि	-10.5134
▁कैंसर	-10.5142
▁fruit	-10.5142
▁अन्दर	-10.5142
▁uk	-10.5143
var	-10.5146
▁dog	-10.5153
▁armed	-10.5156
ae	-10.5156
▁एं	-10.5161
▁भंडार	-10.5163
▁जम	-10.5163
▁बॉ	-10.5164
▁बीमा	-10.5165
▁व्यक्त	-10.5166
▁poverty	-10.5167
▁protocol	-10.5167
▁परिवहन	-10.5167
▁समझौता	-10.5167
▁वक्त	-10.5169
▁अभ	-10.5172
▁effort	-10.5172
▁artist	-10.5176
▁soil	-10.518
टिंग	-10.5183
▁पट्ट	-10.5185
rang	-10.5188
▁सुर	-10.5189
▁mag	-10.5191
▁रियासत	-10.5191
▁विष्णु	-10.5191
▁premchand	-10.5192
▁lies	-10.5199
▁वस्त्र	-10.5199
▁kumar	-10.5205
▁keeping	-10.5206
▁feet	-10.5208
▁template	-10.5216
▁finger	-10.5218
▁परिभाषा	-10.5218
▁जुलाई	-10.5218
▁घटा	-10.522
गण	-10.5222
▁fix	-10.5223
वाई	-10.5224
शाली	-10.5231
▁पीड़ित	-10.5241
▁असं	-10.5243
dhi	-10.5244
▁दोहरा	-10.5245
▁existing	-10.5254
▁pin	-10.5256
▁कार्बन	-10.5258
▁विविध	-10.526
uk	-10.526
▁बोस	-10.5263
▁technical	-10.5266
▁trouble	-10.5266
▁ओबामा	-10.5266
▁बुनियादी	-10.5266
▁radical	-10.5266
▁दीर्घ	-10.5266
▁रिकार्ड	-10.5267
ेक्ट	-10.527
▁ति	-10.5272
press	-10.5273
▁गेंदबाज	-10.5277
▁unity	-10.528
ीकृत	-10.5281
▁वीर	-10.5283
▁डाला	-10.5284
▁shri	-10.5286
▁अतः	-10.5286
स्य	-10.5289
▁changing	-10.5291
▁understanding	-10.5291
▁एकदम	-10.5292
▁रहस्य	-10.5292
▁स्टेशन	-10.5293
▁highly	-10.5295
हरी	-10.5295
हम	-10.5299
▁जैन	-10.5309
रह	-10.5311
otic	-10.5312
▁examination	-10.5316
▁अतिरिक़्त	-10.5316
▁listen	-10.5317
क्ल	-10.5318
▁safety	-10.5318
▁निहित	-10.5322
ld	-10.5322
▁चलाने	-10.5323
▁pair	-10.5324
पिता	-10.5324
▁संवाद	-10.5335
बोध	-10.5337
▁गुजर	-10.5342
▁label	-10.5343
▁शहरों	-10.5344
▁फैसल	-10.5344
▁बटन	-10.5346
▁मुकदमे	-10.5346
▁सिर्फ़	-10.5349
fy	-10.5359
▁ग्राम	-10.5362
▁रै	-10.5366
▁welcome	-10.5366
cor	-10.5369
▁बनाते	-10.5369
▁normally	-10.537
▁measures	-10.5374
▁mus	-10.5374
▁learned	-10.5375
▁sim	-10.5378
▁matches	-10.5379
जाल	-10.5382
▁offered	-10.5383
▁metal	-10.5384
script	-10.5387
▁decisions	-10.5387
▁prices	-10.5389
▁imagine	-10.5392
▁legislature	-10.5392
▁plain	-10.5392
▁समीक्षा	-10.5392
▁buddha	-10.5392
▁खून	-10.5395
▁ganges	-10.5395
▁दशा	-10.5396
▁भगत	-10.5397
▁नेताजी	-10.5397
▁distribution	-10.5398
▁चर	-10.5398
▁जायेगी	-10.5399
▁ओवर	-10.5402
देन	-10.5402
port	-10.5405
60	-10.5407
ांतर	-10.541
बिल	-10.5416
▁मधुमेह	-10.5417
▁favour	-10.5418
▁removed	-10.542
▁प्रवृत्ति	-10.5421
▁प्रायः	-10.5423
▁moved	-10.5424
▁करवा	-10.5425
▁शीत	-10.5425
रन	-10.5425
▁अँ	-10.5427
▁अगल	-10.5429
▁royal	-10.543
▁yes	-10.5432
▁इस्लामवादी	-10.5433
▁निवास	-10.5434
▁enemy	-10.5442
▁कलकत्ता	-10.5442
▁दूसरों	-10.5442
▁profile	-10.5443
ब्ब	-10.5445
▁objective	-10.5446
▁rivers	-10.5449
▁selection	-10.5452
▁पूछा	-10.5452
पंथ	-10.5456
▁prove	-10.5458
▁महिलाओं	-10.5465
▁bills	-10.5466
▁currency	-10.5468
▁desktop	-10.5468
▁technique	-10.5468
▁nuclear	-10.5468
▁विद्यालय	-10.5468
▁बेच	-10.5468
▁संग्रहालय	-10.5468
▁पुष्टि	-10.5469
▁char	-10.5471
▁कहता	-10.5474
▁crore	-10.5476
▁जानने	-10.5479
▁insect	-10.5479
ami	-10.5481
▁पति	-10.5482
▁applications	-10.5484
▁गर्मी	-10.5484
▁covered	-10.549
▁हाइ	-10.5491
▁closed	-10.5491
▁km	-10.5492
▁भेड़	-10.5494
प्रति	-10.5498
▁regime	-10.5502
वह	-10.5507
▁अद	-10.5508
▁उन्होने	-10.5509
०००	-10.5511
hin	-10.5513
wn	-10.5514
▁प्राथमिकता	-10.5516
लंब	-10.5517
▁आकर्षित	-10.5519
▁संत	-10.5521
▁infection	-10.5521
▁helped	-10.5522
▁sit	-10.5525
बाद	-10.5526
▁निदेशक	-10.553
▁तकनीकी	-10.5531
▁gate	-10.5539
▁features	-10.5541
▁philosophy	-10.5545
▁विद्यमान	-10.5545
▁saving	-10.5545
▁crisis	-10.5545
रोग	-10.5545
▁तुम्हारे	-10.5545
माल	-10.5548
▁factors	-10.5549
जात	-10.5552
▁इलाक	-10.5553
▁hearing	-10.5554
atory	-10.5554
▁त्रुटिः	-10.5557
▁एफ	-10.5557
▁id	-10.5557
ऑ	-10.556
ement	-10.556
▁लेन	-10.5568
▁खतरे	-10.557
▁डॉक्टर	-10.557
▁श्लोक	-10.557
▁fresh	-10.5571
▁spiritual	-10.5571
ांकन	-10.5573
योजन	-10.5576
▁benefits	-10.5576
भाषा	-10.5578
▁गण	-10.5584
▁poem	-10.5584
सिंह	-10.5588
ved	-10.5589
▁छोड़कर	-10.5591
हल	-10.5594
▁उपभोक्ता	-10.5596
▁mahatma	-10.5596
▁senior	-10.5596
▁ray	-10.5596
▁roof	-10.5597
▁गणित	-10.5603
र्ध	-10.5607
▁रुक	-10.5611
▁80	-10.5612
▁बिंदु	-10.5614
▁दोस्त	-10.5616
▁ज़ि	-10.5616
▁देखे	-10.5617
▁बट	-10.562
nar	-10.562
क्का	-10.5622
▁interests	-10.5624
▁९	-10.5624
▁vital	-10.5627
▁नाग	-10.5627
▁represent	-10.5628
▁नंबर	-10.5629
▁roll	-10.5637
▁एंड	-10.5638
▁बांध	-10.5638
▁gui	-10.5639
▁punjab	-10.5639
▁arabic	-10.5641
▁cri	-10.5642
▁clearly	-10.5645
num	-10.5645
▁released	-10.5646
▁options	-10.5647
▁jurisdiction	-10.5648
▁दायित्व	-10.5648
▁लोकसभा	-10.5648
▁डाक्टर	-10.5649
▁दाम	-10.5651
▁मोटर	-10.5651
▁devi	-10.5656
▁gene	-10.5659
▁१९९	-10.5659
▁relative	-10.566
▁सजा	-10.5662
stro	-10.5665
▁अरबी	-10.5666
▁vis	-10.5668
▁mailing	-10.5668
ky	-10.5673
▁अंतरिक्ष	-10.5674
▁विभाजित	-10.5674
▁beauty	-10.5674
▁chapter	-10.5674
▁बाज़ार	-10.5674
▁elements	-10.5679
▁नज़र	-10.5683
▁यथा	-10.5684
▁मुह	-10.5685
▁affairs	-10.5688
रेख	-10.5693
pal	-10.5695
▁fu	-10.5695
▁families	-10.57
▁relief	-10.57
मै	-10.5701
▁मार्क	-10.5709
▁walls	-10.5712
▁डो	-10.5718
▁inner	-10.5719
धर्म	-10.5724
▁पृष्ठभूमि	-10.5727
रेशन	-10.5732
▁career	-10.5733
▁announced	-10.5734
झा	-10.5735
▁floor	-10.5735
▁gha	-10.574
▁आन	-10.5744
▁wonder	-10.5745
▁विशेषकर	-10.5746
▁ratio	-10.5748
form	-10.575
चु	-10.575
▁ग्रन्थ	-10.5752
▁सिफारिश	-10.5752
▁treated	-10.5753
▁2005	-10.5754
▁मिस्र	-10.5756
▁coin	-10.5765
▁पंख	-10.5769
▁धारणा	-10.5772
▁महीनों	-10.5773
गाह	-10.5777
▁प्रविष्टि	-10.5777
टल	-10.5778
▁administrative	-10.5778
▁library	-10.5778
▁नृत्य	-10.5778
▁mosque	-10.5778
▁saudi	-10.5779
▁देखकर	-10.5779
▁जानता	-10.578
ांश	-10.5781
▁जीवों	-10.5782
निष्ठ	-10.5787
▁gland	-10.5788
▁letters	-10.5795
कभी	-10.5796
▁gi	-10.58
▁muhammad	-10.5805
▁सम्मेलन	-10.5805
▁evil	-10.5805
▁vedic	-10.5809
षा	-10.5813
▁unless	-10.5815
▁छोड	-10.5817
▁quick	-10.5817
▁खुला	-10.5823
स्थल	-10.5824
▁शक	-10.5826
जु	-10.5831
▁इसलिये	-10.5831
▁संभाल	-10.5831
▁terminal	-10.5832
▁गतिविधियों	-10.5833
▁neuro	-10.5833
▁methods	-10.584
▁बढ़ती	-10.5846
▁छात्र	-10.5846
▁दम	-10.5853
9	-10.5855
▁processing	-10.5856
▁biggest	-10.5857
▁washington	-10.5858
▁leaflet	-10.5858
▁gift	-10.5858
▁जाएँ	-10.5864
kin	-10.5866
▁पौधों	-10.5868
▁हिम	-10.5868
▁audit	-10.5874
▁हॉ	-10.5876
▁सितंबर	-10.5884
▁muscle	-10.5884
▁(1	-10.5891
▁forwarded	-10.5895
rk	-10.5896
ancy	-10.5902
▁raw	-10.5906
▁opened	-10.5906
ोत्	-10.591
▁burn	-10.591
▁चेहरे	-10.5911
▁मालूम	-10.5911
▁परमाणु	-10.5911
▁mistake	-10.5911
▁मूल्यांकन	-10.5912
▁साक्ष्य	-10.5913
▁दिखाने	-10.5919
▁refer	-10.5919
▁cloud	-10.5926
मू	-10.5932
▁fla	-10.5933
▁क्षण	-10.5936
▁बंबई	-10.5937
▁पत्रिका	-10.5939
▁बयान	-10.5942
▁क्षेत्रीय	-10.5949
▁आरंभिक	-10.5953
▁समाप्ति	-10.5954
▁भरी	-10.5961
▁hero	-10.5962
▁</>	-10.5964
▁फीसदी	-10.5964
▁warming	-10.5964
▁अफगानिस्तान	-10.5964
▁घुटन	-10.5965
▁weak	-10.5966
▁तहत	-10.5974
▁ग्रह	-10.5977
▁documents	-10.598
▁जनरल	-10.5982
▁camel	-10.5989
▁contribution	-10.5991
▁फरवरी	-10.5991
▁vast	-10.5995
▁१०	-10.5996
▁introduced	-10.5997
क्रिया	-10.6009
▁healthy	-10.6011
▁प्रबंध	-10.6013
net	-10.6013
▁सालों	-10.6014
▁governments	-10.6018
▁मुताबिक	-10.6018
▁श्रेष्ठ	-10.6018
▁प्रवाह	-10.6019
▁koran	-10.6021
nder	-10.6024
▁poll	-10.6024
▁मानी	-10.6025
▁anyone	-10.603
mark	-10.6038
फ्र	-10.6043
▁फ्रांस	-10.6043
▁अकेले	-10.6045
▁लंदन	-10.6045
फो	-10.6045
दाद	-10.6046
▁प्रजनन	-10.6047
▁ढो	-10.6049
▁lady	-10.6049
▁consideration	-10.6052
▁ii	-10.6053
▁न्यायालयों	-10.6056
▁attain	-10.6058
▁quickly	-10.6059
▁bur	-10.6064
▁1,	-10.6069
▁egypt	-10.607
▁van	-10.6071
▁शिल्प	-10.6072
▁formation	-10.6082
▁mah	-10.6083
▁laid	-10.6084
▁कड़	-10.6084
ैश	-10.6085
रक्षण	-10.609
▁guru	-10.6092
▁बड़	-10.6093
दूसरे	-10.6095
आइ	-10.6095
▁कारक	-10.6098
▁television	-10.6099
▁अज्ञात	-10.6099
▁असाधारण	-10.6099
▁partition	-10.6099
▁weather	-10.6099
▁वैश्विक	-10.6099
▁राजकुमार	-10.6099
▁उद्यान	-10.6099
▁decade	-10.61
▁श्रमिक	-10.6104
uch	-10.6104
ण्ट	-10.6112
yl	-10.6116
▁examples	-10.6117
▁lie	-10.6117
पाद	-10.6123
▁तत्वों	-10.6124
▁सामूहिक	-10.6126
▁liberal	-10.6126
▁देह	-10.6126
▁महात्मा	-10.6126
▁raja	-10.613
▁principles	-10.6131
▁१२	-10.6131
▁वाहन	-10.6132
▁अनुदान	-10.6132
ban	-10.6133
▁hide	-10.6134
▁विन्यास	-10.6135
▁scar	-10.614
comp	-10.614
▁editor	-10.614
्यता	-10.6144
▁standards	-10.6147
▁नकल	-10.6153
▁despite	-10.6153
▁छुट्टी	-10.6153
▁sculpture	-10.6153
▁stick	-10.6154
▁क्रांतिकारी	-10.6155
▁संदेह	-10.6156
▁स्वर्ण	-10.6156
▁सीधा	-10.6159
ज्जा	-10.616
वृत्त	-10.6161
▁jain	-10.6169
▁पट्टी	-10.6169
▁गईं	-10.6171
▁लेखन	-10.6172
▁उपकरणों	-10.6174
▁critic	-10.6176
▁establish	-10.6176
विधि	-10.618
▁competition	-10.618
▁positive	-10.618
▁निश्चय	-10.618
्टी	-10.6182
▁टॉ	-10.6184
षऋ	-10.6185
▁वरन	-10.6187
▁professional	-10.6187
▁प्राधिकार	-10.6188
gin	-10.619
▁disabled	-10.6198
bro	-10.6202
64	-10.6202
▁समझते	-10.6204
▁operations	-10.6206
जित	-10.6206
भूत	-10.6208
▁neither	-10.6208
▁emperor	-10.6208
▁context	-10.6208
▁प्रतिदिन	-10.6211
▁दर्शक	-10.6212
▁28	-10.6214
▁looks	-10.6217
ेस्ट	-10.6218
▁describe	-10.6219
ily	-10.6221
▁रहेगा	-10.6226
nation	-10.623
▁iranian	-10.6238
room	-10.6239
▁require	-10.6239
▁बिहार	-10.624
▁pr	-10.624
▁खबर	-10.6243
▁आयोजन	-10.6244
▁प्रत्या	-10.6245
▁whi	-10.625
बाजी	-10.6251
लैण्ड	-10.6252
▁कीटों	-10.6253
कर्ताओं	-10.6262
▁अमरीका	-10.6263
▁पर्यटन	-10.6263
▁गै	-10.6265
▁improvement	-10.6266
▁बाधा	-10.6268
85	-10.6272
▁reli	-10.6272
▁बडा	-10.6275
▁ग्ल	-10.6275
▁उन्	-10.6277
▁वर्क	-10.6284
▁properly	-10.6285
▁principle	-10.6285
▁!	-10.6288
▁श्रम	-10.6288
▁इत्यादि	-10.6291
▁मुकाबले	-10.6291
ावधि	-10.6292
▁अंतराल	-10.6294
▁स्वच्छ	-10.6294
▁पुराना	-10.6299
▁टैब	-10.6303
़ा	-10.6305
ksha	-10.6306
▁dust	-10.6306
▁स्टार	-10.6307
▁remained	-10.6308
▁कमांड	-10.6309
▁चली	-10.6312
▁कहने	-10.6315
▁pictures	-10.6315
▁fer	-10.6317
▁monitor	-10.6318
▁व्यावसायिक	-10.6318
▁स्वाभाविक	-10.6318
▁soviet	-10.6318
▁परस्पर	-10.6318
ीज	-10.6325
▁कस	-10.6327
्ति	-10.6328
▁engineering	-10.6335
▁नियुक्ति	-10.6338
▁अंग्रेजों	-10.6339
▁mono	-10.634
▁row	-10.6342
▁danger	-10.6344
श्य	-10.6345
▁specified	-10.6346
▁जीवाणु	-10.6347
▁चुना	-10.6349
urg	-10.6352
ष्ण	-10.6352
▁प्रभार	-10.6353
▁bhagat	-10.6353
▁सहयोगी	-10.6357
▁चेक	-10.636
▁पुष्प	-10.636
ography	-10.6362
पू	-10.6363
डऋ	-10.6366
▁दिवस	-10.6368
▁पह	-10.6373
▁गतिविधि	-10.6373
▁launch	-10.6373
▁behaviour	-10.6374
▁रणनीति	-10.6374
▁valley	-10.6374
▁शिश्न	-10.6374
▁संचिका	-10.6374
▁संलग्न	-10.6375
▁edge	-10.6376
सल्ल	-10.6384
▁individuals	-10.6389
▁27	-10.6389
▁bow	-10.6389
▁घटनाओं	-10.639
▁पार्श्व	-10.6393
▁बुद्धि	-10.6393
▁बौद्ध	-10.6397
▁उतना	-10.6401
▁शांत	-10.6401
▁हिसाब	-10.6402
▁पीढ़ी	-10.6402
▁protest	-10.6402
▁turkey	-10.6402
▁संचालन	-10.6403
▁characteristic	-10.6403
जैसे	-10.6403
▁warm	-10.6403
nga	-10.6405
▁बचत	-10.6406
▁महादेवी	-10.6411
▁reduced	-10.6412
▁संस्थाओं	-10.6413
▁रहें	-10.6415
त्रिक	-10.6421
▁उत्साह	-10.6421
▁जायें	-10.6424
▁student	-10.6427
▁bell	-10.6427
▁cycle	-10.643
▁गिरफ्तार	-10.643
▁प्रावधान	-10.643
▁कंपनियों	-10.643
▁माइक्रो	-10.643
▁regions	-10.6431
िला	-10.6432
▁आवाज़	-10.6437
▁motor	-10.6441
▁केन्द्रीय	-10.6446
▁ज्ह	-10.6449
चना	-10.6452
वारी	-10.6453
▁पांव	-10.6458
▁operating	-10.6458
▁interface	-10.6458
▁महाराष्ट्र	-10.6458
hari	-10.646
▁200	-10.646
▁देवता	-10.6462
▁flower	-10.6464
▁mention	-10.6465
▁youth	-10.6466
▁राज्यपाल	-10.6467
▁sources	-10.6467
▁talking	-10.647
▁दंत	-10.6471
▁bowler	-10.6471
▁tele	-10.6474
dr	-10.6474
्टे	-10.6479
ाबाद	-10.6482
▁कराया	-10.6484
▁disorder	-10.6486
▁कार्यपालिका	-10.6486
र्श	-10.6487
▁सैन्य	-10.6487
▁strange	-10.6488
▁appointment	-10.6488
▁peak	-10.6494
▁cloth	-10.6497
▁sister	-10.6497
ारा	-10.6497
hr	-10.6499
▁permanent	-10.6501
▁bh	-10.6503
▁भेद	-10.6508
▁reported	-10.6512
▁escape	-10.6515
▁kinds	-10.6515
▁2001	-10.6516
▁मूलभूत	-10.6516
▁भय	-10.652
▁पर्व	-10.6522
▁mat	-10.6526
ाधीन	-10.6528
▁निर	-10.6532
▁घन	-10.6532
▁झु	-10.6535
▁एकल	-10.6537
▁बताना	-10.6537
44	-10.6538
▁पूर्ति	-10.654
▁भरा	-10.6542
▁देखी	-10.6543
▁atmosphere	-10.6543
place	-10.6543
ंजन	-10.6545
क्टर	-10.6545
▁genus	-10.6546
▁ruling	-10.6546
▁videos	-10.6547
वत्	-10.6552
▁कमर	-10.6552
▁attached	-10.6554
द्वार	-10.6556
▁religions	-10.6556
▁treat	-10.6558
▁संघीय	-10.6566
▁consult	-10.6567
▁आजाद	-10.6568
▁लगते	-10.6568
▁ji	-10.6569
▁siva	-10.6569
▁banking	-10.657
stone	-10.6572
▁flight	-10.6573
34	-10.6578
▁bridge	-10.6586
▁हमे	-10.6591
▁fellow	-10.66
▁severe	-10.6601
▁जोड़ें	-10.6602
▁france	-10.6605
▁complain	-10.661
▁meant	-10.6611
▁बजा	-10.6617
▁भूख	-10.6618
▁painting	-10.6625
कत	-10.6625
▁आश्चर्य	-10.6628
▁अर्जुन	-10.6628
▁vedas	-10.6629
shed	-10.6629
▁gandhiji	-10.663
▁priority	-10.6631
▁lived	-10.6632
▁टीवी	-10.6633
▁दरबार	-10.6633
▁गाड़ी	-10.6635
embl	-10.6637
▁dress	-10.6637
कू	-10.6639
▁वचन	-10.664
▁पोस्ट	-10.6647
▁palm	-10.6647
खाना	-10.6647
▁holding	-10.6648
▁अह	-10.6652
law	-10.6653
रिस	-10.6653
▁फैसला	-10.6654
बान	-10.6656
▁badruddin	-10.6657
▁impossible	-10.6657
▁respond	-10.6657
▁उपयोक्ता	-10.6657
▁परिणामस्वरूप	-10.6657
▁bjp	-10.6657
▁nerve	-10.6657
▁अवयव	-10.6657
▁brief	-10.6657
▁छाप	-10.6658
▁improve	-10.6663
▁layer	-10.6665
▁उधार	-10.6669
रेट	-10.6669
▁पुल	-10.6671
▁actual	-10.6674
▁भग	-10.6679
▁calls	-10.668
िकी	-10.6681
▁bc	-10.6682
▁तारा	-10.6685
▁ड्राइव	-10.6686
▁हाउस	-10.6686
▁गल	-10.6687
oon	-10.6688
▁पिछली	-10.6689
▁जायेंगे	-10.6694
▁scientists	-10.6696
▁tooth	-10.6699
▁buildings	-10.6701
▁व्या	-10.6707
▁indicate	-10.6714
षित	-10.6714
▁पौधे	-10.6714
▁materials	-10.6714
▁japanese	-10.6715
▁बढे	-10.6716
had	-10.6717
▁स्वर्ग	-10.6718
▁भेजने	-10.672
▁आर्य	-10.672
▁उठाने	-10.6723
▁विनाश	-10.6727
12	-10.6728
▁सूख	-10.673
▁sir	-10.6734
▁माँग	-10.6737
▁showed	-10.6737
▁beat	-10.6738
voc	-10.6738
ूद	-10.6741
▁समन्वय	-10.6743
▁sight	-10.6744
▁बिलकुल	-10.6745
▁otherwise	-10.6746
▁फ़ोन	-10.6746
▁सर्	-10.6747
▁insert	-10.6747
▁regional	-10.6755
▁trip	-10.6755
ndi	-10.6758
▁दर्शाता	-10.6759
तान	-10.6761
कै	-10.6769
▁serve	-10.6769
▁bihar	-10.6771
▁formal	-10.6772
▁insurance	-10.6772
▁डेस्कटॉप	-10.6772
▁प्रतीक्षा	-10.6772
▁illegal	-10.6772
▁मिट्टी	-10.6772
▁promote	-10.6772
▁पिछ	-10.6773
▁gather	-10.6774
▁render	-10.6778
▁घाट	-10.678
पथ	-10.6791
▁शर्त	-10.6792
▁ग्रे	-10.6795
▁suffering	-10.6795
▁उड़ान	-10.6796
▁दू	-10.6797
ीला	-10.6797
▁प्रबंधक	-10.6798
मंद	-10.6798
▁प्रतिबंध	-10.6799
▁agreed	-10.6801
▁jewish	-10.6801
▁संवैधानिक	-10.6801
▁सुबह	-10.6801
रानी	-10.6802
▁drink	-10.6803
▁परिवेश	-10.6803
▁रॉ	-10.6805
▁spend	-10.6805
्द	-10.6808
▁एन्	-10.681
▁quarter	-10.6813
▁lesson	-10.6817
iz	-10.6818
▁developing	-10.6821
▁योग्यता	-10.6821
lent	-10.6823
क्षेप	-10.6824
ase	-10.6825
▁teaching	-10.6827
▁arms	-10.6828
▁liquid	-10.683
▁सम्राट	-10.683
▁चिन्ह	-10.683
▁उत्कृष्ट	-10.6831
▁विष	-10.6831
▁कन्	-10.6832
▁दास	-10.6833
है	-10.6838
▁लोगो	-10.6839
बन	-10.684
▁hind	-10.6842
गड़	-10.6843
▁सोचते	-10.6852
▁ष	-10.6853
▁alternative	-10.686
▁cotton	-10.686
▁cancel	-10.6861
▁establishment	-10.6863
▁revolutionary	-10.6863
▁fever	-10.6865
▁अवरोध	-10.6868
▁none	-10.6871
▁roman	-10.6872
▁बडी	-10.6875
▁cool	-10.6876
▁currently	-10.6877
▁jam	-10.6887
▁१६	-10.6888
▁इंडियन	-10.6889
▁filter	-10.6889
▁थोड़ी	-10.6889
▁urban	-10.6889
▁adapt	-10.6889
▁discharge	-10.689
▁automatically	-10.689
▁coast	-10.689
▁emission	-10.689
▁कड़ी	-10.6892
▁कारणों	-10.6896
▁उद	-10.6897
▁hang	-10.6898
▁bang	-10.6898
▁bag	-10.6902
▁जिनकी	-10.6903
gn	-10.6903
गामी	-10.6903
रान	-10.6905
▁absolute	-10.6905
▁differences	-10.6905
▁बचाव	-10.6905
▁गीता	-10.6908
eb	-10.6911
ंजर	-10.6912
▁classes	-10.6915
▁crores	-10.6915
▁apple	-10.6915
▁calendar	-10.6918
▁कृत्रिम	-10.6918
▁टेलीफोन	-10.6918
▁वाजपेयी	-10.6918
ाइम	-10.6918
▁glass	-10.6919
▁परे	-10.6919
बाल	-10.692
▁feature	-10.6922
east	-10.6923
▁फंच	-10.6924
80	-10.6928
put	-10.6936
ाली	-10.6936
▁route	-10.6944
साद	-10.6945
▁पाये	-10.6948
▁prompt	-10.6948
▁repost	-10.6948
यंत्र	-10.695
▁ramayana	-10.6953
▁advanced	-10.6955
▁expenses	-10.6959
▁सदा	-10.6969
▁mac	-10.697
ेंद्र	-10.6977
▁dictionary	-10.6978
रक्षक	-10.6978
▁farm	-10.6978
▁assets	-10.6978
भारत	-10.6983
ita	-10.6986
▁disable	-10.6989
▁suddenly	-10.699
▁mountains	-10.6994
▁depends	-10.7005
▁netaji	-10.7007
▁summer	-10.7008
स्थापित	-10.7008
▁sitting	-10.7009
▁hundred	-10.7012
▁terror	-10.7013
▁pages	-10.7015
▁आर्	-10.7015
▁indo	-10.7017
stra	-10.7019
इयों	-10.702
▁greatest	-10.7022
▁songs	-10.7034
▁rub	-10.7035
▁कल्याण	-10.7037
▁बदरूद्दीन	-10.7037
▁खोलने	-10.7037
▁हरि	-10.7038
▁draft	-10.7038
▁कॉलेज	-10.7038
▁पढ़ा	-10.704
▁hunt	-10.7041
▁critical	-10.7041
▁rates	-10.7043
▁exception	-10.7044
▁सहमति	-10.7045
▁बिता	-10.7047
▁brahman	-10.7053
this	-10.7054
ole	-10.7057
क्ति	-10.7058
▁fee	-10.7062
▁configuration	-10.7067
▁emergency	-10.7067
▁maybe	-10.7071
arian	-10.7071
▁fail	-10.7076
▁shot	-10.7077
▁माने	-10.7079
स्ता	-10.708
ons	-10.7082
▁handle	-10.7084
▁बुला	-10.7087
▁levels	-10.7096
▁vac	-10.7097
▁federal	-10.7097
▁रेगिस्तान	-10.7097
▁वार्मिंग	-10.7097
▁intellectual	-10.7097
▁स्वचालित	-10.7097
▁मध्यम	-10.7099
▁ऊपरी	-10.7101
▁ip	-10.7102
ाशय	-10.7106
बै	-10.711
ेम	-10.7112
▁छु	-10.7114
run	-10.7123
जिन	-10.7124
nan	-10.7126
▁proceed	-10.7126
▁mahadevi	-10.7127
▁sacrifice	-10.7127
▁pleasure	-10.7127
▁wealth	-10.7128
ूं	-10.713
▁conc	-10.7131
▁waiting	-10.7133
▁2003	-10.7136
▁alter	-10.7139
ku	-10.714
▁प्रशासनिक	-10.714
nate	-10.7144
▁मंडल	-10.7144
▁characters	-10.7147
्टन	-10.7149
▁cd	-10.7152
bin	-10.7156
▁औपचारिक	-10.7157
▁jan	-10.7157
▁नेशनल	-10.7157
जिस	-10.7158
्को	-10.7158
▁arrest	-10.7159
ावली	-10.7164
▁सामान्यतः	-10.7164
lish	-10.7165
▁rose	-10.7166
duct	-10.7168
्दी	-10.7171
िट्	-10.7172
दुर	-10.7181
▁आतंक	-10.7184
▁भारतीयों	-10.7186
▁prefer	-10.7187
▁principal	-10.7187
▁virtual	-10.7187
▁तरीकों	-10.7187
garh	-10.7188
▁duties	-10.7188
तन्त्र	-10.7188
▁तीसरे	-10.7188
▁club	-10.7188
kara	-10.719
▁गि	-10.7191
ट्रा	-10.7196
▁estimate	-10.7198
▁jai	-10.7203
▁प्रिय	-10.7206
pha	-10.7212
▁seat	-10.7213
▁mill	-10.7216
▁attitude	-10.7217
▁ढूंढ	-10.7217
▁maharashtra	-10.7218
शियन	-10.7218
▁predict	-10.7218
15	-10.7219
▁भंडारण	-10.7222
▁mile	-10.7222
▁प्रयोजन	-10.7222
▁smaller	-10.7223
▁joined	-10.7227
▁za	-10.7229
30	-10.7229
▁अपमान	-10.723
▁images	-10.723
▁बुरी	-10.723
▁31	-10.7236
▁हथियार	-10.7238
▁spin	-10.7239
uda	-10.724
हाल	-10.724
▁plans	-10.7244
▁occasion	-10.7247
▁landlord	-10.7248
▁टिप्पणी	-10.7248
▁प्रोत्साहन	-10.7248
▁चरित्र	-10.7248
▁चीजों	-10.7248
▁धो	-10.7252
right	-10.7255
▁मार्	-10.7256
▁merely	-10.7258
▁catch	-10.7259
▁कर्ज	-10.7259
▁meter	-10.726
▁90	-10.726
▁pillars	-10.7269
▁cry	-10.7269
▁mur	-10.7273
ट्टा	-10.7273
▁समुद्री	-10.7274
▁मिलाकर	-10.7275
▁finding	-10.7277
pass	-10.7278
▁professor	-10.7278
▁पैमाने	-10.7278
▁मौका	-10.7278
▁couldn	-10.7278
▁becoming	-10.7278
दर्शी	-10.7281
योजक	-10.7282
▁हाथी	-10.7283
gram	-10.7284
▁fell	-10.7286
▁स्वा	-10.7286
▁confidence	-10.7287
▁पदार्थों	-10.7289
▁प्रश्नों	-10.7289
▁encourage	-10.729
▁सकेगा	-10.729
▁performed	-10.7291
▁टेस्ट	-10.7291
▁lip	-10.7293
राशि	-10.7293
▁shut	-10.7294
▁genes	-10.7295
▁actions	-10.7297
top	-10.7298
bat	-10.7298
tom	-10.7298
▁psych	-10.7309
▁मरम्मत	-10.7309
अल	-10.7309
▁खुशी	-10.7309
▁grew	-10.7309
राग	-10.731
▁dia	-10.7311
▁fly	-10.7319
▁eggs	-10.732
▁संधि	-10.7321
▁memo	-10.7323
▁joy	-10.7332
▁अपनाया	-10.7333
िमा	-10.7334
▁ice	-10.7339
▁guard	-10.7339
▁attribute	-10.734
▁temporary	-10.734
▁भाजपा	-10.734
▁prophet	-10.734
▁rupee	-10.734
हँसी	-10.734
▁mahabharat	-10.734
▁preference	-10.7341
▁भत	-10.7342
▁तीसरा	-10.7342
▁गहरी	-10.7343
pped	-10.7344
aya	-10.7353
lon	-10.7362
▁सरकारों	-10.7362
▁solve	-10.7363
▁बुल	-10.7363
▁परेशान	-10.7366
वादियों	-10.7366
▁sheet	-10.7368
▁tend	-10.7369
▁regarding	-10.7369
▁entrance	-10.737
▁vajpayee	-10.737
▁fault	-10.7371
▁client	-10.7371
▁proposed	-10.7377
▁players	-10.7377
del	-10.7377
▁मारे	-10.7377
<	-10.7378
▁वक़्त	-10.7379
▁achieve	-10.7379
▁bose	-10.7383
पक्ष	-10.7384
▁relation	-10.7388
▁दुर्	-10.7389
▁showing	-10.739
बंदी	-10.739
▁जानना	-10.7391
▁sho	-10.7393
▁german	-10.7394
▁bright	-10.7394
▁functions	-10.7394
▁domain	-10.7395
▁नागरिकों	-10.7395
▁compensation	-10.7401
▁journey	-10.7401
▁creating	-10.7404
▁tip	-10.7407
▁गे	-10.7408
▁zone	-10.7408
▁song	-10.7412
ट्रो	-10.7419
▁tar	-10.742
▁leaves	-10.742
हीनता	-10.7421
▁अन्तर्	-10.7423
list	-10.7428
▁harm	-10.7431
▁bottom	-10.7432
▁incident	-10.7432
▁conclusion	-10.7432
▁29	-10.7436
▁machinery	-10.7437
▁मादा	-10.7442
▁रज	-10.7445
शीलता	-10.7446
कट	-10.7454
▁भरे	-10.7454
lia	-10.7459
▁जिसमे	-10.7463
▁देवनागरी	-10.7463
▁pig	-10.7463
▁persian	-10.7463
गुण	-10.7464
▁तारीख	-10.7465
▁स्टे	-10.7467
▁फार्म	-10.747
ित्र	-10.7472
▁guy	-10.7483
▁प्रजा	-10.7483
▁islamists	-10.7493
ानी	-10.7494
▁heaven	-10.7494
▁appearance	-10.7497
▁कम्प	-10.7497
▁chair	-10.7497
▁fighting	-10.75
▁विषयों	-10.7504
▁देय	-10.7506
▁bug	-10.7511
▁den	-10.7516
▁पश्च	-10.7517
गृह	-10.7519
ूंगा	-10.752
cho	-10.7522
▁substance	-10.7526
▁नमूना	-10.7526
▁प्रार्थना	-10.7526
थी	-10.7527
▁loose	-10.7528
▁निकाला	-10.7529
▁broken	-10.753
▁ability	-10.7531
▁lamp	-10.7532
▁warning	-10.7533
ड़ै	-10.7534
india	-10.7536
▁tag	-10.754
िच	-10.7543
air	-10.7545
▁graph	-10.7548
▁teach	-10.7553
▁चाय	-10.7554
प्रणाल	-10.7554
▁फिल्मों	-10.7556
▁unicode	-10.7557
▁निरीक्षण	-10.7557
▁लॉग	-10.7557
▁सम्पर्क	-10.7557
▁urdu	-10.7557
▁बनाकर	-10.7558
▁परिचय	-10.7558
▁ज़रुरत	-10.756
▁obtain	-10.7561
▁अर्जी	-10.7562
▁delivery	-10.7565
धू	-10.7566
▁unlike	-10.7566
fully	-10.7567
यम	-10.757
▁secondary	-10.757
क्शन	-10.7574
ट्रि	-10.7576
uous	-10.7576
▁आंक	-10.7577
lock	-10.758
▁छाया	-10.7582
ida	-10.7584
▁पहुँचा	-10.7585
▁compassion	-10.7588
▁advocate	-10.7588
▁applied	-10.7588
▁ढल	-10.7589
▁अन्तर्गत	-10.7591
ायिक	-10.7592
वाड़	-10.7592
▁घरों	-10.7595
cast	-10.7597
je	-10.7598
▁fin	-10.7598
hand	-10.7602
▁वसा	-10.7605
▁provisions	-10.7607
▁railways	-10.7609
avi	-10.7611
गमन	-10.7613
▁facility	-10.762
▁identity	-10.762
▁समर्पित	-10.762
▁ऊंट	-10.762
▁उत्तरदायी	-10.7621
▁ठोस	-10.7622
▁bay	-10.7622
▁chat	-10.7624
▁जज	-10.7625
▁पाना	-10.7626
▁killing	-10.7626
▁चीजें	-10.7627
▁समानता	-10.7628
fulness	-10.7637
back	-10.7638
▁भेजे	-10.764
▁consists	-10.7642
▁32	-10.7643
कारों	-10.7645
▁चक	-10.7651
▁शेख	-10.7651
▁database	-10.7652
▁devotion	-10.7652
▁अमिताभ	-10.7652
▁दिलचस्प	-10.7652
▁तीर्थ	-10.7653
▁rough	-10.7653
गति	-10.7655
▁राजस्व	-10.7656
▁प्रसाद	-10.7656
ढ़ा	-10.7659
▁interested	-10.7664
▁दर्शा	-10.7669
▁speaking	-10.7671
▁attacks	-10.7674
▁manage	-10.7678
mir	-10.7679
▁prior	-10.768
lv	-10.7681
▁विस्फोट	-10.7683
▁electronic	-10.7683
▁बदलें	-10.7684
▁prasad	-10.7686
▁fields	-10.7686
▁अनुरोध	-10.7693
kal	-10.7695
▁seemed	-10.7698
▁अण्ड	-10.77
nam	-10.7704
mus	-10.7708
▁mala	-10.771
▁poison	-10.7715
▁wikipedia	-10.7715
▁कोलकाता	-10.7715
▁temp	-10.7715
▁brahmin	-10.7717
▁blow	-10.7718
▁trend	-10.7718
▁पड़ती	-10.7726
▁babu	-10.773
▁sita	-10.7743
▁बीस	-10.7744
▁expansion	-10.7747
▁जिंदगी	-10.7747
▁निरूपित	-10.7747
▁अवधारणा	-10.7747
▁honor	-10.7747
▁अग्नि	-10.7747
▁proceedings	-10.7748
▁अध्याय	-10.7748
▁काफ़ी	-10.7749
▁गद्य	-10.7752
▁golden	-10.7753
▁कृत्य	-10.7754
▁filled	-10.7754
dor	-10.7756
प्स	-10.7758
▁ऑफ़	-10.7758
film	-10.7758
▁digital	-10.7759
▁commonly	-10.7764
▁bio	-10.7771
▁विद्वान	-10.7772
▁ऋषि	-10.7777
▁communal	-10.7779
▁पैकेज	-10.7779
▁विचारधारा	-10.7781
▁शादी	-10.7784
▁requires	-10.7785
▁tools	-10.7785
▁epic	-10.7786
▁सिम	-10.7786
▁कही	-10.7787
▁संबद्ध	-10.7789
▁miss	-10.7792
spe	-10.7799
▁camera	-10.78
▁helps	-10.7801
टू	-10.7803
वेश	-10.7804
▁gods	-10.781
▁chromosome	-10.7811
▁universal	-10.7811
▁साँचाः	-10.7811
▁tons	-10.7812
▁cheque	-10.7813
▁बोली	-10.7815
▁expressed	-10.7817
▁आलेख	-10.7818
▁pack	-10.7818
उस	-10.7819
aran	-10.7821
▁bhag	-10.7824
▁sac	-10.7825
बोर्ड	-10.7835
क्की	-10.7837
▁phil	-10.7838
वाले	-10.7838
ज़र	-10.784
▁seeing	-10.7842
र्बुद	-10.7844
▁width	-10.7844
▁bodies	-10.7844
▁बेहद	-10.7844
▁नवंबर	-10.7844
▁spell	-10.7845
▁branches	-10.7854
▁पाता	-10.7854
ray	-10.7859
▁dollar	-10.7862
▁weapons	-10.787
▁var	-10.787
▁अंतः	-10.787
hana	-10.7873
नगर	-10.7874
▁ग्लोबल	-10.7876
▁विधायिका	-10.7876
▁circle	-10.7876
▁sell	-10.7876
▁destruction	-10.7877
हंसी	-10.7879
ग्राह	-10.788
bra	-10.788
▁खर	-10.7882
▁खोलें	-10.7889
▁उपस्थिति	-10.789
वृत्ति	-10.7891
▁बताने	-10.7893
▁सावधानी	-10.7894
स्थापन	-10.7895
ाभ	-10.7896
▁enabled	-10.79
युक़्त	-10.7901
▁tomb	-10.7902
▁drag	-10.7905
▁receipt	-10.7908
▁टाइप	-10.7908
ाधिक	-10.791
▁उत्तम	-10.791
▁pension	-10.791
▁wave	-10.7912
▁बाध्य	-10.7913
▁tourist	-10.7913
▁entirely	-10.7914
▁rare	-10.7916
▁sync	-10.7917
▁entered	-10.7918
pre	-10.7921
लिए	-10.7921
▁terrorists	-10.7921
▁colon	-10.7923
▁निष्	-10.7925
hir	-10.7927
▁इमारत	-10.7929
wat	-10.7933
वश	-10.7934
vid	-10.7935
▁cer	-10.7939
▁fourth	-10.7939
▁territory	-10.7941
▁अभिनेता	-10.7941
▁robot	-10.7941
▁अधिकरण	-10.7944
▁छल	-10.7944
▁अल्लाह	-10.7946
59	-10.7948
ane	-10.7948
▁नीतियों	-10.7953
फ्ट	-10.7954
▁yield	-10.7959
▁अपवाद	-10.7967
▁tan	-10.7973
▁adequate	-10.7974
▁मैथुन	-10.7974
▁trading	-10.7974
most	-10.7979
▁operate	-10.7981
▁हैंः	-10.7987
▁वर्षीय	-10.7988
▁खड़ी	-10.7988
र्र	-10.799
▁reports	-10.7995
▁shares	-10.7995
▁प्रेस	-10.7998
ony	-10.8002
▁हरा	-10.8002
▁indra	-10.8004
देह	-10.8006
▁candidate	-10.8006
▁रसायन	-10.8007
▁empty	-10.8007
▁शक्तिशाली	-10.8008
▁settlement	-10.8008
▁हिन्दुओं	-10.8009
▁fuel	-10.801
▁defeat	-10.8011
▁दूरस्थ	-10.8013
▁registered	-10.8014
99	-10.8017
▁पीड़ा	-10.8018
▁designed	-10.802
▁संतान	-10.8021
kri	-10.8022
न्यास	-10.8033
▁वापसी	-10.8035
▁लंबा	-10.8036
▁egg	-10.8037
▁correspond	-10.8039
▁communist	-10.8039
▁claims	-10.8039
▁secular	-10.804
▁discuss	-10.804
▁marble	-10.8041
र्ब	-10.8046
▁kilo	-10.805
र्ति	-10.8052
▁bla	-10.8055
भूमि	-10.8055
▁कोऋ	-10.8057
▁हजारों	-10.8057
▁ty	-10.8058
▁villages	-10.8059
▁sudden	-10.8059
▁द्	-10.8059
वर्ण	-10.8062
▁अनुक्रम	-10.8069
ैट	-10.807
▁exists	-10.8071
▁आधिकारिक	-10.8072
▁दौड़	-10.8073
▁कूटशब्द	-10.8073
▁परिसर	-10.8073
▁knee	-10.8073
▁खिलफ	-10.8075
▁वर्गीकरण	-10.8079
▁लख	-10.8081
▁सिल	-10.8081
ख्यात	-10.8082
pen	-10.8083
▁सैनिक	-10.8088
▁rank	-10.8088
कार्य	-10.809
▁बढा	-10.8092
▁संकल्प	-10.8095
विध	-10.8095
▁अफ	-10.8099
▁witness	-10.81
▁सहेज	-10.8101
▁मोड़	-10.8105
▁prominent	-10.8105
▁संभावित	-10.8105
▁इन्होंने	-10.8106
▁ड्रग्स	-10.8107
फि	-10.8107
▁लकड़ी	-10.8107
▁संस्थापित	-10.811
▁बनायी	-10.8116
▁टिक	-10.8116
▁लाइ	-10.8118
try	-10.8119
▁drawing	-10.8128
▁sufficient	-10.8128
▁बुश	-10.8129
▁fan	-10.813
▁किमी	-10.813
▁भंग	-10.813
▁spoke	-10.8132
▁throw	-10.8133
▁उर्दू	-10.8139
▁डिफ़ॉल्ट	-10.8139
▁referred	-10.8139
path	-10.8142
वर्तन	-10.8142
▁धारण	-10.8142
▁जाहिर	-10.8143
▁प्रशंसा	-10.8144
▁बैंकों	-10.8145
▁प्रतिरोध	-10.8149
▁organised	-10.8154
वेल	-10.8155
▁आराम	-10.8159
cation	-10.8162
▁जुड़ी	-10.8167
▁transaction	-10.8172
▁अधिवेशन	-10.8172
▁false	-10.8172
▁worse	-10.8172
▁narrow	-10.8172
▁sacred	-10.8173
▁bengali	-10.8173
▁अग	-10.8173
poli	-10.8173
rg	-10.8176
▁diet	-10.8179
मिक	-10.8182
▁कऋ	-10.8185
▁dollars	-10.8186
can	-10.8187
▁स्टेट	-10.8192
▁older	-10.8195
▁citizen	-10.8195
▁कहे	-10.8195
▁निकालने	-10.8198
▁छि	-10.8202
▁vary	-10.8202
▁lap	-10.8205
▁babies	-10.8205
▁magistrate	-10.8205
▁खतरनाक	-10.8205
▁परम्परा	-10.8206
▁remind	-10.8206
▁1990	-10.8207
▁formula	-10.8208
▁संपन्न	-10.8208
▁कपड़े	-10.8208
कूट	-10.8211
ंबर	-10.8211
▁epi	-10.8217
▁schedule	-10.822
ola	-10.8223
▁das	-10.8227
लाल	-10.8228
▁अट	-10.8232
you	-10.8237
▁पाठक	-10.8237
▁पहाड़	-10.8238
last	-10.8239
▁निष्पादन	-10.8239
▁queen	-10.8239
▁mp	-10.8241
▁बादशाह	-10.8246
▁paint	-10.8247
▁figures	-10.8249
मैं	-10.8251
{	-10.8252
योग्य	-10.8255
▁किला	-10.8255
▁35	-10.8258
▁शर्म	-10.8259
▁magic	-10.8272
▁रिकॉर्ड	-10.8273
्मा	-10.8273
▁1999	-10.8275
▁गवाह	-10.8277
▁विलय	-10.8283
▁games	-10.8283
▁श्र	-10.8286
▁factory	-10.8289
▁वर्णित	-10.829
▁जै	-10.8292
▁फु	-10.8292
▁owner	-10.8303
▁obtained	-10.8303
▁prayer	-10.8305
▁अम्ल	-10.8306
▁substantial	-10.8306
▁प्रतियोगिता	-10.8306
▁audience	-10.8306
▁surprise	-10.8306
43	-10.8307
▁स्विच	-10.8309
down	-10.831
▁इनपुट	-10.8311
▁portion	-10.8318
िद	-10.8319
▁बांट	-10.832
agon	-10.8325
▁dal	-10.8326
cut	-10.8329
▁carrying	-10.8331
वट	-10.8332
▁जॉन	-10.8332
▁शाम	-10.8333
▁representative	-10.8333
▁stated	-10.8336
▁प्रेरणा	-10.834
▁सदैव	-10.834
▁मजबूर	-10.834
▁league	-10.834
▁आबादी	-10.834
प्रेषण	-10.8341
▁हमले	-10.8344
वंश	-10.8344
▁मुक	-10.8344
▁सीता	-10.8345
▁हिंद	-10.8345
▁allows	-10.8346
▁controlled	-10.8347
▁minute	-10.8347
▁forth	-10.8349
▁बर्फ	-10.8349
54	-10.835
▁crop	-10.835
veda	-10.8352
हरा	-10.8353
▁allah	-10.8354
▁ahead	-10.8356
पुष्प	-10.8357
▁appeared	-10.8358
▁appears	-10.8361
▁saved	-10.8362
▁व्यापारिक	-10.8363
▁फार	-10.8365
▁गरीबी	-10.8367
▁सुनने	-10.8367
bble	-10.8372
▁रच	-10.8373
▁millions	-10.8375
▁मन्त्र	-10.8375
पुट	-10.8376
▁बॉक्स	-10.8376
▁symptoms	-10.8378
▁occurs	-10.8379
▁अधिकारिता	-10.838
▁rent	-10.838
▁कन	-10.838
टु	-10.8384
▁cup	-10.8385
ंदी	-10.8386
▁कक्षा	-10.8395
▁evening	-10.8395
▁विविधता	-10.8398
क़्स	-10.84
▁चलाया	-10.8402
प्रद	-10.8402
शाह	-10.8404
▁बेस	-10.8406
▁arrested	-10.8407
▁understood	-10.8409
▁yourself	-10.8409
▁कौंसिल	-10.8409
▁सर्वश्रेष्ठ	-10.8409
▁आचरण	-10.8409
▁composition	-10.8409
▁जानवरों	-10.8411
▁आपसे	-10.8411
▁whereas	-10.8412
ैया	-10.8413
▁gun	-10.8413
▁रुपये	-10.8413
▁destroy	-10.8414
मानी	-10.842
▁नो	-10.842
▁via	-10.8423
▁determine	-10.8424
▁tail	-10.8425
पटल	-10.8425
हान	-10.8431
कुछ	-10.8433
किल	-10.8433
▁farmers	-10.8442
▁सुलझा	-10.8443
▁convention	-10.8443
▁अभ्यास	-10.8443
▁रोजगार	-10.8443
▁अजीब	-10.8444
▁तिर	-10.8446
▁चंद्र	-10.8448
घोष	-10.845
▁घाटी	-10.845
▁बडे	-10.8456
एफ	-10.8464
phone	-10.8466
riya	-10.8467
▁projects	-10.847
▁रहीं	-10.8471
▁उल	-10.8475
▁pray	-10.8475
▁ट्रैक	-10.8475
▁asian	-10.8475
char	-10.8476
▁इलाहाबाद	-10.8477
▁कहलाता	-10.8477
▁इंसान	-10.8479
▁bull	-10.8482
thy	-10.8483
▁बचपन	-10.8484
▁followers	-10.8484
br	-10.8484
how	-10.8486
▁starts	-10.8487
▁arabs	-10.8489
▁boot	-10.8492
▁sheep	-10.8492
▁बैंकिंग	-10.8494
▁साम्राज़्यवाद	-10.8495
▁बैठे	-10.8496
▁instruments	-10.8503
▁जोड़ा	-10.8503
लेखन	-10.8505
▁defense	-10.8512
▁honour	-10.8512
▁आंशिक	-10.8512
▁civilization	-10.8514
▁prison	-10.8515
▁परेशानी	-10.8516
yo	-10.8519
▁कठिनाई	-10.852
ong	-10.8522
aging	-10.8525
cap	-10.8527
48	-10.853
▁dismiss	-10.8532
▁usual	-10.8538
दिन	-10.8541
▁झुक	-10.8542
ान्तर	-10.8543
▁algorithm	-10.8546
▁जॉर्ज	-10.8546
▁विकिरण	-10.8546
▁plugin	-10.8549
▁तीसरी	-10.8549
▁रकम	-10.855
▁गू	-10.8554
ल्प	-10.8556
▁अहम	-10.8556
▁tape	-10.8557
▁ग्राफ	-10.8558
केट	-10.856
ough	-10.8561
77	-10.8561
▁dealing	-10.8562
▁रोम	-10.8564
मिया	-10.8568
▁वाक्य	-10.8569
▁छोड़े	-10.8569
chal	-10.8571
दास	-10.8577
▁facts	-10.8578
▁resident	-10.858
▁रोज	-10.858
▁providing	-10.8581
▁victory	-10.8581
▁प्रोटोकॉल	-10.8581
▁यौन	-10.8581
▁परमिट	-10.8582
▁मतभेद	-10.8582
▁sample	-10.8582
▁जल्द	-10.8583
▁2002	-10.8583
▁mouse	-10.8584
▁भेंट	-10.8584
▁घास	-10.8587
ानुसार	-10.8589
▁पं	-10.8589
▁records	-10.8592
▁extremely	-10.8593
▁grown	-10.8595
▁मामल	-10.8602
book	-10.8602
ण्	-10.8607
ograph	-10.861
▁प्रसार	-10.8613
मौ	-10.8615
सेट	-10.8616
▁उमीद	-10.8616
▁universe	-10.8616
▁यानी	-10.8616
▁stopped	-10.8617
▁stuff	-10.8618
▁वृक्क	-10.8621
▁syn	-10.8626
▁deva	-10.863
▁कष्ट	-10.8631
▁जग	-10.8634
पना	-10.8638
pat	-10.8643
▁explained	-10.8643
▁orders	-10.8646
मीटर	-10.8647
▁ताज	-10.8649
▁70	-10.8649
▁parallel	-10.8651
▁leaving	-10.8651
▁रोबोट	-10.8651
▁jews	-10.8651
▁shoot	-10.8653
▁ईमेल	-10.8654
▁नवीन	-10.8654
83	-10.8659
हू	-10.8667
▁plate	-10.8668
55	-10.867
▁films	-10.8675
68	-10.8677
न्दा	-10.8679
मेट	-10.868
▁निर्गम	-10.8682
▁diabetes	-10.8686
▁अस्वीकार	-10.8686
▁गहरे	-10.8686
▁प्रतिष्ठा	-10.8686
▁solid	-10.8686
▁swami	-10.8686
onia	-10.8687
▁admit	-10.8687
▁recommendation	-10.8688
▁assessment	-10.8688
ञ्ज	-10.8691
मह	-10.8692
▁पाप	-10.8693
▁गहन	-10.8697
▁ज़रूरी	-10.8697
▁तह	-10.8697
▁suffer	-10.87
▁happening	-10.8702
ैं	-10.8703
▁बनता	-10.8712
▁भ्रम	-10.8716
▁दिसंबर	-10.8721
▁लिमिटेड	-10.8721
▁quiet	-10.8721
▁कनाडा	-10.8721
▁आउटपुट	-10.8721
▁बल्लेबाजी	-10.8722
▁sharp	-10.8722
▁sanction	-10.8723
▁दया	-10.8723
यत	-10.8725
▁संजाल	-10.8725
▁समर्थित	-10.8727
▁gen	-10.8727
▁जूट	-10.873
▁दावे	-10.8731
मेन	-10.8737
▁spec	-10.8737
▁ruled	-10.8738
▁कण	-10.874
मस	-10.8743
26	-10.8745
▁recover	-10.8747
भू	-10.8747
▁अश्व	-10.8747
राज्य	-10.8749
वो	-10.8756
▁holiday	-10.8756
▁arya	-10.8756
▁मंत्रिपरिषद	-10.8756
▁रजिस्टर	-10.8757
▁कनेक्ट	-10.8757
▁रत्न	-10.8757
▁सुनवाई	-10.8757
muni	-10.8762
▁सामान्यतया	-10.8763
▁peri	-10.8772
▁मूल्यों	-10.8773
▁दुर्ग	-10.8777
▁dan	-10.878
▁जुटा	-10.8781
▁americans	-10.8783
▁सीमाओं	-10.8788
▁किले	-10.8789
▁परिवर्तनों	-10.8791
▁automatic	-10.8792
▁dynamic	-10.8792
▁rai	-10.8792
▁bacteria	-10.8794
▁forced	-10.8796
▁युक्त	-10.8799
▁angel	-10.8799
met	-10.8812
▁भूत	-10.8814
▁lib	-10.8814
▁प्रजाति	-10.8816
▁सेवाएं	-10.8818
▁द्वीपों	-10.8822
eshwar	-10.8822
▁aware	-10.8825
▁बढ़ाने	-10.8826
▁contribute	-10.8827
▁myself	-10.8827
▁sequence	-10.8827
▁ऑनलाइन	-10.8827
▁संतुलन	-10.8827
▁courage	-10.8827
▁goddess	-10.8827
▁मुंह	-10.8827
▁सूरदास	-10.8828
▁तलाश	-10.8828
▁प्रोटीन	-10.8828
▁signs	-10.8829
▁शराब	-10.8829
▁hotel	-10.8832
▁extend	-10.8835
▁capable	-10.8837
▁बोध	-10.8839
र्प	-10.884
▁अंदाज	-10.8842
वती	-10.8842
▁bhu	-10.8843
▁govern	-10.8848
▁होटल	-10.8855
cra	-10.8858
विष	-10.8861
▁identify	-10.8863
▁मुद्दे	-10.8863
▁forget	-10.8864
▁सूअर	-10.8864
▁दोषी	-10.8865
▁भेजें	-10.8867
▁bath	-10.8872
ुस	-10.8873
▁ठहरा	-10.8875
▁vir	-10.8878
▁किसान	-10.8878
▁आग्रह	-10.8879
▁छोर	-10.8879
▁trees	-10.8881
ज्ह	-10.8882
nanda	-10.8888
▁shared	-10.8891
▁जाय	-10.8892
▁extended	-10.8892
▁बारह	-10.8892
▁गुना	-10.8893
▁प्रकाशन	-10.8895
▁bachchan	-10.8899
▁dynasty	-10.8899
▁vitamin	-10.8899
▁yellow	-10.8899
▁चौड़ाई	-10.8899
▁सचमुच	-10.8899
▁गुणसूत्र	-10.89
▁arrow	-10.89
▁अग्रिम	-10.8901
▁मुझसे	-10.8901
▁1950	-10.8902
▁गहराई	-10.8905
▁merge	-10.891
▁जोड़े	-10.8912
▁uni	-10.892
विन	-10.8923
कायदा	-10.8927
▁सोम	-10.893
▁पहल	-10.8932
▁proportion	-10.8935
▁फ़ॉन्ट	-10.8935
▁आधे	-10.8935
▁chain	-10.8936
▁जिम्मेदार	-10.8936
▁employer	-10.8937
▁१९८	-10.8938
▁रक़्त	-10.8939
▁आधा	-10.8939
▁नीला	-10.894
▁मिलेगी	-10.8941
बिया	-10.8943
lab	-10.8946
▁कंप	-10.8947
▁chand	-10.8949
▁signed	-10.8949
▁charged	-10.8955
▁cro	-10.8957
▁achieved	-10.8957
▁प्रजातिय	-10.8958
▁marked	-10.8958
▁रूस	-10.8961
▁हिल	-10.8967
▁score	-10.8968
▁प्रयोक्ता	-10.8971
▁विश	-10.8972
▁अंग्रेज़ी	-10.8974
▁loans	-10.8975
▁उन्नत	-10.8975
▁हटाने	-10.8975
▁सम्पूर्ण	-10.8976
▁सेक्स	-10.8977
▁मिलेगा	-10.898
▁रिक्त	-10.8984
्यूट	-10.8985
▁शे	-10.8985
ऋद्द	-10.8988
शंकर	-10.8988
▁mine	-10.899
▁बालक	-10.899
▁lotus	-10.8992
vat	-10.8994
trop	-10.9003
▁वनस्पति	-10.9007
position	-10.9008
▁committed	-10.9008
▁मूत्र	-10.901
▁dangerous	-10.9011
मुखी	-10.9011
▁मतदान	-10.9011
स्कर	-10.9012
▁वर्मा	-10.9012
▁आजकल	-10.9013
▁idol	-10.9016
▁span	-10.9018
▁जनन	-10.9018
▁उत्पादक	-10.9023
▁जंग	-10.9023
ility	-10.9027
लिस	-10.9028
▁बनाम	-10.903
▁डालर	-10.9033
▁यहीं	-10.9035
▁prop	-10.9037
▁african	-10.904
tam	-10.904
ंडर	-10.9042
▁wing	-10.9043
▁borrow	-10.9044
▁फलस्वरूप	-10.9044
▁grave	-10.9044
▁boat	-10.9044
▁subjects	-10.9045
▁exactly	-10.9049
▁गौर	-10.905
16	-10.9053
▁देशी	-10.9054
▁ec	-10.9057
▁celebrated	-10.9057
ेदार	-10.906
▁महिल	-10.9063
▁शू	-10.9064
▁topic	-10.9065
▁निवासी	-10.9066
▁defect	-10.9067
which	-10.9068
▁बग	-10.9069
कोड	-10.9071
▁reply	-10.9072
▁fro	-10.9072
▁स्वीकृत	-10.9075
65	-10.9078
▁disturb	-10.908
▁protein	-10.908
▁scene	-10.9081
▁smart	-10.9081
▁childhood	-10.9082
▁अनुचित	-10.9084
▁गोली	-10.9085
प्रिय	-10.9088
ऐं	-10.909
▁om	-10.9093
cum	-10.9095
▁मुयमंत्र	-10.9099
▁praise	-10.9101
▁engine	-10.9103
▁अमरीकी	-10.9117
▁छिपा	-10.9118
▁bringing	-10.9119
▁पागल	-10.9122
▁प्रबन्ध	-10.9125
दर्शन	-10.9127
rama	-10.913
▁संगम	-10.9131
▁tre	-10.9137
▁करोड़े	-10.914
ुम	-10.9144
▁बचाने	-10.9145
▁उम्मीद	-10.9147
11	-10.9148
87	-10.9151
▁negative	-10.9154
▁काउंसिल	-10.9154
▁amitabh	-10.9154
▁अखबार	-10.9154
▁मुँह	-10.9154
▁मधु	-10.9155
▁hence	-10.9155
माला	-10.9156
▁कम्पनी	-10.9158
▁pitch	-10.9159
▁जातियों	-10.916
▁backward	-10.9162
▁calling	-10.9162
▁arrived	-10.9164
▁driver	-10.9165
bir	-10.9165
app	-10.9165
▁defined	-10.9166
ट्री	-10.9167
▁वासी	-10.9167
▁गरम	-10.9167
▁आकृति	-10.9171
▁छात्रों	-10.9172
▁बढ़ने	-10.9173
▁आयत	-10.9175
▁कहती	-10.9175
लाना	-10.9175
▁constant	-10.9177
product	-10.9179
पृष्ठ	-10.9181
▁समूहों	-10.9182
▁जुड़ा	-10.9187
pad	-10.9188
▁taliban	-10.919
▁कम्प्यूटर	-10.919
▁cease	-10.9191
▁गणतंत्र	-10.9191
ेन्द्र	-10.9191
▁समझना	-10.9194
▁शुक्र	-10.9195
▁बीत	-10.9198
▁रोगों	-10.9198
▁बाँध	-10.9198
▁सांस	-10.9199
▁आह	-10.9208
▁नै	-10.921
pathy	-10.921
ूँगा	-10.9212
▁बंधन	-10.9217
▁बहन	-10.9218
स्तान	-10.9221
▁hari	-10.9223
▁differ	-10.9224
मेर	-10.9227
▁introduction	-10.9227
▁क़ुरआन	-10.9227
▁सच्चाई	-10.9227
▁proxy	-10.9227
▁बिन	-10.9229
▁समर्थक	-10.9229
▁resolve	-10.9229
▁fri	-10.9231
▁आदत	-10.9232
▁भत्ता	-10.9232
▁crowd	-10.9242
▁compare	-10.9244
hoo	-10.9244
▁लहर	-10.9246
▁काले	-10.9249
▁कायम	-10.9252
▁वजन	-10.9256
▁फुट	-10.9256
कोण	-10.9259
ियल	-10.9259
▁शेर	-10.926
67	-10.9261
स्तरीय	-10.9265
▁conversation	-10.9265
▁routine	-10.9265
▁welfare	-10.9265
▁चट्टान	-10.9265
▁launched	-10.9265
▁1998	-10.9266
mba	-10.9266
टिन	-10.9268
▁तमिल	-10.9268
▁प्रतिभूति	-10.9269
▁dig	-10.927
▁tum	-10.927
▁retain	-10.9272
▁grade	-10.9273
▁jute	-10.9274
▁drawn	-10.9281
▁सकी	-10.9284
▁निकलने	-10.9288
▁granted	-10.9289
cial	-10.929
▁अंतरण	-10.929
▁mod	-10.9292
ware	-10.9292
▁पाद	-10.9298
▁अक्टूबर	-10.9302
▁ganesh	-10.9302
▁lanka	-10.9303
▁बदला	-10.9304
▁आतंकवादियों	-10.9304
▁दीवारों	-10.9307
पार	-10.9307
▁जानवर	-10.9307
▁पादप	-10.9309
▁ruler	-10.931
▁stands	-10.931
▁surround	-10.9312
▁decades	-10.9313
▁educational	-10.9315
▁recorded	-10.9319
▁खुली	-10.9325
▁arise	-10.9325
▁por	-10.9329
▁सिद्धांतों	-10.9331
▁prize	-10.9332
▁उलट	-10.9335
▁infect	-10.9338
▁consumption	-10.9339
▁definition	-10.9339
▁nobody	-10.9339
▁भर्ती	-10.934
▁संतुष्ट	-10.934
▁rear	-10.934
▁तनाव	-10.9342
▁shell	-10.9345
emia	-10.9346
बंद	-10.935
▁लगाए	-10.9352
स्थिति	-10.9357
शोधन	-10.9362
▁scholars	-10.9364
▁customer	-10.9365
पश्चिम	-10.9367
▁jag	-10.9368
▁जाया	-10.937
house	-10.937
▁टै	-10.9376
▁discover	-10.9376
▁plea	-10.9377
▁everybody	-10.9377
▁hidden	-10.9377
▁ritual	-10.9377
▁surgery	-10.9377
▁इंग़्लैंड	-10.9377
▁२००८	-10.9378
dom	-10.9379
▁इसीलिए	-10.9379
▁argue	-10.938
▁cheap	-10.938
▁पहलू	-10.9381
▁किसानों	-10.9381
▁उसको	-10.9383
▁आरक्षित	-10.9383
▁suggested	-10.9386
▁purana	-10.939
▁एयर	-10.9391
▁संगठित	-10.9393
▁brave	-10.9393
▁निरा	-10.9397
▁गज	-10.9398
58	-10.9407
उप	-10.9409
▁afford	-10.9415
▁artificial	-10.9415
निरपेक्ष	-10.9415
▁चेतना	-10.9415
▁lawyer	-10.9416
▁christ	-10.9418
▁spring	-10.9418
▁suitable	-10.9421
▁subhash	-10.9424
▁इंजन	-10.9425
▁भक्ति	-10.9425
▁committees	-10.9426
rc	-10.9429
▁sessions	-10.9431
▁कृति	-10.9435
▁socialist	-10.9439
▁लगने	-10.944
chan	-10.9444
▁नाक	-10.9446
inal	-10.9448
etic	-10.9449
▁church	-10.9453
▁मुद्दा	-10.9453
▁मेमोरी	-10.9453
▁jobs	-10.9453
▁captain	-10.9453
▁passing	-10.9456
▁passage	-10.9458
▁winter	-10.9458
▁governorate	-10.9458
▁तैयारी	-10.9459
▁हां	-10.9462
▁कोमल	-10.947
▁बिट	-10.947
▁folk	-10.9471
▁रूपये	-10.9475
▁चढ़	-10.9477
▁verses	-10.9477
rup	-10.9482
धीरे	-10.9487
▁उग्र	-10.949
▁circuit	-10.9491
▁privilege	-10.9491
▁गाँव	-10.9491
▁शल्य	-10.9491
▁1980	-10.9493
hold	-10.9493
nagar	-10.9494
▁पासवर्ड	-10.9494
▁yu	-10.9494
▁खे	-10.9494
tab	-10.9495
▁lung	-10.9495
▁व्यस्त	-10.9495
▁अभियोग	-10.9496
▁इन्द्र	-10.9496
▁मंगल	-10.95
्हे	-10.9501
▁provinces	-10.9503
▁flowers	-10.9503
▁पॉल	-10.9504
▁totally	-10.9508
रोधी	-10.951
pping	-10.9513
▁busy	-10.9514
क्षी	-10.9514
▁tender	-10.9518
▁trader	-10.9519
▁क्	-10.9523
▁distinct	-10.9525
▁nar	-10.9525
▁चमत्कार	-10.9529
▁chamber	-10.9529
▁मराठी	-10.9529
▁निचले	-10.9529
▁imperialism	-10.953
▁पहाड़ी	-10.9531
▁संक्षेप	-10.9533
▁publish	-10.9535
▁reject	-10.9539
▁purposes	-10.954
▁refused	-10.9541
▁सकेंगे	-10.9544
घु	-10.9549
▁लड	-10.955
▁गलती	-10.9553
▁cord	-10.9557
▁उदर	-10.9563
▁संसाधनों	-10.9564
▁missing	-10.9564
▁excess	-10.9565
lip	-10.9565
शऋ	-10.9566
▁ढूँढ	-10.9567
▁sites	-10.9568
▁आस्था	-10.9575
▁गतिशील	-10.9575
▁instructions	-10.9577
▁परिभाषित	-10.9578
▁नासा	-10.9578
now	-10.958
▁puran	-10.9581
▁लेबल	-10.9585
▁पक्षों	-10.9585
▁constitute	-10.9586
ध्द	-10.9591
धारा	-10.9595
13	-10.96
▁चौक	-10.9603
▁सीट	-10.9604
१०	-10.9605
▁खेती	-10.9605
▁insist	-10.9605
acharya	-10.9606
▁सांप्रदायिक	-10.9606
▁स्त्रोत	-10.9606
▁हिंदुओं	-10.9606
▁defend	-10.9607
▁ऊंचाई	-10.9609
▁खिल	-10.9609
▁pump	-10.961
▁गयीं	-10.9614
▁प्ले	-10.9614
▁पटल	-10.9618
▁रवि	-10.9619
▁जिनसे	-10.962
▁क्रिस	-10.9625
▁inform	-10.9626
▁demands	-10.9627
▁oh	-10.9628
▁मुल	-10.9629
▁जरूर	-10.963
शक्ति	-10.9632
key	-10.9632
▁helping	-10.964
udi	-10.9642
▁opposite	-10.9644
▁मौलिक	-10.9644
▁समारोह	-10.9644
▁बहादुर	-10.9644
▁आपराधिक	-10.9644
▁वाशिंगटन	-10.9644
▁devices	-10.9646
▁guest	-10.9647
▁gh	-10.9648
▁sold	-10.9649
ela	-10.965
matic	-10.9651
▁grass	-10.9652
▁luck	-10.9653
state	-10.9653
डऋए	-10.9654
▁whenever	-10.9656
श्वर	-10.9657
▁शहरी	-10.9658
▁शक्तियों	-10.9658
▁मान्य	-10.966
▁drum	-10.9665
▁blank	-10.9665
fold	-10.9667
▁extreme	-10.9669
लिका	-10.967
▁destroyed	-10.9676
▁enterprise	-10.9683
▁investigation	-10.9683
▁somebody	-10.9683
▁वैकल्पिक	-10.9683
▁संवेदनशील	-10.9683
▁sorrow	-10.9683
▁girls	-10.969
▁progressive	-10.9691
भूषण	-10.9691
्यान	-10.9693
▁११	-10.9701
व्यापी	-10.9703
ग्राफ	-10.9706
▁remaining	-10.9706
▁सोने	-10.9706
▁mun	-10.9707
▁visited	-10.9707
▁गेट	-10.9711
पर्ण	-10.9714
year	-10.9715
tir	-10.9715
च्छेद	-10.9717
▁quo	-10.9719
▁असामान्य	-10.9722
▁किलोमीटर	-10.9722
▁व्यवस्थित	-10.9722
▁utter	-10.9722
▁यकीन	-10.9722
▁2004	-10.9723
▁1947	-10.9723
▁मिश्रण	-10.9724
▁contrast	-10.9724
▁rising	-10.9725
▁स्वभाव	-10.9725
▁inspired	-10.9728
तू	-10.9728
▁प्राण	-10.9728
▁निर्माता	-10.9731
▁environmental	-10.9731
▁chu	-10.9732
चीन	-10.9733
गन्ध	-10.9734
▁crown	-10.9734
भिन्न	-10.9738
▁stars	-10.9738
▁वऋ	-10.9745
76	-10.9745
18	-10.9746
▁improved	-10.9748
▁birds	-10.9758
▁टीका	-10.9758
▁continuous	-10.9761
▁familiar	-10.9761
▁तालिबान	-10.9761
▁थोड़े	-10.9761
▁jihad	-10.9761
▁साझा	-10.9764
▁45	-10.9765
▁representation	-10.9767
▁विराम	-10.9774
▁कैद	-10.9776
▁pad	-10.9776
▁converted	-10.978
▁repeated	-10.9781
▁शैल	-10.9783
ख़्त	-10.9784
▁imports	-10.9787
cies	-10.9788
मारी	-10.979
▁tata	-10.9792
▁लल	-10.9793
endra	-10.9794
▁शै	-10.9794
▁अयोध्या	-10.98
▁पारंपरिक	-10.98
▁literary	-10.98
▁भांति	-10.98
▁संपादक	-10.98
▁smoke	-10.98
▁मुर	-10.9801
कर्त्ता	-10.9802
▁मील	-10.9804
than	-10.9804
▁teachers	-10.9804
▁बताता	-10.9808
नियम	-10.9809
▁reg	-10.9816
nya	-10.9816
▁mere	-10.982
▁specially	-10.982
▁कुर	-10.9822
कोश	-10.9823
▁estimated	-10.9825
▁हू	-10.9826
▁कोष	-10.9828
बाज़	-10.9828
▁sole	-10.983
राना	-10.983
▁पाल	-10.9831
▁transform	-10.9836
▁जंगल	-10.9837
▁entitled	-10.984
▁maintenance	-10.984
▁stomach	-10.984
▁violent	-10.984
▁सकारात्मक	-10.984
▁प्रदाह	-10.984
▁झूठ	-10.984
▁लम्बे	-10.984
▁भरत	-10.984
▁महत्त्वपूर्ण	-10.984
▁हड्डी	-10.984
▁विमानक्षेत्र	-10.9841
▁सिद्धान्त	-10.9841
▁जरुर	-10.9843
▁देखिए	-10.9846
▁हंस	-10.9852
86	-10.9854
▁शर्तों	-10.9854
lp	-10.9854
len	-10.9855
मंत्र	-10.986
न्द्र	-10.9861
▁decline	-10.9862
▁efficient	-10.9879
▁ऑस्ट्रेलिया	-10.9879
▁तमाम	-10.9879
▁लम्बी	-10.9879
▁drama	-10.988
▁visual	-10.988
▁assistance	-10.988
▁durga	-10.9882
▁संग्राम	-10.9882
▁criticism	-10.9882
▁proof	-10.9883
▁पड़ेगा	-10.9886
▁minor	-10.989
▁क्लब	-10.9893
▁प्रस्तावित	-10.9893
मूल्य	-10.9894
▁क्रमश	-10.9898
▁maintained	-10.9898
▁lab	-10.9898
▁palestinians	-10.9899
▁वध	-10.9899
▁हक	-10.99
वर्ड	-10.9901
क्रमण	-10.9904
▁बनाती	-10.9904
▁mel	-10.9908
लिप	-10.9912
भोज	-10.9913
▁एकत्र	-10.9913
▁परिस्थिति	-10.9918
▁मातृ	-10.9919
▁hanuman	-10.9919
▁studied	-10.9919
▁अन्तर्राष्ट्रीय	-10.9919
शासित	-10.9921
▁कराना	-10.9926
▁putting	-10.9931
▁चीज़ें	-10.9931
ार्म	-10.9933
▁कर्ता	-10.9941
▁वास्तविकता	-10.9944
▁salt	-10.9948
▁equally	-10.9949
under	-10.995
▁बनाएँ	-10.995
▁physi	-10.9958
▁न्यायपालिका	-10.9959
▁कृत	-10.9959
▁facing	-10.9959
▁radiation	-10.9959
▁directed	-10.996
▁dil	-10.9961
▁ग्रीन	-10.9961
सिल	-10.9963
▁बजे	-10.9968
uction	-10.9972
▁comb	-10.9972
▁uri	-10.9974
▁दत्त	-10.9975
awa	-10.9977
ध्व	-10.9977
▁reasonable	-10.9978
टिव	-10.9979
▁detailed	-10.9981
▁fig	-10.9983
▁successfully	-10.9988
▁खां	-10.9989
▁certainly	-10.9989
▁acting	-10.9992
मुक्त	-10.9995
▁prisoner	-10.9995
▁साफ़	-10.9995
समय	-10.9996
▁platform	-10.9999
▁उल्लंघन	-10.9999
▁fifth	-10.9999
▁मछली	-10.9999
▁सउदी	-10.9999
▁refuge	-10.9999
▁शिष्य	-10.9999
▁कमेटी	-10.9999
▁vagina	-10.9999
▁श्रीकृष्ण	-10.9999
73	-11.0001
▁tin	-11.0002
ंटा	-11.0003
▁दस्तावेज़	-11.0004
74	-11.0009
▁बनाता	-11.0013
▁meta	-11.0014
▁worker	-11.0014
▁bowl	-11.0015
▁emb	-11.0016
हें	-11.0016
ढा	-11.0017
bhai	-11.0018
39	-11.0023
▁उठाना	-11.0023
वचन	-11.0024
band	-11.0034
▁खेत	-11.0034
▁खु	-11.0035
uck	-11.0036
▁marathi	-11.0039
▁अत्यन्त	-11.0039
90	-11.0039
▁practical	-11.0039
▁license	-11.0039
▁composed	-11.0039
▁hurt	-11.004
▁कोयला	-11.004
▁admitted	-11.004
साई	-11.0042
▁देखिये	-11.0043
▁जर्मन	-11.0044
▁संबंधों	-11.0046
▁आंकड़े	-11.0047
▁खण्ड	-11.0047
14	-11.0048
hat	-11.0049
पादन	-11.005
▁फलक	-11.005
lash	-11.0051
▁ant	-11.0055
▁determined	-11.0061
das	-11.0071
ावस्था	-11.0073
▁militant	-11.0079
▁विश्वसनीय	-11.0079
▁असंभव	-11.008
▁sala	-11.0082
▁उपग्रह	-11.0083
▁acceptance	-11.0083
▁bud	-11.0084
▁फीड	-11.0085
▁घुस	-11.0085
▁percentage	-11.0085
fic	-11.009
▁खरीदने	-11.0091
बर्ट	-11.0092
rophy	-11.0093
▁स्ट्र	-11.0095
ूरी	-11.0097
▁mantra	-11.0097
rah	-11.0098
▁leads	-11.01
▁रखती	-11.0101
▁प्रबल	-11.0102
▁sending	-11.0102
ection	-11.0106
रिंग	-11.0107
cu	-11.0108
▁अय	-11.0108
▁objects	-11.0109
▁दीवान	-11.0111
▁शून्य	-11.0115
सूची	-11.0116
निर्माण	-11.0116
vara	-11.0119
▁संगमर्मर	-11.012
▁survive	-11.012
▁मुद्रक	-11.012
▁requirements	-11.012
▁नदियों	-11.012
यन्त्र	-11.012
▁conversion	-11.012
▁recess	-11.0122
▁batting	-11.0123
श्व	-11.013
▁demo	-11.013
▁जाएंगे	-11.0132
▁neck	-11.0132
▁श्	-11.0135
▁भावनाओं	-11.0137
▁macro	-11.0139
ith	-11.0144
▁रखकर	-11.0147
▁gro	-11.015
pan	-11.015
ज़्ज	-11.0153
what	-11.0153
शेष	-11.0156
▁साहस	-11.0157
▁आध्यात्मिक	-11.016
▁एक्सटेंशन	-11.016
▁सृजन	-11.016
▁abandon	-11.016
▁कड़ियाँ	-11.0161
▁माउस	-11.0162
ास्थि	-11.0162
▁मंद	-11.0168
▁फर्क	-11.0168
▁संगठनों	-11.0169
▁मिलना	-11.017
▁reveal	-11.0173
तालियाँ	-11.0174
▁organisms	-11.0175
▁लड़की	-11.0176
कारक	-11.0177
▁walking	-11.0177
▁एम्	-11.0184
bus	-11.0189
▁usage	-11.019
▁देवताओं	-11.0191
▁soldiers	-11.0195
▁रहित	-11.0196
▁जापानी	-11.0197
पत्ति	-11.0198
दायी	-11.0199
▁meal	-11.0199
▁दस्त	-11.0201
▁disappear	-11.0201
▁legislation	-11.0201
▁specify	-11.0201
▁वंचित	-11.0201
▁जवाहरलाल	-11.0201
point	-11.0202
▁चतुर	-11.0202
▁intention	-11.0203
▁मोटा	-11.0204
▁वर्गाकार	-11.0204
▁वाकई	-11.0204
▁अध्य	-11.0206
▁धूल	-11.0207
हट	-11.0207
▁उत्पादों	-11.0209
▁installation	-11.021
tail	-11.0211
▁बरस	-11.0213
▁conducted	-11.0214
▁सीरिया	-11.0214
▁वास	-11.0217
▁दांत	-11.0219
विचार	-11.0219
▁feelings	-11.022
ज्ञान	-11.022
▁aspect	-11.0222
verse	-11.0223
▁क्रमांक	-11.0225
kan	-11.0232
▁बनना	-11.0236
▁पते	-11.0237
▁पक्षी	-11.0237
▁opportunities	-11.0242
▁अक्तूबर	-11.0242
▁टर्मिनल	-11.0242
▁विज्ञापन	-11.0242
▁हस्तक्षेप	-11.0242
सिन	-11.0243
▁मिशन	-11.0243
▁ऋतु	-11.0246
▁रीति	-11.025
▁rice	-11.025
पीठ	-11.026
▁prepare	-11.0264
▁constructed	-11.0266
▁moti	-11.0278
▁customs	-11.0279
▁ayodhya	-11.0283
▁judiciary	-11.0283
▁taught	-11.0283
▁शानदार	-11.0283
▁transmission	-11.0283
▁कोयले	-11.0284
▁विधानमंडल	-11.0284
▁घातक	-11.0285
▁elder	-11.0286
▁uniform	-11.0286
▁जोड़ने	-11.0286
दृष्टि	-11.029
▁proud	-11.0291
▁expand	-11.0299
▁मानो	-11.03
▁भावी	-11.0305
जान	-11.0306
▁500	-11.0314
▁ब्रा	-11.0318
▁आवश्यकताओं	-11.0319
count	-11.0321
rai	-11.0321
▁चार्ट	-11.0324
▁academic	-11.0324
▁destination	-11.0324
▁mechanism	-11.0324
▁औजार	-11.0324
▁रावण	-11.0324
▁2009	-11.0325
▁श्वास	-11.0326
▁corruption	-11.0327
▁supposed	-11.033
▁paris	-11.0333
ella	-11.0335
▁योजनाओं	-11.0337
ेटर	-11.0338
▁अनंत	-11.0339
▁interact	-11.0346
▁mix	-11.0351
डोर	-11.0352
▁gram	-11.0362
▁rulers	-11.0364
▁agencies	-11.0366
▁manufacturing	-11.0366
▁strategy	-11.0366
▁typical	-11.0366
▁मंदी	-11.0368
▁spite	-11.0371
see	-11.0371
▁वृष	-11.0372
800	-11.0373
▁iraqi	-11.0374
▁विद्वानों	-11.0376
▁सहेजें	-11.0376
अनु	-11.0377
▁leaf	-11.0382
▁models	-11.0383
▁टेप	-11.0385
▁कंध	-11.0387
▁partial	-11.039
▁मानस	-11.0396
▁photos	-11.0396
शर	-11.0397
▁ended	-11.0403
▁संचित	-11.0407
scribe	-11.0407
वस्तु	-11.0408
▁manifest	-11.0408
▁subhashbabu	-11.0408
▁पुरूष	-11.0408
▁विटामिन	-11.0408
▁कब्जा	-11.0408
▁याचिका	-11.0408
▁preced	-11.0408
▁gradually	-11.0412
▁लंबाई	-11.0412
▁लीग	-11.0417
▁मिलियन	-11.0417
▁exports	-11.0419
▁सेवन	-11.042
क्रो	-11.0427
▁divide	-11.043
▁resource	-11.0433
जब	-11.0438
्टो	-11.0439
▁seats	-11.0445
ल्ह	-11.0447
▁behavior	-11.0449
▁फोल्डर	-11.0449
▁absence	-11.045
▁burden	-11.045
ग्रे	-11.045
वाही	-11.045
▁आधारभूत	-11.0452
▁यज्ञ	-11.0453
▁inspector	-11.0453
▁जगा	-11.0454
▁mud	-11.0455
▁विपक्ष	-11.0456
▁ढेर	-11.0459
▁वक्र	-11.046
▁degrees	-11.046
▁jack	-11.0462
▁sought	-11.0462
▁stones	-11.0462
▁बताए	-11.0463
▁attacked	-11.0463
▁पोल	-11.0466
▁तरफ़	-11.0469
▁visiting	-11.0473
▁औषध	-11.0479
ific	-11.048
ावरण	-11.0482
▁स्वीकार्य	-11.0488
▁hardly	-11.0489
▁quote	-11.0489
chy	-11.049
▁communities	-11.0491
▁occupation	-11.0491
▁petition	-11.0491
▁vessel	-11.0491
▁deputy	-11.0491
▁clinic	-11.0492
टेन	-11.0493
▁burning	-11.0494
▁विद्या	-11.0495
▁बूट	-11.0496
▁distributed	-11.0497
▁upload	-11.0497
▁nagar	-11.0502
ggle	-11.0503
नुसार	-11.0504
▁बादल	-11.0505
▁वस्तुएं	-11.0505
सुर	-11.0506
▁राष्ट्रवाद	-11.0508
▁snow	-11.0511
▁ढांच	-11.0512
▁asking	-11.0517
रात	-11.0518
▁यात्री	-11.052
▁gran	-11.0523
▁बैठा	-11.0524
▁offers	-11.0526
▁organisations	-11.0528
▁घू	-11.053
ost	-11.0531
...	-11.0533
▁magazine	-11.0534
▁गारंटी	-11.0534
▁सुप्रीम	-11.0534
▁मूर्ख	-11.0534
▁sustain	-11.0534
▁कच्चे	-11.0534
▁संकलन	-11.0534
▁chosen	-11.0534
▁resign	-11.0534
▁गिरावट	-11.0534
▁डोमेन	-11.0534
▁allahabad	-11.0534
▁surdas	-11.0534
▁occurred	-11.0535
▁shan	-11.0541
▁identified	-11.0542
▁गर्व	-11.0542
▁processes	-11.0543
▁cata	-11.0543
atta	-11.0543
ैड	-11.0544
▁सोचता	-11.0545
▁combined	-11.0545
▁kin	-11.0545
▁अनुदेश	-11.0545
▁दवाओं	-11.0547
▁patients	-11.055
▁यानि	-11.0554
▁सामान्यत	-11.0558
▁slowly	-11.0559
▁immediate	-11.0562
▁गिरा	-11.0574
▁ईरानी	-11.0575
▁लक्ष्मण	-11.0576
▁श्वसन	-11.0576
▁अखिल	-11.0576
▁पाण्डव	-11.0576
▁injury	-11.0576
▁मेनू	-11.0576
▁सूचकांक	-11.0577
▁egyptian	-11.0578
गें	-11.058
▁deliver	-11.058
▁stored	-11.0582
▁duration	-11.0582
▁झेल	-11.0582
▁poets	-11.0586
▁नतीजा	-11.0591
पेट	-11.0593
iff	-11.0593
▁हौ	-11.0595
▁सम्मानित	-11.0598
ांकित	-11.06
▁founded	-11.0602
▁scientist	-11.0603
▁russia	-11.0604
▁obvious	-11.0605
▁घेर	-11.0614
▁fir	-11.0614
▁canal	-11.0615
▁घुमा	-11.0615
take	-11.0617
▁eventually	-11.0619
▁ourselves	-11.0619
▁prospect	-11.0619
▁shadow	-11.0619
▁प्रतिकूल	-11.0619
▁भ्रष्टाचार	-11.0619
▁रेड	-11.0619
▁nurse	-11.0619
temple	-11.0619
long	-11.0621
▁angle	-11.0622
ectomy	-11.0622
▁निभाई	-11.0625
▁बुलाया	-11.0626
▁निंदा	-11.0627
▁शिरा	-11.0627
▁देखता	-11.0628
▁native	-11.063
▁बाई	-11.0631
▁रानी	-11.0636
▁gang	-11.0636
▁tourists	-11.0637
ivity	-11.0638
▁linked	-11.064
▁penal	-11.0642
▁ऊँच	-11.0644
▁bai	-11.0648
▁organism	-11.0654
▁declaration	-11.0661
▁mirror	-11.0661
▁split	-11.0663
space	-11.0664
▁gross	-11.0664
▁मानचित्र	-11.0664
▁stress	-11.0666
▁शस्त्र	-11.0667
▁बौद्धिक	-11.0669
▁pet	-11.0679
▁begins	-11.0679
▁अभिव्यक्ति	-11.0683
▁तुमने	-11.0684
▁चीज़ों	-11.0685
▁managed	-11.0687
दन्त	-11.0688
▁skill	-11.069
▁rh	-11.0693
दीप	-11.0694
▁combination	-11.0704
▁discipline	-11.0704
▁qualification	-11.0704
▁तयशुदा	-11.0704
▁प्रोत्साहित	-11.0704
▁संपादित	-11.0704
▁इटली	-11.0704
▁पैनल	-11.0704
▁सडक	-11.0705
▁पुस्तकालय	-11.0706
▁lift	-11.0707
▁प्रभावशाली	-11.0707
▁उक	-11.0709
▁hamas	-11.071
▁सीधी	-11.0711
वेयर	-11.0711
inter	-11.0713
▁journal	-11.0715
▁recovery	-11.0717
▁russian	-11.0719
▁answers	-11.0721
जै	-11.0722
▁kama	-11.0733
▁sales	-11.0733
west	-11.0738
▁sensitive	-11.0747
▁wheel	-11.0747
▁सोवियत	-11.0747
▁abstract	-11.0747
▁नक़ल	-11.0748
▁photograph	-11.0748
▁भागीदार	-11.0751
▁सर्विस	-11.0752
थित	-11.0752
▁विनियम	-11.0753
▁containing	-11.0755
25	-11.0756
य्या	-11.0756
▁संस्थापन	-11.0756
▁मानने	-11.0757
▁उड़न	-11.0759
लाभ	-11.076
ग्रन्थि	-11.0762
▁mini	-11.0764
वरी	-11.0766
्फ़	-11.0767
▁nice	-11.0771
▁उलझ	-11.0774
▁हिला	-11.0778
▁county	-11.0779
▁scan	-11.0787
▁prohibit	-11.0791
▁dedicated	-11.0791
▁lecture	-11.0791
▁neighbour	-11.0791
▁prevail	-11.0791
▁उत्तरदायित्व	-11.0791
▁दार्शनिक	-11.0791
▁व्यावहारिक	-11.0791
▁डिग्री	-11.0791
▁फायदा	-11.0791
▁लीजिए	-11.0791
▁सबूत	-11.0791
▁alliance	-11.0791
▁solvent	-11.0792
शब्द	-11.0792
▁cellular	-11.0792
▁मोर्च	-11.0793
▁डूब	-11.0793
लोम	-11.0793
▁सोशल	-11.0793
▁punishment	-11.0793
▁अंततः	-11.0798
▁collect	-11.0803
▁transportation	-11.0803
▁ढाल	-11.0803
▁झा	-11.0807
▁पढ़ाई	-11.0807
▁hai	-11.0813
भोग	-11.0815
▁offering	-11.0817
▁promise	-11.0821
▁hundreds	-11.0826
▁विधा	-11.0828
▁प्रारम्भ	-11.0829
▁द्रव	-11.083
▁nest	-11.0831
▁imperial	-11.0832
▁प्राणी	-11.0832
link	-11.0832
▁पिच	-11.0833
▁मोहम्मद	-11.0834
▁worry	-11.0834
▁आवेदनपत्र	-11.0836
▁रोचक	-11.0836
▁fluid	-11.0838
▁abu	-11.0843
▁carefully	-11.0844
▁jaya	-11.0844
▁मोटे	-11.0846
▁masses	-11.0849
▁ved	-11.0849
load	-11.0849
▁अस्त	-11.0854
reg	-11.0855
ब्बा	-11.0856
pin	-11.0857
▁commissioner	-11.0858
▁kal	-11.0858
low	-11.0859
▁मनुष्यों	-11.0864
नुमा	-11.0869
▁कैल	-11.087
▁diver	-11.0871
▁समृद्ध	-11.0872
bh	-11.0874
▁plane	-11.0875
▁अध्यक्षता	-11.0878
▁nicobar	-11.0878
▁mohammed	-11.0878
▁monument	-11.0878
▁भौगोलिक	-11.0878
▁वयस्क	-11.0878
▁variation	-11.0878
▁madras	-11.0878
▁preserve	-11.0878
▁cattle	-11.0879
▁1996	-11.088
▁estate	-11.0881
▁बनवाया	-11.0881
▁basically	-11.0881
▁upgrade	-11.0882
▁आकर्षण	-11.0882
▁dependent	-11.0884
▁सौदा	-11.0885
िआ	-11.0886
गंध	-11.0887
▁गुल	-11.0888
graph	-11.0889
▁considerable	-11.089
▁पान	-11.089
late	-11.089
चंद्र	-11.089
▁हितों	-11.0891
▁मैक	-11.0895
▁tear	-11.0896
▁vice	-11.0901
▁अमल	-11.0901
▁intra	-11.0901
cher	-11.0904
▁served	-11.0907
▁स्पेन	-11.0908
▁मिस	-11.0909
▁largely	-11.0912
▁बाँ	-11.0912
▁75	-11.0912
▁instruction	-11.0912
▁analog	-11.0914
▁possess	-11.0918
कर्ण	-11.0919
▁arabia	-11.0921
▁pollutants	-11.0922
▁exhibit	-11.0922
▁ऊंचे	-11.0922
▁प्रॉक्सी	-11.0922
▁सिन्धु	-11.0922
▁execute	-11.0922
▁स्मारक	-11.0922
▁साइन	-11.0922
▁कट्टर	-11.0922
▁महासागर	-11.0922
▁सचिव	-11.0922
विल	-11.0923
▁moderate	-11.0924
संस्कृत	-11.0925
▁प्रसारण	-11.0926
▁संयोजन	-11.0927
▁वेदों	-11.0928
▁approved	-11.093
▁घाव	-11.0932
▁influenced	-11.0932
▁adopt	-11.0934
▁निदान	-11.0934
▁पोषण	-11.0934
▁follows	-11.094
ख़ा	-11.094
▁knowing	-11.0943
▁तै	-11.0944
ेन्स	-11.0948
78	-11.095
▁schemes	-11.0951
▁व्यास	-11.0956
शूल	-11.0957
रियल	-11.0958
▁प्रवास	-11.096
with	-11.096
िस्म	-11.096
पूर्ति	-11.0963
▁स्थितियों	-11.0963
vul	-11.0965
▁continent	-11.0966
▁decrease	-11.0966
▁abdul	-11.0966
▁उत्सव	-11.0966
▁यथार्थ	-11.0966
▁turkish	-11.0967
▁silk	-11.0968
▁strict	-11.0968
▁१३	-11.0973
aga	-11.0974
▁mc	-11.0974
▁opposed	-11.0976
▁कहां	-11.098
▁dna	-11.0988
▁रिहा	-11.0988
▁बजाए	-11.0991
▁छः	-11.0993
▁नौकर	-11.0995
▁टैग	-11.0996
▁कुशल	-11.0997
▁सिखा	-11.0997
▁पारी	-11.0998
▁feeding	-11.1
▁तिल	-11.1
ii	-11.1
▁पर्यटकों	-11.1001
▁एंट	-11.1001
▁वैज्ञानिकों	-11.1002
tory	-11.1006
▁मानता	-11.1007
▁जरुरत	-11.1007
▁satellite	-11.101
▁मुफ्त	-11.101
▁silence	-11.101
▁प्रव	-11.1011
▁discount	-11.1012
▁crack	-11.1014
number	-11.1015
▁bah	-11.1017
▁हफ्ते	-11.1018
▁restore	-11.102
▁बोलने	-11.1022
▁फेर	-11.1025
sphere	-11.1025
▁tasks	-11.1026
▁optic	-11.1033
keeper	-11.1034
ञ	-11.1037
▁squ	-11.1042
▁rapid	-11.1042
▁आज्ञा	-11.1047
▁समाजवादी	-11.105
▁widely	-11.1054
▁greek	-11.1054
▁happiness	-11.1054
▁wheat	-11.1054
▁निगरानी	-11.1054
▁राज्यसभा	-11.1054
▁conclude	-11.1055
▁हज़ार	-11.1055
▁कथन	-11.1055
▁संशोधित	-11.1055
▁कारावास	-11.1055
▁गांवों	-11.1056
▁flood	-11.1057
▁अमृत	-11.1057
▁टाटा	-11.106
▁आनन्द	-11.106
▁दमन	-11.1063
▁एकत्रित	-11.1064
▁दिवा	-11.1066
wad	-11.1072
▁अमीर	-11.1072
डऋई	-11.1074
▁मैन	-11.1078
97	-11.1084
▁component	-11.109
oi	-11.1096
येंगे	-11.1097
▁yamuna	-11.1099
▁खूबसूरत	-11.1099
▁निकोबार	-11.1099
▁मुलाकात	-11.1099
▁रासायनिक	-11.1099
▁रोशनी	-11.1099
asis	-11.1099
▁संचालित	-11.1102
▁उन्हीं	-11.1102
▁कॉपी	-11.1104
▁उपक्रम	-11.1105
▁hal	-11.1106
▁अवतार	-11.1109
▁bare	-11.1112
णि	-11.1113
▁toward	-11.112
▁sap	-11.1121
न्या	-11.1123
▁लाई	-11.1129
▁engineer	-11.1133
▁अलवा	-11.1136
▁३०	-11.1141
▁difficulty	-11.1142
▁अब्दुल	-11.1144
▁approval	-11.1144
▁coffee	-11.1144
▁cooperation	-11.1144
▁municipal	-11.1144
▁डिजाइन	-11.1144
▁वरीयता	-11.1144
▁stood	-11.1144
▁दोबारा	-11.1144
▁module	-11.1144
▁साम्यवाद	-11.1144
▁broadcast	-11.1144
▁निष्ठा	-11.1145
▁गुलाम	-11.1146
▁margin	-11.1146
▁andaman	-11.1148
▁आवरण	-11.1149
avan	-11.115
▁छप	-11.1151
▁virus	-11.1152
▁cache	-11.1152
स्थि	-11.1153
▁implement	-11.1156
▁marketing	-11.116
▁electric	-11.1162
▁emotional	-11.1163
▁tall	-11.1171
▁displayed	-11.1173
▁prose	-11.1174
▁ट्रे	-11.1174
कालिक	-11.1181
▁चरम	-11.1183
▁bru	-11.1184
▁ऊंचा	-11.1185
82	-11.1185
▁sec	-11.1188
▁obstruct	-11.1189
▁twice	-11.1189
▁कारोबार	-11.1189
उच्छेदन	-11.1189
▁nhs	-11.1189
▁प्रसव	-11.119
solv	-11.119
maker	-11.1191
▁bought	-11.1191
▁dur	-11.1191
▁achievement	-11.1193
▁मुक़्त	-11.1194
मंडप	-11.1194
▁horn	-11.1196
संवेद	-11.1198
व्रत	-11.12
▁सदनों	-11.1204
▁sym	-11.1207
चौ	-11.1208
17	-11.1209
▁क्रो	-11.1209
▁ruin	-11.1209
गरी	-11.1209
bhar	-11.1216
lessly	-11.1217
▁lin	-11.122
▁बढ़कर	-11.122
▁wise	-11.1222
ney	-11.1223
ल्लाह	-11.1226
71	-11.1231
600	-11.1231
▁shak	-11.1232
वर्ष	-11.1234
▁innocent	-11.1234
▁promotion	-11.1234
▁relevant	-11.1234
▁thirty	-11.1234
▁घृणा	-11.1234
▁सितम्बर	-11.1234
▁slave	-11.1234
▁insult	-11.1234
▁निष्पक्ष	-11.1234
▁acute	-11.1236
▁tribal	-11.1236
▁शौक	-11.1237
▁consciousness	-11.1237
▁प्रयासों	-11.1238
▁remarkable	-11.1238
board	-11.1243
▁गुम	-11.1243
▁wings	-11.1244
▁घड़ी	-11.1244
▁ऐल	-11.1244
भंग	-11.1247
▁औषधि	-11.1248
79	-11.1249
कोष	-11.125
▁ब्राउज़र	-11.1253
hrew	-11.1254
▁प्रमाणित	-11.1264
▁मित्रों	-11.1273
▁organs	-11.1274
▁इम	-11.1277
▁jerusalem	-11.128
▁स्वाधीनता	-11.128
▁abroad	-11.128
▁श्रद्धा	-11.128
▁1993	-11.1281
▁पठन	-11.1281
▁collective	-11.1282
▁ऋन	-11.1284
break	-11.1286
lateral	-11.1287
▁grace	-11.1287
▁उनऋ	-11.1289
ाग्र	-11.1291
▁जादू	-11.1296
▁सम्बन्धित	-11.1299
▁गोद	-11.13
▁belonging	-11.1302
▁जरा	-11.1309
▁बुक	-11.1309
▁वृत्त	-11.1319
▁dome	-11.1324
▁efficiency	-11.1325
▁evident	-11.1325
▁pretty	-11.1325
▁carrier	-11.1325
▁william	-11.1325
▁stamp	-11.1326
विमर्श	-11.1326
▁अगला	-11.1326
गिन	-11.1327
▁शव	-11.1333
▁illness	-11.1336
त्तर	-11.1336
ambi	-11.1338
परक	-11.134
▁pakistani	-11.1341
▁निराशा	-11.1341
▁aged	-11.1341
बर्ग	-11.1341
▁rename	-11.1344
tem	-11.1346
▁निपटा	-11.1346
मूर्ति	-11.1351
▁हेम	-11.1354
▁फट	-11.1359
▁अफ़	-11.1361
धारण	-11.1364
क्रा	-11.1365
▁इसको	-11.1368
▁आस्	-11.137
▁administrator	-11.1371
▁neighbor	-11.1371
▁ग्रीनहाउस	-11.1371
▁उपाधि	-11.1371
▁संविदा	-11.1371
▁acknowledge	-11.1371
▁आकलन	-11.1371
▁शुरूआत	-11.1371
▁resistance	-11.1372
▁clause	-11.1372
96	-11.1373
▁opt	-11.1373
▁shock	-11.1374
▁क्यू	-11.1374
▁प्रतिवर्ष	-11.1375
▁remark	-11.1376
▁textile	-11.1376
▁निकाय	-11.1376
blast	-11.1377
▁उत्तराधिकार	-11.1377
समूह	-11.1378
scope	-11.1379
▁उपदेश	-11.1381
active	-11.1383
▁lea	-11.1383
▁लगेगा	-11.1385
▁succeed	-11.1389
▁shaped	-11.1389
▁लू	-11.1389
▁रहेंगे	-11.1391
▁grain	-11.1397
कोशिका	-11.1405
▁पेज	-11.1407
▁nut	-11.1408
वर्धन	-11.1412
▁क्रय	-11.1413
▁customers	-11.1414
▁dioxide	-11.1417
▁magnetic	-11.1417
▁क़ुरान	-11.1417
▁अपेक्षित	-11.1417
▁व्यायाम	-11.1417
▁vertical	-11.1418
▁interview	-11.1418
▁गाँधीजी	-11.1418
▁वार्ता	-11.1418
▁मोर	-11.1423
hur	-11.1424
▁पद्म	-11.1425
▁हाई	-11.1429
▁दुसर	-11.143
▁eu	-11.1435
▁merc	-11.1437
वाद्य	-11.1439
दायक	-11.1439
▁aspects	-11.144
▁उठाया	-11.1441
▁seller	-11.1441
ken	-11.1443
▁(-)	-11.1447
▁brothers	-11.1447
98	-11.1448
▁essentially	-11.1449
▁साहित्यिक	-11.1451
▁possibility	-11.1464
▁नियन्त्रण	-11.1464
▁लाइसेंस	-11.1464
▁हज़रत	-11.1464
▁infrastructure	-11.1464
▁कौशल	-11.1464
▁सफलतापूर्वक	-11.1466
▁मास्टर्स	-11.1466
▁परंपरागत	-11.1467
▁jump	-11.1467
▁din	-11.1468
▁adding	-11.1468
▁प्रदूषक	-11.147
▁अपरि	-11.1471
pot	-11.1478
सन्धि	-11.148
▁employed	-11.148
▁बाँट	-11.1482
lated	-11.1485
▁meat	-11.1492
रुण	-11.1494
आप	-11.1494
▁bak	-11.1496
रक्त	-11.1502
▁afghan	-11.151
▁यमुना	-11.151
▁विकलांग	-11.151
स्फीति	-11.151
▁brown	-11.151
▁दाखिल	-11.151
▁thick	-11.151
▁मेहनत	-11.151
▁होंगी	-11.1511
▁गर्भाशय	-11.1511
▁1930	-11.1513
▁फारसी	-11.1515
▁निकले	-11.1521
▁कार्यक्रमों	-11.1522
box	-11.1523
विज्ञानी	-11.1524
▁spoken	-11.1524
▁अन्यथा	-11.1528
▁kur	-11.1529
▁दायर	-11.1531
बुल	-11.1532
▁finished	-11.1537
▁contra	-11.1539
▁paul	-11.1543
▁प्रिंटर	-11.1545
07	-11.1548
▁gall	-11.1552
▁slip	-11.1552
▁संज्ञा	-11.1554
▁दीपावली	-11.1557
▁exceed	-11.1557
▁programming	-11.1557
▁किशोर	-11.1557
▁अतीत	-11.1557
▁पश्चात्	-11.1558
▁crash	-11.1558
▁wound	-11.1558
▁talent	-11.1558
▁स्टै	-11.1559
▁मुज्ह	-11.1559
▁उल्लेखनीय	-11.1559
▁household	-11.1559
▁assert	-11.156
▁listening	-11.1562
▁भव्य	-11.1566
▁flash	-11.1566
▁representatives	-11.1567
▁राहत	-11.1568
▁पशुओं	-11.1569
95	-11.1569
▁acquired	-11.157
▁तुर्क	-11.1574
▁extract	-11.1578
▁आघात	-11.158
▁अर्थात्	-11.1583
चलन	-11.1583
▁सिख	-11.1586
▁फ़ि	-11.1586
▁सहन	-11.1589
▁इस्लामिक	-11.1594
▁खेला	-11.1595
▁ढक	-11.1595
88	-11.1597
▁मस्त	-11.1601
▁configure	-11.1604
▁कटौती	-11.1604
▁प्रशासक	-11.1604
▁statistics	-11.1604
▁operator	-11.1604
▁केंद्रित	-11.1604
▁smile	-11.1605
▁सकने	-11.1609
▁चमड़	-11.1611
▁suggestion	-11.1611
▁equality	-11.1613
▁pap	-11.1614
▁विचित्र	-11.1616
▁trick	-11.1617
▁saha	-11.1619
▁skills	-11.162
▁निकालना	-11.162
▁विषम	-11.1624
वृति	-11.1625
▁सत	-11.1628
▁canada	-11.163
▁मुक्ति	-11.163
▁observe	-11.1632
गुल	-11.1633
▁ताप	-11.1633
will	-11.1634
▁२५	-11.1636
bid	-11.1637
▁notification	-11.165
हाँ	-11.165
▁pit	-11.165
▁complicated	-11.1651
▁jawaharlal	-11.1651
▁आशंका	-11.1651
▁गुम्बद	-11.1651
▁mutual	-11.1651
▁पंडित	-11.1651
▁patriot	-11.1651
तिहाई	-11.1651
खु	-11.1652
▁ऊँचाई	-11.1656
▁components	-11.1661
▁manual	-11.1661
▁login	-11.1665
▁personality	-11.1668
▁अपेक्षाकृत	-11.1671
▁recommended	-11.1671
scence	-11.1674
▁लाना	-11.1676
ette	-11.1679
▁exit	-11.168
▁sperm	-11.1681
▁जता	-11.1681
▁भरने	-11.1682
▁mixed	-11.1683
▁पैरा	-11.1685
▁mills	-11.1686
▁laugh	-11.1688
▁रहेगी	-11.1689
▁suffered	-11.1689
▁जिम्मेदारी	-11.1697
▁aging	-11.1697
▁kolkata	-11.1698
▁signature	-11.1698
▁टाइम्स	-11.1698
mail	-11.1699
▁depict	-11.1699
▁arrangement	-11.1699
▁सतर्क	-11.1699
▁स्पर्श	-11.17
▁समूच	-11.17
▁चर्च	-11.17
▁चढ़ा	-11.17
▁फूट	-11.1701
भेद	-11.1701
▁lone	-11.1702
ौं	-11.1703
▁pool	-11.1707
▁judgement	-11.1707
▁नकदी	-11.1713
▁व्यक्तित्व	-11.1716
प्रदेश	-11.1722
पास	-11.1725
कंद	-11.1726
1%	-11.1726
▁१९३	-11.1728
ogue	-11.1733
headed	-11.1734
▁math	-11.174
▁बचे	-11.1741
▁मंड	-11.1745
▁300	-11.1745
▁victim	-11.1746
▁bangladesh	-11.1746
▁आकस्मिक	-11.1746
▁superior	-11.1746
▁victims	-11.1746
▁पंचांग	-11.1747
▁precious	-11.1749
▁भरपूर	-11.175
▁reverse	-11.1752
पन्न	-11.1752
ग्राम	-11.1753
krishna	-11.1757
▁hydro	-11.1757
▁इंटर	-11.1758
3)	-11.1758
२००	-11.1759
चारी	-11.1763
▁gases	-11.1764
▁बेचने	-11.1769
▁constituted	-11.177
▁ordered	-11.1772
फोन	-11.1779
▁wake	-11.1784
▁assess	-11.1792
▁analys	-11.1792
▁जनक	-11.1793
▁absorb	-11.1794
▁hazard	-11.1794
▁passenger	-11.1794
▁पाषाण	-11.1794
▁guidance	-11.1794
▁डेटाबेस	-11.1794
▁behalf	-11.1794
▁resort	-11.1794
▁सुपर	-11.1794
कृमि	-11.1795
▁arrangements	-11.1795
▁shortcut	-11.1795
▁serial	-11.1796
▁tourism	-11.1798
▁स्कूलों	-11.18
▁वर्गों	-11.1804
▁crops	-11.1805
पाट	-11.1805
▁attract	-11.1807
▁construct	-11.181
▁pace	-11.1812
▁सुविधाओं	-11.1815
▁दृढ़	-11.1815
wit	-11.1816
▁इंकार	-11.1818
विद्	-11.1821
▁engage	-11.1823
▁cop	-11.1829
▁शेयरों	-11.183
kka	-11.183
▁provider	-11.1832
▁अंकित	-11.1837
oop	-11.1839
▁विरासत	-11.1842
▁gnome	-11.1842
▁आरोग्य	-11.1842
▁स्वप्न	-11.1842
▁भरोसा	-11.1842
▁अवकाश	-11.1842
▁खूब	-11.1842
▁आज़ाद	-11.1843
▁divine	-11.1843
▁1960	-11.1845
▁लिखना	-11.1846
▁आप्रवास	-11.1846
▁पौंड	-11.1846
▁सूजन	-11.1848
▁plum	-11.185
▁दाँत	-11.185
▁एशियाई	-11.1856
▁oldest	-11.1859
हरण	-11.1866
▁छेद	-11.1866
्स्	-11.1867
▁पाठ्य	-11.1874
▁आखिरी	-11.188
▁पतन	-11.1883
▁अंगों	-11.189
▁प्रतिष्ठित	-11.189
▁मुद्दों	-11.189
▁अशोक	-11.189
▁सुन्दर	-11.189
▁properties	-11.1891
▁goat	-11.1893
▁तराश	-11.1893
▁bigger	-11.1893
▁preach	-11.1894
▁implementation	-11.1894
▁आदर	-11.1895
▁हिन्द	-11.1899
▁बढ़ता	-11.1899
▁stat	-11.19
▁प्रयोगशाला	-11.19
▁पृ	-11.1903
रेखा	-11.1905
▁मजदूर	-11.1912
▁ईस्ट	-11.1914
▁मिश्रित	-11.1915
▁sikh	-11.1915
▁gum	-11.1917
▁पत्रकार	-11.1926
▁mega	-11.1926
▁सलाहकार	-11.1928
खण्ड	-11.1931
▁दिखता	-11.1933
▁alcohol	-11.1939
▁एवोल्यूशन	-11.1939
▁भ्रूण	-11.1939
▁स्नायु	-11.1939
▁सफाई	-11.1939
▁कहानियाँ	-11.1939
▁गौतम	-11.1939
▁निबट	-11.1941
▁छेड़	-11.1942
▁लार	-11.1943
▁अधो	-11.1943
एच	-11.1945
▁टूल	-11.1946
▁लाखों	-11.1946
▁बड़ै	-11.1948
▁जुल	-11.1951
▁organized	-11.1952
▁सरदार	-11.1954
▁33	-11.1955
▁engaged	-11.1958
▁zo	-11.196
posed	-11.1964
▁खेलने	-11.1967
▁बेकार	-11.1967
▁अनाज	-11.197
वात	-11.197
▁regularly	-11.1974
युद्ध	-11.1976
▁adults	-11.1976
▁entrepreneur	-11.1976
▁telling	-11.1978
▁selling	-11.1981
▁सोचना	-11.1982
▁favor	-11.1987
▁condemn	-11.1987
▁constituent	-11.1987
▁devotee	-11.1987
▁stretch	-11.1987
▁कैबिनेट	-11.1987
▁विद्यार्थी	-11.1987
▁श्रीलंका	-11.1987
▁सर्वप्रथम	-11.1987
▁क्रमादेश	-11.1987
▁relating	-11.1987
▁tongue	-11.1988
▁infant	-11.1988
▁कहानियों	-11.1988
▁thread	-11.1988
▁intercourse	-11.1988
▁guess	-11.1989
भद्र	-11.1989
▁awarded	-11.1991
▁core	-11.1995
▁समितियों	-11.1998
▁दर्जा	-11.2002
▁acceptable	-11.2002
गर्भ	-11.2003
▁रोमन	-11.2005
▁rabi	-11.2005
▁जगत	-11.2008
जीवी	-11.2008
ग्रहण	-11.2009
lok	-11.201
▁finish	-11.201
▁replace	-11.2023
▁रति	-11.2023
▁कार्यकारी	-11.2024
▁चोरी	-11.2026
▁educated	-11.2026
▁चलना	-11.2026
▁ह्	-11.2029
▁नमक	-11.203
▁flying	-11.2032
▁quit	-11.2033
कृतियों	-11.2036
▁buddhist	-11.2036
▁definite	-11.2036
▁prosecution	-11.2036
▁treasure	-11.2036
▁झिल्ली	-11.2036
▁random	-11.2037
▁किराया	-11.2037
▁beetle	-11.2037
▁gentle	-11.2037
▁submitted	-11.2038
▁digest	-11.204
काय	-11.204
▁सूचित	-11.2045
सिस	-11.2048
वाणी	-11.2055
▁printing	-11.2055
पोल	-11.2064
40	-11.2066
▁declare	-11.2067
▁ultimate	-11.2072
▁बां	-11.2075
कर्ष	-11.2078
▁punish	-11.2083
▁मध्यस्थ	-11.2083
▁header	-11.2083
▁आन्दोलन	-11.2086
▁ऊंची	-11.2086
▁खलीफा	-11.2086
▁डिजिटल	-11.2086
▁दुर्लभ	-11.2086
▁हनुमान	-11.2086
▁plot	-11.2086
▁समज्ह	-11.2086
▁silent	-11.2087
▁1991	-11.2087
▁trash	-11.2088
ल्यू	-11.2088
▁obligation	-11.2088
cular	-11.2091
▁amend	-11.2093
▁पर्यटक	-11.2096
▁कहें	-11.2098
आउट	-11.21
▁recognised	-11.21
▁पायी	-11.2101
▁तालिका	-11.2103
▁आगमन	-11.2103
ायत	-11.2105
▁जगहों	-11.2106
▁myth	-11.2107
टेड	-11.2111
्वेष	-11.2112
▁नाते	-11.2113
▁helpful	-11.2113
▁तं	-11.2119
kand	-11.2119
▁अपराधी	-11.212
▁जैव	-11.2121
rav	-11.2133
▁suspect	-11.2135
▁निर्वाचित	-11.2135
▁पूँजी	-11.2135
▁खगोल	-11.2135
▁madhya	-11.2135
▁twin	-11.2138
▁वरिष्ठ	-11.2138
▁वक्ष	-11.214
▁similarly	-11.2142
▁खाड़ी	-11.2145
▁पढ़ना	-11.2145
▁महीन	-11.2147
ाइज	-11.2155
▁dad	-11.2162
▁writ	-11.2167
▁युक़्त	-11.2168
▁बिन्दु	-11.217
जुल	-11.217
दंड	-11.2171
▁imported	-11.2171
▁bowling	-11.2172
▁friendly	-11.2175
जनन	-11.2179
▁interpret	-11.2181
▁recruit	-11.2185
▁tendulkar	-11.2185
▁एजेंसी	-11.2185
▁जबरदस्त	-11.2185
▁सौंदर्य	-11.2185
▁तिब्बत	-11.2185
▁खनिज	-11.2185
▁नदियाँ	-11.2185
▁सहारे	-11.2185
▁चेहरा	-11.2186
▁आशय	-11.2186
▁वाणिज्यिक	-11.2189
▁ऑफिस	-11.2189
sagar	-11.2191
▁झाड़	-11.2191
▁पहुंचे	-11.2194
िकाओं	-11.2194
▁fate	-11.2194
▁नाभि	-11.2196
▁mood	-11.2196
र्ल	-11.2197
▁rig	-11.2205
▁कब्र	-11.2207
▁ड़ाल	-11.2211
▁panic	-11.2215
▁निशान	-11.2228
▁aircraft	-11.2235
▁devanagari	-11.2235
▁exclusive	-11.2235
▁prescribed	-11.2235
▁smooth	-11.2235
▁lymph	-11.2235
▁interrupt	-11.2235
▁सहानुभूति	-11.2235
▁महाद्वीप	-11.2236
▁अग्रणी	-11.2236
▁regulations	-11.2237
▁1992	-11.2237
▁1997	-11.2237
▁उपयुक़्त	-11.2238
▁tough	-11.224
▁slightly	-11.2245
▁वैसा	-11.2246
▁presidential	-11.2249
▁किरण	-11.2249
▁translated	-11.2253
▁turning	-11.2254
▁चिह्नित	-11.2256
card	-11.2258
मिति	-11.226
▁परजीवी	-11.2277
▁java	-11.2279
▁integrated	-11.2285
▁स्मरण	-11.2285
▁heritage	-11.2285
▁संचरण	-11.2285
▁नींव	-11.2285
▁dialog	-11.2285
▁biological	-11.2287
▁लगाये	-11.229
▁विभेद	-11.229
▁इकट्ठा	-11.2292
▁पाकिस्तानी	-11.2294
ञ्च	-11.2297
शाखाओं	-11.2297
▁कमान	-11.2299
▁नाल	-11.23
▁obviously	-11.2301
निवेश	-11.2303
claim	-11.2304
46	-11.2307
narayan	-11.2313
shta	-11.2317
▁ब्रे	-11.2322
▁क्व	-11.2324
▁rail	-11.2329
थान	-11.2332
▁loved	-11.2335
head	-11.2335
rick	-11.2335
▁explanation	-11.2336
▁suicide	-11.2336
▁liberation	-11.2336
▁gupta	-11.2336
▁shelter	-11.2336
▁आकर्षक	-11.2336
▁flex	-11.2336
▁silver	-11.2336
▁प्रसंग	-11.2336
▁अधिष्ठा	-11.2336
▁clock	-11.234
▁sharing	-11.234
पुष्ट	-11.2343
▁curve	-11.2344
▁लटक	-11.235
▁पोत	-11.2351
▁फॉर	-11.2353
▁jaw	-11.2356
▁सीडी	-11.2357
▁प्रण	-11.236
चालित	-11.2361
▁charter	-11.2363
▁शुभ	-11.2364
▁चित्रण	-11.2365
▁eating	-11.2366
more	-11.2368
▁nationalism	-11.2368
राइड	-11.2378
▁सम्बंध	-11.238
▁rash	-11.2381
▁वास्तु	-11.2386
▁caught	-11.2387
▁consolidat	-11.2387
▁शाहजहाँ	-11.2387
▁सम्भावना	-11.2387
▁hyper	-11.2387
▁david	-11.2388
▁दिखाना	-11.2388
dhara	-11.2389
▁स्ट्रिंग	-11.239
▁हमास	-11.2391
▁interpretation	-11.2391
▁स्टोर	-11.2391
▁प्रतिलिपि	-11.2391
▁चुप	-11.2392
47	-11.2394
▁मक्का	-11.2395
▁पुस्तकों	-11.2396
vari	-11.2399
▁बढ़ावा	-11.24
▁pointed	-11.2401
▁स्कीम	-11.2402
▁ट्रेड	-11.2402
▁हथियारों	-11.2402
▁अस्	-11.2405
▁hinduism	-11.2406
▁हिट	-11.2412
संघ	-11.2412
्रेट	-11.2417
▁sati	-11.2418
▁rag	-11.242
▁प्रसन्न	-11.242
▁detail	-11.2423
▁दौरा	-11.2424
▁नाप	-11.2425
▁टाल	-11.2426
▁nasa	-11.243
▁ब्रह्मा	-11.2432
कथा	-11.2435
▁acted	-11.2436
▁वाम	-11.2436
▁bureau	-11.2438
▁concentrate	-11.2438
▁इकाइयों	-11.2438
▁कतिपय	-11.2438
▁गवर्नर	-11.2438
▁विपणन	-11.2438
▁समुच्चय	-11.2438
▁कार्टून	-11.2438
▁cartoon	-11.2438
▁यहूदियों	-11.2438
▁जिहाद	-11.2438
▁greenhouse	-11.2438
▁alarm	-11.2439
▁धुंध	-11.2439
▁craft	-11.2439
▁copies	-11.2439
▁भक्त	-11.2439
▁attachment	-11.244
▁authentication	-11.244
▁पूर्णतया	-11.2441
▁संपादन	-11.2441
▁मुख्यालय	-11.2442
▁ऊन	-11.2442
▁possession	-11.2442
lick	-11.2446
दिवसीय	-11.2448
▁डै	-11.2449
▁affection	-11.245
▁बेटे	-11.245
▁सुविधाएं	-11.2451
win	-11.2453
▁मारने	-11.2455
स्ट्री	-11.2455
▁scholar	-11.2455
चरित	-11.2461
▁कैसा	-11.2462
▁सोचने	-11.2467
▁emp	-11.2468
▁बंग	-11.247
▁specimens	-11.247
▁pea	-11.2476
▁discovered	-11.2476
▁withdraw	-11.2482
▁discussed	-11.2482
▁token	-11.2488
▁colleague	-11.2489
▁कट्टरपंथी	-11.2489
▁योग़्य	-11.2489
▁जरिए	-11.2489
▁nokia	-11.2489
▁horizontal	-11.2489
▁भविष्यवाणी	-11.249
▁नहर	-11.2491
▁trace	-11.2491
▁kun	-11.2491
▁vol	-11.2494
▁tract	-11.2498
▁faster	-11.2499
▁seventh	-11.2505
व्यवस्था	-11.2506
▁वाक	-11.2507
राष्ट्रीय	-11.251
▁socialism	-11.2511
तुर	-11.2511
▁तरल	-11.2517
ऋति	-11.2517
▁खासकर	-11.2519
▁शाही	-11.2523
▁arjun	-11.2524
▁watching	-11.2526
▁बढ़ते	-11.2526
▁राह	-11.253
500	-11.2532
▁अड़	-11.2535
born	-11.2535
▁अहमद	-11.2538
▁faced	-11.2539
▁paying	-11.254
door	-11.254
ंद्र	-11.254
▁frequency	-11.254
▁immortal	-11.254
▁knock	-11.254
▁recognition	-11.254
▁मजिस्ट्रेट	-11.254
▁मद्रास	-11.254
▁fashion	-11.254
▁servant	-11.254
▁संबोधित	-11.254
▁assured	-11.254
▁kabul	-11.254
productname	-11.2541
▁अनुशासन	-11.2542
▁tiger	-11.2543
▁विश्वयुद्ध	-11.2543
▁statue	-11.2543
▁dread	-11.2544
▁planned	-11.2544
▁thin	-11.2544
जीवन	-11.2545
▁तीस	-11.2547
▁असीम	-11.2549
▁clothes	-11.2551
hot	-11.2551
▁सैनिकों	-11.2551
चय	-11.2552
▁चित्रों	-11.2554
▁काबुल	-11.2557
आम	-11.2562
▁बंट	-11.2565
▁साख	-11.2567
▁बही	-11.2573
नाशी	-11.258
▁addresses	-11.2585
bhu	-11.2585
▁nationalist	-11.2586
▁nam	-11.2589
काण्ड	-11.2589
गै	-11.2591
▁geographical	-11.2592
▁microsoft	-11.2592
▁participate	-11.2592
▁आक्रामक	-11.2592
▁ईंधन	-11.2592
▁महाराजा	-11.2592
▁indonesia	-11.2592
▁depth	-11.2592
मणि	-11.2593
▁सौदे	-11.2594
▁binary	-11.2597
▁assam	-11.2599
▁blog	-11.2601
▁कोशिकाएं	-11.2603
▁विलंब	-11.2603
▁गंध	-11.2604
▁indus	-11.2604
▁गोर	-11.2604
tell	-11.2606
▁overall	-11.2607
▁rapidly	-11.2608
▁chest	-11.261
▁रुख	-11.2611
दाय	-11.2612
▁समर्थ	-11.2614
▁वसूली	-11.2614
▁समाजवाद	-11.2616
▁node	-11.2617
▁logic	-11.262
▁शरण	-11.2625
▁prof	-11.2626
▁collected	-11.2626
▁मेरु	-11.2627
dhar	-11.2631
▁टिकट	-11.2638
▁भीतरी	-11.2639
▁सुनी	-11.2641
▁politicians	-11.2642
▁vegetable	-11.2644
▁battery	-11.2644
▁neglect	-11.2644
▁outlook	-11.2644
▁twelve	-11.2644
▁अस्पष्ट	-11.2644
▁धरोहर	-11.2644
▁प्रोफेसर	-11.2644
▁ramalinga	-11.2644
▁सिनेमा	-11.2644
▁हल्का	-11.2644
▁activate	-11.2645
▁instant	-11.2646
▁1970	-11.2646
▁रेशम	-11.2646
▁bookmark	-11.2647
▁पड़ोस	-11.2648
▁gaza	-11.2648
▁रामलिंग	-11.2648
▁सभापति	-11.2649
टिया	-11.265
▁classical	-11.265
▁प्रवर्तन	-11.2651
▁परिचित	-11.2652
▁gp	-11.2655
गुना	-11.2655
▁संयोग	-11.2656
▁rein	-11.2662
▁alien	-11.2667
▁अन्ध	-11.2667
▁fold	-11.267
genera	-11.267
▁electrical	-11.2671
▁capture	-11.2679
▁linga	-11.2681
▁तू	-11.2682
▁फ़ाइलें	-11.2687
▁scope	-11.2688
▁भाग्य	-11.2689
वाहिनी	-11.2693
▁precise	-11.2697
▁empower	-11.2697
▁mineral	-11.2697
▁लिखें	-11.2698
▁बहि	-11.2698
▁नरम	-11.2698
▁1939	-11.2699
▁ख़रीद	-11.2699
▁merit	-11.27
▁harmful	-11.27
▁archive	-11.2703
▁अंडमान	-11.2703
▁खपत	-11.2704
▁सर्प	-11.2704
▁nadu	-11.2705
▁नागरिकता	-11.2708
▁अतिथि	-11.271
▁खिला	-11.271
▁पुकार	-11.2713
▁स्टाफ	-11.2713
▁बुद्धिमान	-11.2715
plication	-11.2721
▁आधी	-11.2722
▁gap	-11.2723
▁emotion	-11.2726
नाशक	-11.2729
ँच	-11.2732
▁taste	-11.2734
mukh	-11.2737
▁impo	-11.2741
▁ग्रंथि	-11.2742
24	-11.2745
फोर	-11.2746
▁adjust	-11.2746
▁contemporary	-11.2749
▁outstanding	-11.2749
▁summary	-11.2749
▁voluntary	-11.2749
▁compound	-11.2749
▁sentiment	-11.2749
▁करुणा	-11.2749
▁वितरित	-11.2749
▁उदयपुर	-11.275
▁diwali	-11.275
▁restart	-11.2752
▁creative	-11.2752
▁1948	-11.2752
▁चलचित्र	-11.2753
▁difficulties	-11.2757
▁सांसद	-11.2758
▁settled	-11.2767
मोहन	-11.2768
▁upset	-11.2769
चन्द्र	-11.277
stream	-11.277
▁गेंदबाजी	-11.2771
▁bench	-11.2776
▁depending	-11.2778
arth	-11.278
▁revealed	-11.2786
▁केरल	-11.2789
रूम	-11.2791
▁covering	-11.2792
▁अंडे	-11.2799
▁नोक	-11.2801
fit	-11.2801
▁abnormal	-11.2802
▁conspiracy	-11.2802
▁extraordinary	-11.2802
▁mortgage	-11.2802
▁nervous	-11.2802
▁pocket	-11.2802
▁क्रेडिट	-11.2802
▁okay	-11.2803
▁नम्बर	-11.2803
▁आश्चर्यजनक	-11.2803
▁1989	-11.2804
▁नोकिया	-11.2805
▁आँक	-11.2806
▁anywhere	-11.2806
▁approximately	-11.2808
hap	-11.2808
vali	-11.2808
▁क्षमा	-11.281
hri	-11.2811
▁intended	-11.2816
▁गणेश	-11.2816
▁देनी	-11.2818
▁recall	-11.2822
पुराण	-11.2823
▁http	-11.2824
▁लूट	-11.2832
विश्व	-11.2833
▁समस्याएं	-11.2833
▁तेज़	-11.2833
▁mess	-11.2837
मध्य	-11.2838
▁राजाओं	-11.2838
▁नारायण	-11.2843
▁wire	-11.2844
▁syria	-11.2845
पर्व	-11.2849
hearted	-11.2849
▁organic	-11.285
▁exploit	-11.2851
▁चांद	-11.2851
▁historic	-11.2854
responsibilities	-11.2855
▁tajmahal	-11.2855
▁yesterday	-11.2855
▁अद्भुत	-11.2855
▁इलेक्ट्रॉनिक	-11.2855
▁खुफिया	-11.2855
▁चालुक़्य	-11.2855
▁लाहौर	-11.2855
▁आमंत्रित	-11.2855
▁frank	-11.2855
▁अनुसरण	-11.2855
▁कैमरा	-11.2855
▁ornament	-11.2856
▁बंदरगाह	-11.2856
▁क्षतिपूर्ति	-11.2856
▁युग्म	-11.2856
▁mixture	-11.2856
▁सम्भव	-11.2856
▁मंत्रियों	-11.2857
▁घंटा	-11.2857
▁शिक्षित	-11.2857
ैंट	-11.2858
▁unfortunately	-11.2861
▁आंत्र	-11.2862
▁offline	-11.2863
कुंज	-11.2865
▁frequently	-11.2867
▁assumed	-11.2871
▁इंद्र	-11.2871
▁pillar	-11.2872
amba	-11.2873
▁उच	-11.2874
चिकित्सा	-11.2877
▁appoint	-11.2877
▁broke	-11.2879
▁ताक	-11.2883
▁तुम्हार	-11.2886
▁encouraged	-11.2889
▁नर्स	-11.2889
▁mango	-11.2892
▁buying	-11.2893
▁alive	-11.2894
▁हुईं	-11.2895
▁बोझ	-11.2896
▁mari	-11.2898
▁मानवता	-11.2898
▁पीने	-11.2901
सूर	-11.2903
▁बांस	-11.2905
▁लक्षणों	-11.2905
49	-11.2905
▁numerous	-11.2909
▁troops	-11.2909
▁गोपनीय	-11.2909
▁कप्तान	-11.2909
▁variable	-11.2909
▁climb	-11.2909
▁व्याकरण	-11.291
▁attraction	-11.2913
▁raising	-11.2913
थ्र	-11.2913
▁सचिन	-11.2913
▁नोटिस	-11.2913
▁distinction	-11.2914
▁represented	-11.2914
▁इस्लामवादियों	-11.2915
▁पॉ	-11.2915
▁विशेषाधिकार	-11.2917
▁जैविक	-11.2917
▁अन्तः	-11.292
▁ओह	-11.292
▁पडा	-11.2926
▁treaty	-11.2929
▁विचारण	-11.2929
▁testing	-11.293
▁restrict	-11.2935
rut	-11.2937
▁उपलब्धि	-11.2937
▁लक्ष	-11.2937
स्टा	-11.2938
▁समझता	-11.2939
ाचार	-11.2939
▁मुड़	-11.294
▁तथ्यों	-11.2945
▁rejected	-11.2949
▁जाओ	-11.2953
▁चलती	-11.2956
▁शौ	-11.2961
▁जंगली	-11.2961
▁corn	-11.2962
▁coalition	-11.2963
▁compromise	-11.2963
▁quantity	-11.2963
▁यूट्यूब	-11.2963
▁हालाँकि	-11.2963
▁परिपक्व	-11.2963
▁ज्ञापन	-11.2963
▁kidney	-11.2963
▁monkey	-11.2963
▁अफसर	-11.2964
▁रचनात्मक	-11.2965
▁consequences	-11.2969
▁सहकारी	-11.297
▁consent	-11.297
▁bid	-11.2976
▁स्तंभों	-11.2977
▁shore	-11.2978
▁rarely	-11.2985
▁involves	-11.2989
▁डालने	-11.299
▁ग्राहकों	-11.2997
▁विकार	-11.3002
▁टुकड	-11.3004
▁गले	-11.3006
▁बज	-11.3006
▁सबके	-11.3007
▁panda	-11.3007
▁अथ	-11.3013
▁enhance	-11.3017
▁fifty	-11.3017
▁easier	-11.3017
▁extensive	-11.3017
▁कॉन्फ़िगर	-11.3017
▁नजदीक	-11.3017
▁circular	-11.3017
▁tibet	-11.3017
▁विलियम	-11.3018
▁1984	-11.3018
▁युवक	-11.3018
▁मरीज	-11.3019
▁nose	-11.302
▁italy	-11.3022
▁मुख्यतः	-11.3023
पायर	-11.3025
▁अरुण	-11.3025
jee	-11.3027
▁वात	-11.3029
▁deeply	-11.303
▁संकर	-11.3031
▁विफलः	-11.3031
▁tank	-11.3032
▁sept	-11.3033
▁चिप	-11.3033
▁गिल	-11.3035
ोसिस	-11.3036
▁फुफ्फुस	-11.3036
▁नली	-11.304
▁तथापि	-11.304
वृद्धि	-11.304
व्यय	-11.3045
hindi	-11.3045
▁आंकड़	-11.3047
▁emerge	-11.3052
पेशी	-11.3052
कार्ड	-11.3053
▁examine	-11.3054
न्ग	-11.3063
▁मुझ	-11.3063
▁समझे	-11.307
▁मुस	-11.307
▁preparation	-11.3071
▁अमेरिकन	-11.3071
▁bahadur	-11.3071
▁merchant	-11.3071
▁worst	-11.3071
▁बैटरी	-11.3071
▁truly	-11.3071
▁अणु	-11.3072
▁समायोजन	-11.3072
▁वर्ल्ड	-11.3072
▁interval	-11.3075
ंदर	-11.3076
००००	-11.3076
ंतु	-11.3082
▁fulfill	-11.3082
▁sect	-11.3083
▁संकलक	-11.3084
इए	-11.3086
▁hol	-11.3088
▁producer	-11.3088
▁ध्रुव	-11.3089
▁लोकल	-11.309
मण्डल	-11.3091
▁लेंगे	-11.3091
raja	-11.3092
खोर	-11.3092
▁रोका	-11.3101
▁inject	-11.3101
कुर	-11.3104
▁तैर	-11.3105
▁प्रलेख	-11.311
▁rush	-11.311
▁कैप	-11.3111
▁प्रशंस	-11.3116
▁प्लग	-11.3117
रोपण	-11.3118
ागार	-11.3119
▁सूचक	-11.3122
क्षिप्त	-11.3123
▁अष्ट	-11.3123
स्वरुप	-11.3124
▁क़्यों	-11.3125
▁consequent	-11.3126
▁चुंबकीय	-11.3126
▁नमूनों	-11.3126
▁समुचित	-11.3126
▁सर्वोत्तम	-11.3126
▁globe	-11.3126
▁भृंग	-11.3126
▁sultan	-11.3126
▁peasant	-11.3126
▁मेहराब	-11.3126
▁हिटलर	-11.3126
▁warrant	-11.3127
▁tie	-11.3128
▁bread	-11.3128
▁adjustment	-11.3129
▁अऑफ	-11.3131
aba	-11.3133
▁माइ	-11.3133
▁भ्रमण	-11.3134
▁brick	-11.3134
▁कवियों	-11.3135
▁ताजा	-11.3138
▁वामपंथी	-11.3141
▁captured	-11.3146
▁उपज	-11.3151
▁उग	-11.3152
कोट	-11.3159
▁छिद्र	-11.316
uddin	-11.3163
▁ok	-11.3165
▁दशकों	-11.3168
▁जटिलता	-11.3171
▁urge	-11.3173
▁इंजीनियर	-11.3178
▁conscious	-11.3178
▁marginal	-11.3179
▁herself	-11.3181
▁pallava	-11.3181
▁अध्यापक	-11.3181
▁स्नातक	-11.3181
▁kerala	-11.3181
▁नियंत्रक	-11.3181
▁राजपूत	-11.3181
▁धीमी	-11.3181
▁worried	-11.3181
▁alleged	-11.3181
▁मंजिल	-11.3181
▁trait	-11.3181
▁citizenship	-11.3181
▁everywhere	-11.3182
▁वोट	-11.3187
▁इराद	-11.3188
▁चौथा	-11.3188
▁brand	-11.3188
▁fool	-11.3189
▁measurement	-11.3189
▁शक्तियां	-11.3191
▁congo	-11.3193
▁मश	-11.3194
ule	-11.3194
्था	-11.3195
▁कालेज	-11.3197
▁हटाना	-11.3201
▁फंस	-11.3202
▁printed	-11.3203
▁beach	-11.3204
jit	-11.3205
सिया	-11.3214
मात्र	-11.3215
▁verse	-11.3215
70	-11.3215
▁initially	-11.3216
▁जोड़ी	-11.3216
▁karna	-11.3219
lude	-11.3224
▁verma	-11.3227
▁साक्ष	-11.3229
▁humanity	-11.323
▁functioning	-11.323
▁considering	-11.3233
▁बनवा	-11.3235
▁emphasis	-11.3236
▁execution	-11.3236
▁imagination	-11.3236
▁impression	-11.3236
▁नियोक्ता	-11.3236
▁लोकतांत्रिक	-11.3236
▁यूनियन	-11.3236
▁जोधपुर	-11.3236
▁पसंदीदा	-11.3236
▁संवेदना	-11.3236
▁loyal	-11.3236
▁सारांश	-11.3237
▁hardware	-11.3237
▁adverse	-11.3237
▁स्कैन	-11.3238
▁यूनिकोड	-11.3239
ढे	-11.324
▁संभवतः	-11.324
▁विवश	-11.3244
plasm	-11.3247
▁शास्त्रीय	-11.3247
print	-11.3248
▁न्यायाधीशों	-11.3249
क्रिय	-11.325
श्लेष	-11.325
▁naturally	-11.3252
▁distinguished	-11.3256
▁मनाया	-11.3257
▁खुर	-11.3259
सूत्र	-11.326
सिद्ध	-11.3262
▁मोती	-11.3263
▁आंखों	-11.3265
▁गैसों	-11.3267
घट	-11.3268
▁देगी	-11.3275
▁दाँतों	-11.3282
▁dear	-11.3282
▁65	-11.3286
▁वेस्ट	-11.3286
▁convict	-11.3288
▁indirect	-11.3289
▁आपत्ति	-11.3289
िणी	-11.329
▁descend	-11.3291
▁territories	-11.3291
▁ticket	-11.3291
▁गंतव्य	-11.3291
▁तृतीय	-11.3291
▁monsoon	-11.3291
▁pillow	-11.3291
▁pulse	-11.3291
▁अकेला	-11.3292
▁सिवाय	-11.3292
▁साहब	-11.3292
▁ख़ुद	-11.3292
▁सपने	-11.3292
▁मन्दिर	-11.3292
▁monetar	-11.3293
▁सत्यापन	-11.3293
▁binding	-11.3293
पट्टी	-11.3294
▁liability	-11.3294
्हीं	-11.3294
▁बेशक	-11.3294
▁guilty	-11.3295
▁इधर	-11.3302
▁चाहेंगे	-11.3303
▁बनती	-11.3303
93	-11.3306
fr	-11.3316
▁blame	-11.332
worth	-11.3321
चालक	-11.3321
▁cock	-11.3326
▁tala	-11.3327
▁चाहें	-11.3328
▁कार्यकाल	-11.3328
▁translate	-11.3329
▁रोड	-11.3329
▁ग्रेट	-11.3335
▁lease	-11.3342
चक्र	-11.3344
सम्मत	-11.3345
▁immigration	-11.3347
▁एप्लिकेशन	-11.3347
▁कूटनीति	-11.3347
▁संप्रदाय	-11.3347
▁सरस्वती	-11.3347
▁tomorrow	-11.3347
▁दुबारा	-11.3347
▁उच्चारण	-11.3347
▁प्राधिकृत	-11.3347
▁snake	-11.3347
▁स्त्रियों	-11.3347
▁virgin	-11.3348
▁शोषण	-11.3348
क्रीड़ा	-11.3349
▁hitler	-11.335
▁समग्र	-11.3351
निधि	-11.3351
▁turk	-11.3354
▁उतऋ	-11.3357
▁तरंग	-11.3357
▁फिलीस्तीन	-11.3362
सहाय	-11.3363
▁देखो	-11.3363
▁कतार	-11.3365
▁examined	-11.3367
देख	-11.3368
▁replaced	-11.3369
▁रथ	-11.337
▁usb	-11.3373
▁repeat	-11.3375
शाखा	-11.3385
▁चंद	-11.3388
▁settle	-11.3391
टेल	-11.3398
▁concentration	-11.3403
▁enemies	-11.3403
▁smoking	-11.3403
▁घोड़े	-11.3403
▁पूछताछ	-11.3403
▁माफ	-11.3404
▁पल्लव	-11.3404
▁indira	-11.3404
▁modified	-11.3404
▁rajput	-11.3405
▁अनुभूति	-11.3406
ट्ठा	-11.3407
▁प्रत्य	-11.3407
▁नींद	-11.3408
▁समकालीन	-11.3408
यॉ	-11.341
▁संक्रिया	-11.341
▁बेहतरीन	-11.3411
▁जार्ज	-11.3415
▁patel	-11.3415
100	-11.3416
▁पड़ने	-11.3419
▁realised	-11.3428
िष्ठ	-11.3428
र्इ	-11.3428
▁दूत	-11.3429
▁thereby	-11.3431
▁पावर	-11.3431
▁बनते	-11.3436
▁associate	-11.3441
▁उगा	-11.345
▁drinking	-11.3457
▁tight	-11.3458
▁अप्रत्याशित	-11.346
▁क्यूंकि	-11.346
▁मकसद	-11.346
▁लॉन्च	-11.346
▁कचरा	-11.346
▁outcome	-11.346
▁लेखापरीक्षा	-11.346
▁समीप	-11.3461
▁मार्गदर्शन	-11.3461
▁दैव	-11.3461
89	-11.3462
▁theatre	-11.3463
▁resist	-11.3464
▁bold	-11.3469
▁लायक	-11.347
▁tower	-11.3472
▁कॉम	-11.3472
▁बुरे	-11.3472
read	-11.3473
▁sms	-11.3474
▁पराग	-11.3479
▁emerged	-11.348
▁recording	-11.3482
▁शह	-11.3483
▁अटल	-11.3487
▁vai	-11.3489
▁150	-11.3491
क्षमता	-11.3494
92	-11.3495
ग्रा	-11.3498
प्ले	-11.3499
▁marine	-11.3501
▁define	-11.3502
▁surrounding	-11.3502
▁नाव	-11.3504
▁desired	-11.3505
िंद	-11.3508
▁kid	-11.3508
▁प्रतिमा	-11.3509
▁२२	-11.351
iety	-11.351
▁enforce	-11.3514
▁bacchan	-11.3517
▁earliest	-11.3517
▁illustrat	-11.3517
▁oxygen	-11.3517
▁किलोग्राम	-11.3517
▁त्वरित	-11.3517
▁दुश्मन	-11.3517
▁संप्रतीक	-11.3517
▁हुसैन	-11.3517
▁मौके	-11.3517
▁inflation	-11.3517
▁dividend	-11.3518
▁tiru	-11.3519
िर्	-11.3526
▁गऋ	-11.3526
▁उधर	-11.3527
▁chart	-11.3529
▁ताम	-11.3534
▁bombing	-11.3539
posing	-11.354
राष्ट्र	-11.354
▁corporate	-11.3543
▁seeking	-11.3547
▁चिर	-11.3549
flu	-11.3556
▁जादा	-11.356
▁डालना	-11.3561
▁वृद्ध	-11.3572
▁widget	-11.3574
▁अनिश्चित	-11.3574
▁मनोरंजन	-11.3574
▁उपेक्षा	-11.3574
▁स्तूप	-11.3574
▁पचास	-11.3574
▁पंजीकृत	-11.3574
▁ग़लत	-11.3575
▁considerably	-11.3576
▁लॉगिन	-11.3576
▁transferred	-11.3576
▁submit	-11.3578
▁derived	-11.3582
▁बदलते	-11.3583
विकृति	-11.3585
▁जितने	-11.359
▁wonderful	-11.3592
▁कविताओं	-11.3593
}%	-11.3598
▁इनसे	-11.3599
▁करेंः	-11.3599
▁reward	-11.3599
▁अधिकृत	-11.36
▁दंग	-11.3602
निर्देश	-11.3604
▁36	-11.3605
▁अस्त्र	-11.3607
▁लगाते	-11.3618
▁दुष्	-11.3623
oj	-11.3623
▁जुट	-11.3628
▁प्रोट	-11.3631
▁esc	-11.3631
▁elaborate	-11.3631
▁html	-11.3631
▁उत्तेजित	-11.3631
▁पब्लिक	-11.3631
▁chromium	-11.3631
▁infinite	-11.3631
▁supplement	-11.3631
▁dutch	-11.3631
▁alphabet	-11.3631
▁अभिनय	-11.3632
▁ग्रीवा	-11.3632
uz	-11.3632
▁initiative	-11.3633
▁enforcement	-11.3634
▁सॉ	-11.3636
▁riot	-11.3637
▁commit	-11.3638
▁commander	-11.3639
col	-11.3639
ogen	-11.3639
▁डु	-11.364
▁धूम	-11.3641
▁करवाया	-11.3641
▁ultimately	-11.3647
▁मकबरा	-11.3653
▁टोकन	-11.3664
▁अपार	-11.3664
▁rap	-11.3667
डऋआ	-11.3673
▁छुपा	-11.3677
▁osteo	-11.368
▁बैक	-11.3684
▁arbitra	-11.3688
▁afraid	-11.3689
▁counsel	-11.3689
▁imprisonment	-11.3689
▁पौराणिक	-11.3689
▁शृंखला	-11.3689
▁शॉर्टकट	-11.3689
▁स्थानांतरित	-11.3689
▁disaster	-11.3689
▁चिंतित	-11.3689
▁भयानक	-11.3689
▁धमकी	-11.3689
▁नरेंद्र	-11.369
▁मास्टर	-11.369
▁प्लेयर	-11.369
▁verbal	-11.369
▁अर्द्ध	-11.3692
▁कमीशन	-11.3696
pher	-11.3697
▁darkness	-11.37
▁imposed	-11.3703
▁प्रिंट	-11.3704
ियस	-11.3705
▁किताबें	-11.3706
क्यू	-11.3707
▁shame	-11.3708
esis	-11.3708
▁auditor	-11.3714
फोर्ड	-11.3719
▁शाल	-11.3729
otomy	-11.3729
▁मैनें	-11.373
बदल	-11.3731
स्का	-11.3737
▁specialist	-11.3737
सीसी	-11.3738
▁seriously	-11.3739
▁रौ	-11.374
मंत्री	-11.3742
▁वाच	-11.3745
विच	-11.3746
▁creature	-11.3747
▁subordinate	-11.3747
▁surrender	-11.3747
▁upanishad	-11.3747
▁स्वामित्व	-11.3747
▁dominant	-11.3747
▁इंदिरा	-11.3747
▁घुड़सवार	-11.3747
▁distress	-11.3747
▁अपलोड	-11.3747
लक्ष्मी	-11.3748
▁shopping	-11.3749
▁wireless	-11.3749
▁पंजी	-11.375
▁reaching	-11.3751
▁ंं	-11.3754
बाज़ी	-11.376
▁entering	-11.3762
कंटक	-11.3762
far	-11.3764
▁प्रक्रियाओं	-11.3765
▁नलिका	-11.3766
rush	-11.3767
▁आंत	-11.3771
▁संगत	-11.3771
▁shiv	-11.3776
▁कलाम	-11.3779
युग	-11.3781
▁अवस्थित	-11.3781
▁आँखों	-11.3782
▁cair	-11.3783
▁मकबर	-11.3784
ought	-11.3788
▁वृहत	-11.379
▁realise	-11.3793
▁barb	-11.3798
▁गौ	-11.3801
▁anger	-11.3802
▁spending	-11.3803
▁निशा	-11.3805
▁messenger	-11.3806
▁satisfied	-11.3806
▁significance	-11.3806
▁thorough	-11.3806
▁धूम्रपान	-11.3806
▁न्यूयार्क	-11.3806
▁fabric	-11.3806
▁strategic	-11.3806
▁restrain	-11.3806
▁ग्रुप	-11.3806
▁परिदृश्य	-11.3806
▁premium	-11.3807
▁crossing	-11.3807
▁अर्जित	-11.3807
▁copper	-11.3807
▁वाहक	-11.3808
▁odd	-11.3808
▁प्रविष्ट	-11.3809
▁shake	-11.3809
flow	-11.3809
▁प्रदाता	-11.3816
▁absolutely	-11.3833
▁निकला	-11.3835
▁mul	-11.3838
▁निपटान	-11.3838
▁fur	-11.3838
▁employee	-11.384
ात्मा	-11.384
▁modest	-11.3841
▁incomplete	-11.3842
ister	-11.3843
उद	-11.3855
▁confident	-11.3865
▁comparison	-11.3865
▁perspective	-11.3865
▁qualities	-11.3865
▁स्वायत्त	-11.3865
▁amazing	-11.3865
▁lahore	-11.3865
▁दुग्ध	-11.3865
▁confined	-11.3865
▁explore	-11.3865
▁sachin	-11.3865
▁शुक्राणु	-11.3865
▁बताये	-11.3866
▁पर्दा	-11.3867
ध्वंस	-11.3868
▁nec	-11.3869
▁संचय	-11.387
▁holder	-11.3872
प्राप्त	-11.3873
▁पूर्ववर्ती	-11.3878
▁1000	-11.3883
▁neo	-11.3884
▁चोर	-11.3891
नेवाले	-11.3893
▁abuse	-11.3893
त्याग	-11.3896
struck	-11.3901
▁तिलक	-11.391
▁defeated	-11.3916
▁मुय	-11.3919
▁concession	-11.3924
▁disciple	-11.3924
▁meanwhile	-11.3924
▁इंतजार	-11.3924
▁तीक्ष्ण	-11.3924
▁सूँघ	-11.3924
▁voting	-11.3924
ुद्दीन	-11.3924
लैंगिक	-11.3924
▁1945	-11.3925
▁भेदभाव	-11.3925
▁partnership	-11.3925
▁रवैय	-11.3925
▁residential	-11.3926
▁गौरव	-11.3926
▁सुदूर	-11.3926
▁contrary	-11.3926
▁reduction	-11.3926
▁protected	-11.3927
▁excessive	-11.3928
▁laden	-11.3929
▁निर्माताओं	-11.3932
▁बोलना	-11.3932
▁massive	-11.3933
▁प्राणियों	-11.3933
▁korea	-11.3935
▁trained	-11.3938
▁चार्ज	-11.3941
वंत	-11.3942
▁tiny	-11.3943
▁सूती	-11.3951
▁एकीकृत	-11.3952
75	-11.3956
▁आयाम	-11.3956
course	-11.3962
भाष	-11.3963
▁---	-11.3964
▁announce	-11.3964
▁experienced	-11.3967
vati	-11.3977
▁administer	-11.3983
▁exposure	-11.3983
▁valuable	-11.3983
▁आश्वासन	-11.3983
▁दुर्भाग्य	-11.3983
▁सॉफ़्टवेयर	-11.3983
▁मुंशी	-11.3983
▁computing	-11.3983
▁दीजिए	-11.3983
▁गिनती	-11.3983
▁crystal	-11.3983
▁अन्तिम	-11.3985
▁उपनिवेश	-11.3985
kul	-11.3988
▁assist	-11.3988
▁passion	-11.3998
▁निकास	-11.3999
▁ignored	-11.4
▁संग्रहण	-11.4006
▁बहती	-11.4008
khar	-11.4009
▁sixth	-11.401
▁बनकर	-11.4014
ाइज़	-11.4015
▁{0}	-11.4032
▁pond	-11.4033
▁बदलना	-11.4034
▁deleted	-11.4038
ानंद	-11.4039
▁applicable	-11.4043
▁arithmetic	-11.4043
▁enormous	-11.4043
▁enquiry	-11.4043
▁सिंचाई	-11.4043
▁संकीर्ण	-11.4043
▁essay	-11.4043
▁enclos	-11.4043
▁conquer	-11.4043
▁समेत	-11.4043
▁barrier	-11.4044
▁वर्तनी	-11.4044
▁shu	-11.4049
▁awareness	-11.4049
▁अर्थशास्त्र	-11.4051
▁यूनान	-11.4055
रक्षित	-11.4057
▁wishes	-11.4062
▁वस्तुत	-11.4065
▁deter	-11.4067
ांत्र	-11.4069
▁ego	-11.4075
▁uncle	-11.4075
▁१००	-11.4076
▁delivered	-11.4084
▁तेज़ी	-11.4084
▁लगाकर	-11.4085
liness	-11.4087
बैक	-11.4089
▁पहुँचे	-11.4094
▁सॉल्वैंट	-11.4103
▁federation	-11.4103
▁membrane	-11.4103
▁terrible	-11.4103
▁ubuntu	-11.4103
▁umpire	-11.4103
▁कर्नाटक	-11.4103
▁नकारात्मक	-11.4103
▁priest	-11.4103
▁राक्षस	-11.4104
▁smell	-11.4104
▁सटीक	-11.4104
▁वास्तुकला	-11.4104
▁plus	-11.4104
▁favorite	-11.4105
▁zoom	-11.4105
▁azad	-11.4105
▁homo	-11.4105
play	-11.4106
▁hole	-11.4106
▁गुज़र	-11.4107
▁abort	-11.4108
▁renew	-11.4109
▁स्वार्थ	-11.4109
▁द्रव्य	-11.411
▁उपभोग	-11.4111
▁nir	-11.4113
▁witnesses	-11.4114
▁छू	-11.4116
▁चूक	-11.4121
▁प्रतिबंधित	-11.4121
▁invited	-11.4123
मापी	-11.4126
▁लिखते	-11.413
chand	-11.4133
▁scheduled	-11.4138
field	-11.414
class	-11.4141
▁तप	-11.4142
▁invite	-11.4146
▁refuse	-11.4146
▁नाराज	-11.4146
▁jana	-11.4147
57	-11.4149
फिल	-11.4153
▁burma	-11.4157
mission	-11.4158
▁ज्वर	-11.416
▁बारीक	-11.4162
▁depression	-11.4164
▁irrigation	-11.4164
▁unexpected	-11.4164
▁अध्यादेश	-11.4164
▁अफ़्रीका	-11.4164
▁धैर्य	-11.4164
▁सृष्टि	-11.4164
▁eleven	-11.4164
▁sheikh	-11.4164
▁डेविड	-11.4164
▁प्रयाग	-11.4164
▁उदासीन	-11.4164
▁availability	-11.4164
▁parasite	-11.4164
▁उत्पत्ति	-11.4165
▁तैनात	-11.4165
flies	-11.4166
▁लाभांश	-11.4166
▁२००६	-11.4166
▁बिस्तर	-11.4167
▁append	-11.4168
▁आपातकाल	-11.4169
▁labor	-11.4174
▁दिखाता	-11.4174
▁रात्रि	-11.4175
▁sunni	-11.4177
▁लौटा	-11.4179
▁advised	-11.418
▁सकल	-11.4189
▁सीए	-11.4191
म्मा	-11.4191
▁prem	-11.4192
▁दिखने	-11.4193
▁भाषाएँ	-11.4196
▁दोस्तों	-11.4197
▁चलाना	-11.4198
▁रोज़	-11.4199
यात्रा	-11.4201
▁suck	-11.4207
water	-11.4207
awl	-11.4217
▁बाण	-11.4223
wali	-11.4224
▁phenomenon	-11.4225
▁removal	-11.4225
▁आश्वस्त	-11.4225
▁प्रोफ़ाइल	-11.4225
▁सर्वसाधारण	-11.4225
▁सख्त	-11.4225
▁स्टॉक	-11.4225
▁संस्कार	-11.4225
▁inscription	-11.4225
▁causing	-11.4225
▁oriented	-11.4225
▁begun	-11.4225
▁admission	-11.4226
▁श्रव्य	-11.4226
▁ledger	-11.4227
▁pride	-11.4227
32	-11.4227
▁पाउंड	-11.4227
▁racial	-11.4228
▁2010	-11.4228
▁टैक्स	-11.4228
▁shout	-11.423
▁minority	-11.423
▁bhakt	-11.4231
▁कूद	-11.4231
▁सीखना	-11.4231
डू	-11.4233
▁झाँ	-11.4234
▁उभार	-11.4236
लिपि	-11.4237
▁आगामी	-11.4241
▁उपयोगिता	-11.4242
▁क्षेत्रफल	-11.4243
▁सफर	-11.4245
▁requested	-11.4249
▁चालक	-11.4264
▁kalam	-11.4279
volu	-11.4281
▁rou	-11.4285
▁conservative	-11.4286
▁inevitable	-11.4286
▁miracle	-11.4286
▁suppress	-11.4286
▁hunger	-11.4286
▁स्थूल	-11.4286
▁mould	-11.4287
▁श्याम	-11.4287
type	-11.4288
▁चित्त	-11.4289
▁अवशेष	-11.429
▁इनकार	-11.4291
▁अभिकल्प	-11.4291
▁thereafter	-11.4293
▁salary	-11.4297
घाट	-11.4298
who	-11.4299
esvara	-11.43
▁प्रतिस्पर्धा	-11.4302
मेज	-11.4303
that	-11.4304
▁reign	-11.4304
▁प्रबंधित	-11.4305
▁बढाने	-11.4309
▁कुशलता	-11.431
▁relatively	-11.4319
▁increasingly	-11.4327
पुरुष	-11.4328
▁छोड़ने	-11.4332
तौर	-11.4337
ड्रो	-11.4338
▁headquarters	-11.4348
▁observation	-11.4348
▁presidency	-11.4348
▁गम्भीर	-11.4348
▁मलेरिया	-11.4348
napurna	-11.4348
▁चक्कर	-11.4348
▁हानिकारक	-11.4349
▁स्नेह	-11.4349
▁माहौल	-11.4349
अभिवादन	-11.435
▁crush	-11.4351
▁उपरांत	-11.4352
▁आँखें	-11.4352
▁संभोग	-11.4352
▁क्लास	-11.4354
▁surya	-11.4359
▁सीखा	-11.436
▁contained	-11.4361
ृष	-11.4368
▁फ्रेम	-11.4373
▁प्रगतिशील	-11.4375
▁dimension	-11.4379
्विक	-11.438
▁implemented	-11.4387
▁worm	-11.4391
▁generate	-11.4392
▁informed	-11.4395
▁मधुर	-11.4409
▁controversy	-11.441
▁fracture	-11.441
▁indigenous	-11.441
▁इन्टरनेट	-11.441
▁तानाशाह	-11.441
▁episode	-11.441
▁मामूली	-11.441
▁वाष्प	-11.441
▁व्यतीत	-11.441
▁अनियमित	-11.441
▁ह्रास	-11.441
▁अमान्य	-11.441
▁stroke	-11.441
▁dvd	-11.441
▁भीष्म	-11.441
▁अब्बास	-11.441
▁grammar	-11.4411
▁inspection	-11.4412
▁आंखें	-11.4414
▁malaria	-11.4415
▁कपड़ा	-11.4415
▁चिपका	-11.4416
▁400	-11.4418
▁पूति	-11.4418
▁patent	-11.4418
▁neph	-11.4419
वायर	-11.442
▁gita	-11.4422
▁exam	-11.4423
▁bhavan	-11.4423
▁iii	-11.4424
▁बल्ले	-11.4425
▁assigned	-11.4426
▁खिलाड	-11.4427
▁discovery	-11.4427
▁punjabi	-11.4431
▁dharma	-11.4434
▁निकलना	-11.4442
▁liver	-11.4444
▁दौरे	-11.4453
▁२६	-11.4454
▁ठंड	-11.4455
▁१०००	-11.4458
▁lesser	-11.4472
▁decorated	-11.4473
▁karnataka	-11.4473
▁दिसम्बर	-11.4473
▁निर्णायक	-11.4473
▁रिश्तेदार	-11.4473
▁उन्नयन	-11.4473
▁ठाकुर	-11.4473
▁बगैर	-11.4473
▁भूगोल	-11.4473
▁गठित	-11.4473
▁सिरे	-11.4473
▁copyright	-11.4474
▁earnings	-11.4474
▁dawn	-11.4474
▁अपहरण	-11.4475
▁kali	-11.4479
▁transformation	-11.4479
▁पटेल	-11.448
▁प्रक्षेप	-11.4481
जन्य	-11.4482
चर्म	-11.4483
▁घटिया	-11.4484
▁विकासशील	-11.4486
▁इमारतों	-11.4486
▁फर्म	-11.4487
▁naga	-11.4489
▁निवल	-11.449
▁amongst	-11.4499
▁stable	-11.4499
▁bou	-11.4501
chrom	-11.4503
▁पंजाबी	-11.4504
▁पुस्तकें	-11.4504
▁तीर	-11.4507
▁सुनाई	-11.451
▁attracted	-11.451
▁succeeded	-11.4512
▁intelligent	-11.4517
▁jewel	-11.4526
▁महंग	-11.453
▁plug	-11.4531
▁lion	-11.4531
▁processor	-11.4535
पाठ	-11.4535
▁opponent	-11.4536
▁brilliant	-11.4536
▁mohammad	-11.4536
▁primarily	-11.4536
▁vaccine	-11.4536
▁कैरियर	-11.4536
▁ऑपरेट	-11.4536
▁लसीका	-11.4536
▁विक्रय	-11.4536
▁सघन	-11.4536
▁zero	-11.4536
▁ज़मीन	-11.4536
▁स्नान	-11.4536
▁मीनार	-11.4536
▁मसलन	-11.4537
रवाना	-11.4538
▁क्वा	-11.4539
▁लम्बा	-11.4541
ानन्द	-11.4542
▁कुंजीपटल	-11.4544
tac	-11.4544
▁wearing	-11.4545
▁रूसी	-11.4549
▁arranged	-11.4552
▁republican	-11.4554
शायर	-11.4555
▁आपात	-11.4557
▁आवृत्ति	-11.4557
▁pip	-11.4563
▁निकलती	-11.4566
▁अस्वीकृत	-11.4567
▁दर्जे	-11.4569
▁अंग्रेज़	-11.457
khand	-11.4573
निर्णय	-11.4577
▁elect	-11.4586
▁तीव्रता	-11.4588
▁व्याख्यान	-11.459
स्पेस	-11.4595
▁corrupt	-11.4595
▁categories	-11.4599
▁receiving	-11.4599
▁वापिस	-11.4599
▁पैदल	-11.4599
▁दुःख	-11.4599
▁नतीज	-11.4599
▁elsewhere	-11.4599
▁licence	-11.4599
▁preview	-11.46
▁उग्रवादी	-11.4601
▁कारीगर	-11.4602
▁classification	-11.4603
▁ख़ास	-11.4606
▁भटक	-11.4607
▁पका	-11.4608
▁पिछला	-11.4609
▁प्रसारित	-11.4614
▁lateral	-11.4617
▁प्लेट	-11.4622
▁सहयोगियों	-11.4625
▁originally	-11.4628
▁मोल	-11.4629
एंगे	-11.4629
▁lying	-11.463
लेकिन	-11.4642
▁frequent	-11.4649
▁effectively	-11.4649
▁सरस	-11.4654
▁लाये	-11.4654
▁dash	-11.4655
▁डालें	-11.4656
▁encrypt	-11.4659
▁arrival	-11.4663
▁ceremony	-11.4663
▁comprehensive	-11.4663
▁equivalent	-11.4663
▁fifteen	-11.4663
▁jodhpur	-11.4663
▁उत्तेजना	-11.4663
▁परिश्रम	-11.4663
▁सन्दर्भ	-11.4663
▁हिस्सों	-11.4663
▁chronic	-11.4663
▁investigate	-11.4663
▁मादक	-11.4663
▁psychological	-11.4663
▁न्यूज	-11.4664
▁calm	-11.4665
▁rebel	-11.4665
▁abbas	-11.4666
▁सेंटर	-11.4666
▁hip	-11.4668
▁छिड़	-11.4668
चू	-11.467
▁equat	-11.4671
▁रिलीज	-11.4672
▁चिकन	-11.4674
▁shortage	-11.468
▁पाती	-11.4685
▁stem	-11.4686
▁परिपूर्ण	-11.4686
▁मंजूरी	-11.4689
▁अप्रति	-11.469
▁सावधान	-11.4692
लोप	-11.4702
▁अंतत	-11.4703
ग्रन्थ	-11.4705
term	-11.4706
▁विहार	-11.4707
▁भट्ट	-11.4717
▁पलट	-11.4718
▁एहसास	-11.4727
▁विद्यार्थियों	-11.4727
▁एजेंट	-11.4727
▁mandatory	-11.4727
▁entries	-11.4727
▁denied	-11.4727
▁italian	-11.4727
▁पुरातन	-11.4727
▁शुरुवात	-11.4727
▁jammu	-11.4727
▁regulate	-11.4728
▁सम्पन्न	-11.4728
▁gulf	-11.4728
▁टकरा	-11.4728
▁शिविर	-11.4729
▁dominate	-11.473
▁specifically	-11.473
▁carved	-11.4731
▁somewhere	-11.4732
ॉर्ड	-11.4736
▁देखेंगे	-11.4736
▁वीडिय	-11.4737
▁convinced	-11.4738
▁दिखती	-11.4741
▁बौ	-11.4743
▁शिशुओं	-11.4743
▁हॉल	-11.4744
▁generated	-11.4747
बुक	-11.4747
▁padma	-11.4751
▁ईंट	-11.4753
▁बंदर	-11.4754
▁ढील	-11.4754
▁deem	-11.4757
▁ढांचा	-11.476
▁जानती	-11.4761
▁बंधक	-11.4763
▁kum	-11.4772
isbn	-11.4772
▁arrive	-11.4772
▁भिन्नता	-11.4773
▁peaceful	-11.4775
▁tech	-11.4775
wise	-11.478
▁presentation	-11.4781
यक्ष	-11.4783
एल्गोरिथ्म	-11.4791
▁advertisement	-11.4791
▁qaeda	-11.4791
▁reproduction	-11.4791
▁statutory	-11.4791
▁उत्सर्जित	-11.4791
▁tilak	-11.4791
▁fibre	-11.4791
▁mecca	-11.4791
▁retired	-11.4791
▁कृषक	-11.4791
▁honest	-11.4791
▁बुखार	-11.4791
▁धूप	-11.4791
▁अनुसूचि	-11.4791
▁absent	-11.4791
▁confront	-11.4792
▁separately	-11.4792
▁दाल	-11.4793
▁exposed	-11.4793
▁fought	-11.4793
▁व्यर्थ	-11.4793
▁rival	-11.4793
▁compact	-11.4794
▁1977	-11.4795
▁अवसाद	-11.4796
▁ashok	-11.4798
▁मिशनरी	-11.4798
▁somewhat	-11.48
▁weakness	-11.48
▁नाच	-11.48
▁इमारतें	-11.4801
▁पड़ना	-11.4803
▁मासिक	-11.4805
▁गायब	-11.481
▁clip	-11.4812
hab	-11.4813
▁गंभीरता	-11.4813
▁रंगीन	-11.4814
▁closely	-11.4815
▁initiated	-11.4817
▁pest	-11.4822
▁सिंधु	-11.4823
▁दिशाओं	-11.4824
▁scored	-11.4826
▁stun	-11.4828
सरकारी	-11.4831
▁निर्देशित	-11.4831
▁सैर	-11.4834
▁musical	-11.4837
▁digit	-11.4837
▁मजदूरी	-11.4838
▁प्रदूषकों	-11.4847
33	-11.4847
▁स्वराज	-11.485
▁अठारह	-11.4856
▁bamboo	-11.4856
▁ethnic	-11.4856
▁producing	-11.4856
▁registration	-11.4856
▁क्षैतिज	-11.4856
▁विधानसभा	-11.4856
▁घायल	-11.4856
▁intense	-11.4856
▁पाठ्यक्रम	-11.4857
▁storm	-11.4857
व्यू	-11.4858
▁wiki	-11.4858
▁रूचि	-11.4859
▁attractive	-11.486
▁परिपथ	-11.486
▁dutt	-11.4861
▁ज़ोर	-11.4863
▁निर्वाह	-11.4863
puri	-11.4864
▁घोर	-11.4866
▁slide	-11.4867
▁उम्मीदवार	-11.4867
▁दुर्गा	-11.4868
▁डिम्ब	-11.487
▁राख	-11.4871
▁noticed	-11.4875
▁organis	-11.4881
विएत	-11.4881
▁तंग	-11.4883
▁anyway	-11.4884
दूर	-11.4884
▁संकल्पना	-11.4885
▁तिरू	-11.4888
संधान	-11.4891
▁बेटी	-11.4895
▁करवाना	-11.4898
▁सिटी	-11.4898
ppy	-11.49
▁expanded	-11.4901
ux	-11.4908
▁निदेश	-11.4914
▁अफगान	-11.4921
▁expensive	-11.4921
▁revolt	-11.4921
▁sanctum	-11.4921
▁वांछित	-11.4921
▁हस्पताल	-11.4921
▁worldwide	-11.4922
▁उत्सुक	-11.4922
▁respectively	-11.4922
▁monarch	-11.4922
▁array	-11.4923
▁वर्गीकृत	-11.4925
▁मिटाएँ	-11.4926
▁पुरा	-11.4928
▁tel	-11.4931
▁tho	-11.4931
▁शर्तें	-11.4932
▁दूरभाष	-11.4935
▁इण्डि	-11.4942
▁चावला	-11.4943
▁hat	-11.4945
▁ठहर	-11.4946
▁singer	-11.4954
▁reduc	-11.4955
▁प्रतिरूप	-11.496
६५	-11.4964
▁निर्देशक	-11.4965
▁अनुमानित	-11.4966
▁fairly	-11.4971
सोनिया	-11.4972
▁facilitate	-11.4978
▁tit	-11.4982
गुआ	-11.4984
▁anybody	-11.4987
▁deliberate	-11.4987
▁demonstration	-11.4987
▁surplus	-11.4987
▁मुम्बई	-11.4987
▁व्यैक्त	-11.4987
▁unusual	-11.4987
▁पुण्य	-11.4987
▁diversity	-11.4987
▁excellent	-11.4987
▁spark	-11.4987
▁cinema	-11.4987
▁graphics	-11.4987
▁हार्डवेयर	-11.4987
▁pupil	-11.4987
▁ख़राब	-11.4987
▁angry	-11.4988
▁cursor	-11.4988
▁क्लिप	-11.4988
त्ति	-11.4988
▁sikhara	-11.4988
▁समावेश	-11.4988
▁व्याप्त	-11.4989
▁लंका	-11.4989
▁जानकार	-11.4989
▁भरतपुर	-11.4989
▁1979	-11.499
guidelines	-11.499
▁1973	-11.499
▁axis	-11.4991
▁तंतु	-11.4991
fusion	-11.4991
▁boundary	-11.4993
chandra	-11.4993
▁छो	-11.4995
▁महानगर	-11.4995
static	-11.4996
▁अभियुक्त	-11.4998
berg	-11.4998
▁fax	-11.5002
मेन्ट	-11.5002
▁shankar	-11.5005
▁उठता	-11.5006
विहीन	-11.501
▁mechanical	-11.5015
▁कार्यरत	-11.5015
▁फॉ	-11.5018
▁backup	-11.5018
lium	-11.5019
▁oct	-11.503
▁चावल	-11.5036
▁धक्क	-11.5042
च्छद	-11.5048
▁comfort	-11.505
yog	-11.5052
where	-11.5053
▁accommodation	-11.5054
▁pronounce	-11.5054
▁उत्कीर्ण	-11.5054
▁नवम्बर	-11.5054
▁निवेदन	-11.5054
▁convey	-11.5054
▁पेंशन	-11.5054
▁fiscal	-11.5054
▁प्रदत्त	-11.5054
▁ब्लॉक	-11.5054
▁अवलोकन	-11.5054
▁गर्भगृह	-11.5054
▁पैलेस	-11.5055
▁bail	-11.5056
▁स्टाक	-11.5057
▁शान्ति	-11.5059
▁yard	-11.506
▁बनावट	-11.5061
फिर	-11.5067
▁arjuna	-11.5074
▁आँख	-11.5076
▁विधियों	-11.508
योंकि	-11.5082
टोन	-11.5083
▁वैश	-11.5083
▁स्वाद	-11.5084
▁क्रोध	-11.5084
▁असंगत	-11.5085
▁साम्राज़्य	-11.5086
▁tim	-11.5089
▁शैव	-11.509
वर्धक	-11.509
१५	-11.5091
स्रोत	-11.5102
▁collapse	-11.512
▁completion	-11.512
▁cooperative	-11.512
▁exclusion	-11.512
▁innovation	-11.512
▁lebanon	-11.512
▁possibly	-11.512
▁rhythm	-11.512
▁क्रोमियम	-11.512
▁ग्रीष्म	-11.512
▁स्थगित	-11.512
▁हुकूमत	-11.512
▁bottle	-11.512
▁chawla	-11.512
▁लेबनान	-11.512
▁उर्जा	-11.512
▁strain	-11.512
▁पंचायत	-11.5121
▁gallery	-11.5121
▁सचेत	-11.5121
▁अनुपालन	-11.5122
▁बहुमूल्य	-11.5122
▁attendance	-11.5124
▁अभियुक़्त	-11.5124
▁प्रतिमान	-11.5124
▁बगल	-11.5126
bred	-11.5126
▁recognize	-11.5127
ullah	-11.5127
▁असफलता	-11.5127
▁झलक	-11.5128
व्रण	-11.513
▁ट्रेन	-11.513
▁निशाना	-11.5131
▁बर्मा	-11.5132
▁सविन	-11.5135
▁strengthen	-11.5135
▁speeches	-11.5144
▁खाद	-11.5145
टिल	-11.5146
▁शीश	-11.5147
▁सजीव	-11.5153
▁recommend	-11.5155
▁cable	-11.516
▁recognise	-11.5168
▁acquire	-11.5168
▁assume	-11.5168
friend	-11.517
▁lag	-11.5173
शासन	-11.5174
▁२३	-11.5174
पोषण	-11.5175
▁मजदूरों	-11.5175
▁दीर्घा	-11.5185
▁sponsor	-11.5187
▁aggressive	-11.5187
▁cultivation	-11.5187
▁deficiency	-11.5187
▁ozone	-11.5187
▁portuguese	-11.5187
▁udaipur	-11.5187
▁आश्रय	-11.5187
▁मुद्रण	-11.5187
▁खिंच	-11.5187
▁cavity	-11.5187
▁saddam	-11.5187
▁restrictions	-11.5187
▁आचार्य	-11.5187
▁dozen	-11.5187
▁album	-11.5188
▁महर्षि	-11.5188
▁असहमत	-11.5188
▁मुहैया	-11.5188
▁चह	-11.5188
▁typing	-11.5188
▁react	-11.5188
▁passport	-11.5189
▁sweat	-11.519
▁शब्दकोश	-11.519
▁राजवंश	-11.519
▁functional	-11.5191
▁जयपुर	-11.5191
fall	-11.5192
र्ड़	-11.5192
▁चिल्ला	-11.5194
गणित	-11.5195
▁endorse	-11.5198
▁व्यक़्तियों	-11.52
▁apparently	-11.52
▁james	-11.5202
▁lens	-11.5202
▁keen	-11.5204
▁brush	-11.5206
▁66	-11.5212
▁आंकड़ा	-11.5217
alai	-11.5234
▁pour	-11.5235
कंठ	-11.5237
▁journalist	-11.5237
व्यवहार	-11.5238
संबंधी	-11.5238
free	-11.5241
▁consequence	-11.5247
▁कशेरु	-11.5255
lakshmi	-11.5255
▁आविष्कार	-11.5255
▁टेलीविजन	-11.5255
▁सुपुर्द	-11.5255
▁पेशेवर	-11.5255
▁segment	-11.5255
▁manipulat	-11.5255
new	-11.5255
▁urgent	-11.5256
▁नवजात	-11.5256
गांठ	-11.5257
▁friendship	-11.5257
▁layout	-11.5257
▁banyan	-11.5257
▁समाहित	-11.5257
▁colonial	-11.5257
▁आरोह	-11.5258
▁commitment	-11.5258
▁admire	-11.5259
▁bharatpur	-11.5259
▁माया	-11.526
national	-11.527
फ्ल	-11.5276
ml	-11.5278
▁हते	-11.5282
para	-11.5293
ground	-11.53
समझ	-11.5301
anthrop	-11.5304
▁sonia	-11.5312
▁पॉप	-11.5313
ब्रि	-11.5313
ान्तरण	-11.5316
▁instruct	-11.5319
ाचार्य	-11.5321
▁दिखाएं	-11.5322
▁contempt	-11.5323
▁embrace	-11.5323
▁अप्रत्यक्ष	-11.5323
▁प्रशिक्षित	-11.5323
▁विकिपीडियाः	-11.5323
▁विश्राम	-11.5323
▁जागरूक	-11.5323
▁मेजबान	-11.5323
▁pandavas	-11.5323
▁मत्स्य	-11.5323
▁साँस	-11.5323
▁पंजीकरण	-11.5324
▁पाइप	-11.5325
▁banned	-11.5326
▁dump	-11.5328
▁coach	-11.5331
▁kam	-11.5333
▁सम्बंधित	-11.5334
▁edition	-11.5336
गिर्द	-11.5339
▁realized	-11.5349
▁driven	-11.5352
▁प्रकरण	-11.5354
▁restricted	-11.5359
▁जिसको	-11.5362
▁यश	-11.5365
▁नारी	-11.5367
बुद्धि	-11.5375
ग्रंथ	-11.5375
▁grid	-11.5378
वुड	-11.5381
▁halt	-11.5386
grade	-11.5387
▁architect	-11.539
▁liberty	-11.5391
▁musharraf	-11.5391
▁qualified	-11.5391
▁प्रोजेक्ट	-11.5391
▁breach	-11.5391
▁scroll	-11.5391
▁injured	-11.5391
▁pandit	-11.5392
▁इऋर	-11.5392
▁sorry	-11.5392
▁afterwards	-11.5392
▁खुराक	-11.5392
▁geeta	-11.5393
▁arbitration	-11.5393
▁सारणी	-11.5393
▁बकाया	-11.5393
भाषी	-11.5393
▁patron	-11.5393
mount	-11.5394
▁दिखायी	-11.5395
appa	-11.5396
▁जुडे	-11.5397
ंगु	-11.5399
▁कराता	-11.5401
▁pipe	-11.5402
▁suspended	-11.5407
▁gru	-11.5411
▁आभासी	-11.5411
▁strip	-11.5413
▁गाजा	-11.5414
▁उदय	-11.5417
▁recognized	-11.5418
▁stake	-11.542
▁noble	-11.5422
▁स्कोर	-11.5425
▁attach	-11.5431
पोष	-11.5433
▁आर्क	-11.5435
नियोजित	-11.5437
▁२१	-11.5439
▁kala	-11.5444
स्वामी	-11.5445
▁mohan	-11.5451
▁उन्नति	-11.5452
१८	-11.5454
जातीय	-11.5455
▁चढ	-11.5456
person	-11.5456
wood	-11.5457
२०	-11.5458
▁academy	-11.546
▁assault	-11.546
▁exhaust	-11.546
▁palestine	-11.546
▁perception	-11.546
▁अवहेलना	-11.546
▁गड़बड़	-11.546
▁दूरसंचार	-11.546
▁विक्रेता	-11.546
▁संतुलित	-11.546
▁www	-11.546
▁प्रौढ़	-11.546
▁panchayat	-11.546
▁स्तम्भ	-11.546
▁दक्षता	-11.546
आक्साइड	-11.5461
▁हिन्दु	-11.5461
▁hatred	-11.5461
▁paragraph	-11.5461
▁diplomatic	-11.5461
▁1994	-11.5462
▁निद्रा	-11.5462
▁winning	-11.5463
▁प्रचालन	-11.5464
▁सबको	-11.5464
▁बिगड़	-11.5464
▁civilisation	-11.5464
▁nearby	-11.5465
▁jaipur	-11.5465
▁tension	-11.5466
▁कटु	-11.5466
69	-11.5467
▁mask	-11.5469
▁civilian	-11.547
निरोध	-11.547
▁maid	-11.5471
▁batch	-11.5475
▁रूपरेखा	-11.5475
केन्द्र	-11.5476
ाश्म	-11.5478
▁sword	-11.5478
▁पहना	-11.5483
▁shoes	-11.5484
▁sail	-11.5492
योजित	-11.5495
word	-11.5497
▁00	-11.5506
▁economical	-11.5507
▁stag	-11.5519
based	-11.5519
▁वाणिज्य	-11.5525
▁indicated	-11.5528
▁entertain	-11.5528
▁नॉर	-11.553
▁calculation	-11.553
▁negotiation	-11.553
▁peripheral	-11.553
▁नाइट्रोजन	-11.553
▁मुशर्रफ	-11.553
▁chicken	-11.553
▁दूतावास	-11.553
▁प्रशांत	-11.553
▁सद्स्य	-11.553
▁रियायत	-11.553
▁मंगोल	-11.553
▁lucknow	-11.553
▁लेगा	-11.553
▁हैसियत	-11.553
इसके	-11.5536
▁हालात	-11.5536
▁संरक्षक	-11.5537
▁ज़्यादातर	-11.5538
▁cutting	-11.5538
ख़ाना	-11.554
▁delight	-11.5541
छेदन	-11.5547
▁उपहार	-11.5547
face	-11.5548
▁gir	-11.555
▁बढ़िया	-11.5553
▁२०००	-11.556
हिर	-11.5561
मिजाज	-11.5574
ोचित	-11.558
▁ignore	-11.5581
▁dip	-11.5584
बहुत	-11.5585
▁आदान	-11.5586
▁undergo	-11.5589
इये	-11.5591
▁maxim	-11.5598
▁ख़ान	-11.5598
▁careful	-11.56
▁audacity	-11.56
▁hyderabad	-11.56
▁jordan	-11.56
▁kalpana	-11.56
▁occupied	-11.56
▁आलोचक	-11.56
▁त्यौहार	-11.56
▁1921	-11.56
▁encounter	-11.56
▁plenty	-11.56
▁wisdom	-11.56
▁आंध्र	-11.56
▁हिंसक	-11.56
▁हैदराबाद	-11.56
▁invitation	-11.56
▁stump	-11.56
▁warrior	-11.56
श्रृंग	-11.56
▁comprise	-11.5601
▁honey	-11.5601
▁hypo	-11.5603
▁जमानत	-11.5604
▁फ़ोटो	-11.5607
▁पक्का	-11.5608
▁hate	-11.5608
द्रोह	-11.5608
▁chip	-11.5609
▁समापन	-11.5611
विशेष	-11.5612
▁arabian	-11.562
▁adviser	-11.5621
▁टूर	-11.5621
▁लड़का	-11.5623
▁प्रसन्नता	-11.5623
▁बारिश	-11.5625
▁सूरज	-11.5626
▁परियोजनाओं	-11.5628
▁सकाः	-11.563
▁81	-11.5634
▁raid	-11.5642
▁collecting	-11.5645
blo	-11.5653
▁reserved	-11.5655
▁झंड	-11.5662
current	-11.5667
▁regulation	-11.5668
▁crucial	-11.567
▁integrity	-11.567
▁intensive	-11.567
▁pregnancy	-11.567
▁residence	-11.567
▁vivekanand	-11.567
▁अकादमी	-11.567
▁अन्वेषण	-11.567
▁फिलहाल	-11.567
▁स्ट्राइकर	-11.567
▁स्थापत्य	-11.567
▁dignity	-11.567
▁निषेध	-11.567
▁रिजर्व	-11.567
▁preparing	-11.567
▁हालंकि	-11.567
▁रोमांच	-11.567
▁obstina	-11.567
▁टांगों	-11.567
▁यात्रियों	-11.567
▁सुन्नी	-11.567
▁मच्छर	-11.567
▁varied	-11.5671
▁संदिग्ध	-11.5671
▁श्रेय	-11.5671
▁मृग	-11.5671
▁crease	-11.5671
▁बेचा	-11.5673
▁richard	-11.5674
▁urine	-11.5674
▁tired	-11.5675
▁पीछा	-11.5677
▁trap	-11.5677
▁rope	-11.5681
▁अनजान	-11.5685
▁misuse	-11.5694
▁bhi	-11.5696
▁dung	-11.5697
▁logical	-11.5698
▁cough	-11.5699
▁slight	-11.5712
▁charm	-11.5724
▁combine	-11.5724
▁apparent	-11.5727
{}	-11.5733
▁diabetic	-11.5741
▁inflammation	-11.5741
▁judgment	-11.5741
▁participation	-11.5741
▁singapore	-11.5741
▁सापेक्ष	-11.5741
▁harvest	-11.5741
▁widow	-11.5741
▁ideology	-11.5741
▁कीमियागर	-11.5741
▁मायने	-11.5741
▁extinct	-11.5741
▁qatar	-11.5742
▁wander	-11.5742
▁schema	-11.5742
▁अनुपम	-11.5742
▁pursue	-11.5743
▁1995	-11.5744
▁joshi	-11.5744
▁floating	-11.5745
▁mystic	-11.5745
▁शपथ	-11.5746
▁eliminat	-11.5746
▁ऑटो	-11.5748
▁stupid	-11.575
▁sake	-11.5755
▁mature	-11.5758
▁reset	-11.5763
▁experimental	-11.5764
बूझ	-11.5764
▁mary	-11.5766
▁घेरे	-11.5766
▁div	-11.5767
▁फ्रे	-11.5768
पुल	-11.577
▁तुम्हारा	-11.577
अपने	-11.577
▁42	-11.5771
▁प्रयोगकर्ता	-11.5774
प्रसू	-11.5784
84	-11.5787
▁seal	-11.5787
▁closer	-11.5789
▁बाढ़	-11.579
▁आसमान	-11.58
▁relate	-11.5802
▁echo	-11.5802
hole	-11.5804
change	-11.5805
general	-11.5805
▁acquisition	-11.5812
▁compulsory	-11.5812
▁dictator	-11.5812
▁linguistic	-11.5812
▁literacy	-11.5812
▁plastic	-11.5812
▁डाइऑक्साइड	-11.5812
▁पारिवारिक	-11.5812
▁प्रतिबिंब	-11.5812
▁प्राधिकरण	-11.5812
▁भयभीत	-11.5812
▁मुकाबला	-11.5812
▁mercury	-11.5813
▁यांत्रिक	-11.5813
▁batsmen	-11.5813
▁पेशकश	-11.5813
▁spain	-11.5813
▁freight	-11.5813
▁सेकेंड	-11.5813
▁maharaja	-11.5813
विन्यास	-11.5814
▁charles	-11.5815
प्रेरक	-11.5815
▁pearl	-11.5815
▁devil	-11.5816
▁wool	-11.5817
▁संवर्धन	-11.5817
▁फुल	-11.5818
▁limb	-11.5818
▁martin	-11.5819
▁समतल	-11.5819
▁तलवार	-11.5819
▁लिहाज	-11.5821
▁श्रोता	-11.5821
▁रूपांतरण	-11.5822
▁collector	-11.5833
हस्त	-11.5833
▁himalayan	-11.5836
▁lover	-11.5837
▁६०	-11.5838
ocyte	-11.5842
▁औरतों	-11.5842
▁vein	-11.5846
▁permanently	-11.5847
▁metro	-11.585
▁initiat	-11.5855
▁मचा	-11.5858
भारतीय	-11.5862
▁कहकर	-11.5864
▁leu	-11.5869
▁gear	-11.587
ifera	-11.587
mandapa	-11.5872
▁idle	-11.5874
▁retreat	-11.5876
▁chalukya	-11.5877
▁humble	-11.5878
▁bollywood	-11.5884
▁eligible	-11.5884
▁jobseeker	-11.5884
▁ordinance	-11.5884
▁अनुयायियों	-11.5884
▁profound	-11.5884
▁saffron	-11.5884
▁satisfy	-11.5884
▁खिसका	-11.5884
▁insulin	-11.5884
▁सार्थक	-11.5885
▁चिंतन	-11.5885
▁laboratory	-11.5885
▁grey	-11.5886
▁पौधा	-11.5886
▁उद्गम	-11.5886
▁पिंड	-11.5887
▁1971	-11.5887
▁फायर	-11.5889
▁प्रचलन	-11.5891
सागर	-11.5892
▁pari	-11.5893
▁ड्रग	-11.5896
file	-11.5899
▁प्रतिबन्ध	-11.5901
▁gur	-11.5906
दिर	-11.5912
▁पुर्तगाली	-11.5915
▁पड़ते	-11.5915
▁nazi	-11.5918
fire	-11.5921
▁viz	-11.5923
▁पेंट	-11.5928
hop	-11.5931
▁bagh	-11.5933
ब्यू	-11.5944
▁क्रीज	-11.5945
▁आर्ट	-11.5951
algia	-11.5951
giri	-11.5955
▁जेब	-11.5956
nunciation	-11.5957
▁eternal	-11.5957
▁mexico	-11.5957
▁nitrogen	-11.5957
▁sulphur	-11.5957
▁दरवाजे	-11.5957
▁द्विआधारी	-11.5957
▁धारावाहिक	-11.5957
▁माउंट	-11.5957
▁potato	-11.5957
▁सशस्त्र	-11.5957
▁devoted	-11.5957
▁puzzle	-11.5957
▁allocation	-11.5957
▁स्ट्रीट	-11.5957
▁circum	-11.5957
▁सिकंदर	-11.5957
▁mongol	-11.5957
▁ममता	-11.5958
▁नागर	-11.5958
▁brotherhood	-11.5958
▁परिचालन	-11.5958
▁indication	-11.596
▁motive	-11.5967
▁आइस	-11.5968
▁छंद	-11.597
▁cult	-11.597
▁subsequently	-11.597
▁objection	-11.5973
▁जवान	-11.5978
▁बोलते	-11.599
▁declined	-11.5992
धाम	-11.5995
▁germ	-11.5995
▁bhim	-11.5995
▁intro	-11.5998
▁promised	-11.6006
▁taxes	-11.6009
▁दिखाए	-11.6016
▁subsequent	-11.6016
bound	-11.6024
▁mast	-11.6026
लोग	-11.6029
▁determination	-11.603
▁excitement	-11.603
▁inferior	-11.603
▁threshold	-11.603
▁uncertain	-11.603
▁अनुमोदन	-11.603
▁जम्मू	-11.603
▁द्रुत	-11.603
▁प्रदुषण	-11.603
▁बेरोजगार	-11.603
▁फिल्टर	-11.603
▁शुष्क	-11.603
▁निपटने	-11.603
▁जागरण	-11.603
▁pilot	-11.603
▁ट्रांस	-11.603
▁fortune	-11.603
▁धमनी	-11.603
▁gtk	-11.6031
▁निर्दोष	-11.6031
▁spray	-11.6032
▁dental	-11.6032
▁लोहे	-11.6032
▁governance	-11.6033
▁deserve	-11.6033
▁politician	-11.6033
▁fare	-11.6034
▁फॉर्म	-11.6034
▁carries	-11.6036
▁जोरदार	-11.6036
▁fatal	-11.6036
▁innings	-11.6037
▁flee	-11.6038
▁तालाब	-11.6039
▁mili	-11.6041
citation	-11.6049
▁peter	-11.6051
▁विकृत	-11.6058
वक्ता	-11.606
ayya	-11.6072
▁लंग	-11.6074
receiver	-11.6078
कृष्ण	-11.609
▁चुनने	-11.609
▁जौ	-11.6096
गेट	-11.6102
accompanied	-11.6103
▁molecule	-11.6103
▁आकांक्षा	-11.6103
▁निरीक्षक	-11.6103
▁शांतिनिकेतन	-11.6103
▁सिंगापुर	-11.6103
▁सराहना	-11.6103
▁anxious	-11.6103
▁interior	-11.6103
▁दोपहर	-11.6103
▁surgical	-11.6104
▁असंतोष	-11.6104
▁उछाल	-11.6104
▁हैल्थ	-11.6104
▁transmit	-11.6104
▁accordance	-11.6105
▁टैगोर	-11.6105
▁नवीनतम	-11.6105
▁excavation	-11.6106
▁blair	-11.6106
▁धोखा	-11.6106
▁काटने	-11.6107
▁conviction	-11.6108
▁कारगर	-11.611
डेटा	-11.611
▁सेनापति	-11.6111
▁disability	-11.6111
burg	-11.6112
▁दर्शाया	-11.6114
▁सस्ता	-11.6115
▁सेटिंग्स	-11.6116
▁sniffing	-11.6124
ogenic	-11.6125
रक्तता	-11.613
▁sinha	-11.6135
▁advise	-11.6136
fec	-11.6148
▁pyr	-11.616
94	-11.6164
▁coat	-11.6164
▁पालक	-11.617
▁eliminate	-11.6173
कृष्ट	-11.6177
▁bleeding	-11.6177
▁encoding	-11.6177
▁excited	-11.6177
▁hybrid	-11.6177
▁structural	-11.6177
▁अद्वितीय	-11.6177
▁खिड़की	-11.6177
▁तत्पश्चात	-11.6177
▁मौखिक	-11.6177
▁nominated	-11.6178
▁phrase	-11.6178
▁swaraj	-11.6178
▁उर्वरक	-11.6178
▁कंपनियां	-11.6178
▁जेम्स	-11.6178
▁deceit	-11.6178
▁तितली	-11.6178
▁संस्थापक	-11.6178
▁श्लेष्म	-11.6178
▁diplomacy	-11.6178
▁पीड़क	-11.6178
▁dropped	-11.6179
▁ब्रह्माण्ड	-11.618
▁decay	-11.618
▁जंतु	-11.6181
▁fond	-11.6182
▁systematic	-11.6185
▁पालि	-11.6192
▁highway	-11.6192
▁duck	-11.6195
पहल	-11.6203
▁सेवाएँ	-11.6206
▁आंख	-11.6208
▁lime	-11.6209
ाउंड	-11.6213
▁बताई	-11.6214
▁घिर	-11.6215
▁अभिव्यक्त	-11.6216
्फ्	-11.6231
▁कुचल	-11.6231
ball	-11.6236
▁realize	-11.6241
शुल्क	-11.6242
दक्षिण	-11.6242
▁citrus	-11.6252
▁firefox	-11.6252
▁intestine	-11.6252
▁nematode	-11.6252
▁pesticide	-11.6252
▁saraswati	-11.6252
▁दुरुपयोग	-11.6252
▁मॉड्यूल	-11.6252
▁वाल्मीकि	-11.6252
▁संक्रामक	-11.6252
▁delicate	-11.6252
▁virtue	-11.6252
▁ख़त्म	-11.6252
▁टुकड़े	-11.6252
पनिषद	-11.6252
▁utility	-11.6252
▁अक़्सर	-11.6252
▁govt	-11.6252
▁एकजुट	-11.6252
▁pretend	-11.6252
▁operative	-11.6252
▁बस्ती	-11.6252
▁optimis	-11.6253
▁पोषक	-11.6253
▁modification	-11.6253
▁जालस्थल	-11.6253
ेन्द्रनाथ	-11.6254
▁मौन	-11.6254
्शन	-11.6256
▁rishi	-11.6257
▁agenda	-11.6257
▁oath	-11.6258
▁dramatic	-11.626
▁अवधी	-11.6263
▁हाव	-11.6265
डाउन	-11.6265
ड्डी	-11.627
▁dhr	-11.6271
रचना	-11.6273
▁सदियों	-11.6276
▁constantly	-11.628
च्युत	-11.6289
fix	-11.629
वरण	-11.629
▁नकद	-11.6305
▁lice	-11.6313
▁51	-11.632
▁symbolic	-11.6325
▁घिरा	-11.6325
▁पाण्डु	-11.6327
▁scenario	-11.6327
▁आह्वान	-11.6327
▁इंस्टॉल	-11.6327
▁एसोसिएशन	-11.6327
▁द्रोण	-11.6327
▁निरन्तर	-11.6327
▁पूर्वावलोकन	-11.6327
▁अलंकरण	-11.6327
▁अहसास	-11.6327
▁सेलुलर	-11.6327
▁साधु	-11.6327
▁कुर्सी	-11.6327
▁मनोवैज्ञानिक	-11.6328
▁मसौद	-11.6328
▁बेचैन	-11.6329
▁मल्टी	-11.6329
▁आँकड़ा	-11.6329
▁दुर्बल	-11.633
▁भावनात्मक	-11.633
▁violation	-11.633
▁1988	-11.633
▁pending	-11.6331
▁hook	-11.6332
▁लम्बाई	-11.6332
▁ग्रिड	-11.6333
▁जैक	-11.6333
▁धारक	-11.6333
▁giant	-11.6334
▁preside	-11.6334
▁टकराव	-11.6335
▁प्रारम्भिक	-11.6336
▁वोल्ट	-11.6336
▁सीमेंट	-11.6339
दराज	-11.634
पट्ट	-11.6342
▁मूस	-11.6344
ayana	-11.6354
▁अटक	-11.6356
३२	-11.6373
▁melt	-11.6373
▁farmer	-11.6375
▁मन्द	-11.6379
▁toxic	-11.6379
▁arrange	-11.6381
गुप्त	-11.6398
▁brazil	-11.6403
▁hussein	-11.6403
▁ombudsman	-11.6403
▁orthodox	-11.6403
▁peculiar	-11.6403
▁philosopher	-11.6403
▁savarkar	-11.6403
▁क्रियाकलाप	-11.6403
▁न्यूयॉर्क	-11.6403
▁बीकानेर	-11.6403
▁मजहब	-11.6403
▁वैयक्तिक	-11.6403
▁applies	-11.6403
▁caliph	-11.6403
▁gautam	-11.6403
▁भाँति	-11.6403
▁कहलाती	-11.6403
▁मह्त्व	-11.6403
▁lending	-11.6403
▁बृहत	-11.6403
▁मुआवज	-11.6403
▁graduate	-11.6403
▁intellect	-11.6403
▁स्टील	-11.6403
▁drain	-11.6403
▁persist	-11.6405
pec	-11.6405
▁गुलाब	-11.6406
▁कामयाब	-11.6407
▁अदृश्य	-11.6407
▁underground	-11.6407
▁cement	-11.6412
▁sixty	-11.6414
प्रदान	-11.6414
▁लार्ड	-11.6418
▁सेकंड	-11.6422
▁researchers	-11.6426
▁democrat	-11.6427
▁jha	-11.6433
▁flame	-11.6435
▁सूचि	-11.644
▁बांड	-11.6441
▁wider	-11.6442
91	-11.6444
▁दृढ़ता	-11.6446
▁pose	-11.6447
▁लौ	-11.6448
▁hire	-11.6455
झोंक	-11.6456
allah	-11.6456
ब्रा	-11.6457
duce	-11.6457
▁pancha	-11.646
▁मिश्र	-11.6468
▁pact	-11.6469
▁निराश	-11.6472
▁competitive	-11.6479
▁fascism	-11.6479
▁intervention	-11.6479
▁masjid	-11.6479
▁unfair	-11.6479
▁दुर्योधन	-11.6479
▁प्रामाणिक	-11.6479
▁शैक्षिक	-11.6479
▁historian	-11.6479
▁अनुयायी	-11.6479
▁buffer	-11.6479
▁उजागर	-11.6479
▁हल्के	-11.6479
▁rabindranath	-11.648
▁distant	-11.648
▁पराजित	-11.648
▁ख़ुश	-11.648
▁पितृ	-11.648
▁उल्टी	-11.648
▁मानसून	-11.648
▁चाहूँगा	-11.648
▁तारामंडल	-11.648
▁विधायी	-11.648
▁blend	-11.6481
vascular	-11.6481
थलग	-11.6481
▁framework	-11.6481
६६	-11.6481
▁अवरुद्ध	-11.6481
▁yoga	-11.6481
▁२००५	-11.6483
▁guardian	-11.6483
▁फर्श	-11.6483
▁रूढ़	-11.6484
▁factories	-11.6484
▁diverse	-11.6485
▁exploitation	-11.6485
▁fancy	-11.6486
▁चंद्रमा	-11.6486
▁मूलतः	-11.6489
▁consultation	-11.649
▁bitter	-11.6492
▁thrown	-11.6496
▁निरस्त	-11.6499
▁रूट	-11.65
▁तस्वीरें	-11.65
▁cheer	-11.6502
▁युवाओं	-11.6504
▁बैर	-11.6521
साइड	-11.6522
▁gem	-11.6522
▁distinguish	-11.6528
text	-11.6553
▁बांग्ला	-11.6555
▁alchemist	-11.6556
▁doctrine	-11.6556
▁improving	-11.6556
▁intensity	-11.6556
▁provincial	-11.6556
▁satisfaction	-11.6556
▁ब्रितानी	-11.6556
▁व्याख़्या	-11.6556
▁reputation	-11.6556
▁टिप्पणिय	-11.6556
▁भयंकर	-11.6556
▁असफ़ल	-11.6556
▁कहलाते	-11.6556
▁प्रचुर	-11.6556
▁ascetic	-11.6556
▁bulk	-11.6557
▁nigeria	-11.6557
रज्जु	-11.6557
▁mythology	-11.6557
▁सम्पत्ति	-11.6558
▁adventure	-11.6558
▁वक्तव्य	-11.6558
▁rational	-11.6559
▁हास्य	-11.656
▁कामकाज	-11.656
▁पाएंगे	-11.6561
▁संतति	-11.6563
▁नियोजन	-11.6564
▁kuran	-11.6567
▁soldier	-11.6569
लेक्स	-11.6569
▁scrap	-11.657
▁गार्ड	-11.6575
▁joke	-11.6579
▁monte	-11.658
mill	-11.6583
▁islamism	-11.6584
▁पीटर	-11.6584
rashtra	-11.6587
▁snap	-11.6588
▁सशक्त	-11.6603
▁नामकरण	-11.6606
▁electro	-11.6612
▁आभास	-11.6612
impl	-11.6618
power	-11.6626
spoken	-11.6627
चिह्न	-11.6627
▁utilis	-11.663
▁demonstrate	-11.6634
▁deploy	-11.6634
▁diagnose	-11.6634
▁kitchen	-11.6634
▁occupy	-11.6634
▁retirement	-11.6634
▁throne	-11.6634
▁पैटर्न	-11.6634
▁बूढ़े	-11.6634
▁मुमकिन	-11.6634
▁commerce	-11.6634
▁स्पर्धा	-11.6634
▁हिन्दुस्तान	-11.6634
▁ahmedabad	-11.6634
▁painful	-11.6634
▁स्वरयंत्र	-11.6635
▁competent	-11.6635
▁भाइयों	-11.6635
▁मिसाल	-11.6635
▁query	-11.6636
▁tenancy	-11.6636
▁दूरदर्शन	-11.6637
जनित	-11.6637
▁saliva	-11.6637
९९	-11.6637
ाक्षर	-11.6642
▁evolved	-11.6642
▁अनुबंध	-11.6643
▁आएगा	-11.6645
▁पूछें	-11.666
▁moreover	-11.666
▁hetero	-11.6661
▁pole	-11.6672
▁substitute	-11.6673
▁आदम	-11.6679
shah	-11.6686
शोष	-11.6687
▁इस्लामवाद	-11.6688
▁एण्ड	-11.669
35	-11.6694
▁glad	-11.6697
▁उकसा	-11.67
ोगे	-11.6702
लिखित	-11.6705
अनुच्छेद	-11.6706
पुच्छ	-11.6706
▁गाँधी	-11.671
▁champion	-11.6711
▁1942	-11.6712
▁abdullah	-11.6712
▁bazaar	-11.6712
▁genuine	-11.6712
▁irregular	-11.6712
▁modify	-11.6712
▁removing	-11.6712
▁surprising	-11.6712
▁अथॉरिटी	-11.6712
▁उद्धरण	-11.6712
▁ज़िम्मेदार	-11.6712
▁प्रोफाइल	-11.6712
▁वाराणसी	-11.6712
▁warfare	-11.6712
▁काल्पनिक	-11.6712
▁नाजुक	-11.6712
▁सावरकर	-11.6712
▁debug	-11.6712
▁बाधित	-11.6712
▁superstructure	-11.6712
▁practise	-11.6712
▁vocal	-11.6712
▁खारिज	-11.6712
▁अधिग्रहण	-11.6714
▁प्लगिन	-11.6714
▁favourite	-11.6715
▁legend	-11.6715
▁managing	-11.672
▁everyday	-11.672
▁grip	-11.6721
▁adhere	-11.6721
▁सपना	-11.6722
▁contractor	-11.6722
▁समृद्धि	-11.6723
▁celebrate	-11.6726
▁pause	-11.6727
▁कविताएं	-11.6727
भक्ति	-11.6728
खर्च	-11.6731
फेर	-11.6731
▁handling	-11.6732
्दाम	-11.6735
hala	-11.6735
▁गोल्ड	-11.6739
▁दिखाते	-11.6742
▁strat	-11.6744
ैंस	-11.6752
▁employ	-11.6754
▁थका	-11.676
कृतियां	-11.6763
▁गिना	-11.6765
▁erect	-11.6782
looking	-11.6785
तोष	-11.6787
▁disposal	-11.6791
▁involving	-11.6791
▁powder	-11.6791
▁societies	-11.6791
▁तेंडुलकर	-11.6791
▁फेफड़ों	-11.6791
▁सत्यापित	-11.6791
▁साफ्टवेयर	-11.6791
▁dialect	-11.6791
▁sketch	-11.6791
▁undertaking	-11.6791
▁हड़ताल	-11.6791
▁companion	-11.6791
▁driving	-11.6791
▁मुमताज	-11.6791
▁insight	-11.6791
▁अपडेट	-11.6791
श्रुति	-11.6791
▁कीजिये	-11.6791
▁harmony	-11.6791
▁भित्ति	-11.6792
▁geography	-11.6792
▁महाकाव्य	-11.6792
▁नाकाम	-11.6793
▁वैद्य	-11.6794
[...]
