<pad>	0
<unk>	0
<s>	0
</s>	0
,	-3.92374
▁the	-3.93399
s	-4.22014
▁के	-4.29747
▁है	-4.44348
▁of	-4.49923
▁में	-4.63769
।	-4.74986
▁	-4.7558
▁to	-4.79546
▁and	-4.89387
▁की	-4.89928
▁in	-4.90762
▁a	-4.92671
▁से	-5.11018
▁का	-5.12423
▁को	-5.12857
▁और	-5.15232
-	-5.24546
▁is	-5.24575
▁-	-5.35329
▁हैं	-5.51118
ी	-5.54969
ों	-5.56878
▁एक	-5.67755
▁पर	-5.69524
ing	-5.78447
ed	-5.81701
▁for	-5.82384
▁कि	-5.87672
न	-5.90815
▁'	-5.94218
▁(	-5.94431
)	-5.96624
▁that	-5.98141
▁लिए	-6.01084
▁s	-6.02693
ा	-6.03549
▁नहीं	-6.04145
▁be	-6.04864
क	-6.05418
▁it	-6.05844
d	-6.12376
▁on	-6.12528
▁was	-6.16232
▁भी	-6.17527
▁this	-6.19188
▁यह	-6.19459
▁कर	-6.22729
▁are	-6.22905
▁इस	-6.23247
ता	-6.23763
▁as	-6.25678
:	-6.3199
▁by	-6.32392
▁with	-6.32775
▁you	-6.33338
▁किया	-6.33712
▁ने	-6.35823
▁हो	-6.36625
ना	-6.38421
▁not	-6.38939
t	-6.41026
▁or	-6.42398
र	-6.43264
▁करने	-6.4544
▁था	-6.47103
▁he	-6.47197
▁जो	-6.51175
▁ही	-6.52511
े	-6.52513
ly	-6.53623
er	-6.57543
▁या	-6.57712
▁an	-6.58221
?	-6.59906
▁from	-6.61292
ल	-6.61885
स	-6.6243
▁“	-6.6285
▁तो	-6.64107
▁गया	-6.64667
म	-6.69391
▁”	-6.70642
्	-6.73913
%	-6.74912
a	-6.75018
▁has	-6.76055
y	-6.76197
▁have	-6.76301
▁his	-6.76979
▁आप	-6.78852
▁i	-6.78942
▁at	-6.79059
त	-6.80939
ने	-6.81364
▁can	-6.82293
'	-6.83434
▁करना	-6.85757
e	-6.86266
▁which	-6.89912
▁रूप	-6.9076
ित	-6.91311
▁अपने	-6.94668
al	-6.96217
▁वह	-6.96321
▁but	-6.96603
▁जाता	-6.9762
▁न	-6.98213
▁जा	-7.02838
▁they	-7.03348
▁all	-7.03364
▁साथ	-7.0524
▁one	-7.05812
▁will	-7.06253
▁द्वारा	-7.0697
▁होता	-7.07832
▁कुछ	-7.08436
प	-7.08944
▁we	-7.09018
ं	-7.10376
▁करें	-7.10398
▁आ	-7.12062
▁सकता	-7.12719
ज	-7.12995
n	-7.13315
▁तथा	-7.13563
▁if	-7.14549
ो	-7.1502
r	-7.15385
▁there	-7.15517
व	-7.15763
▁अ	-7.17518
▁वे	-7.18241
i	-7.18609
▁तक	-7.18935
▁किसी	-7.20225
▁दिया	-7.20845
▁so	-7.21856
/	-7.2334
ब	-7.24065
ि	-7.24957
ट	-7.25647
▁their	-7.25854
p	-7.26509
▁your	-7.26615
;	-7.26939
▁कोई	-7.2741
m	-7.28696
▁समय	-7.30211
▁थी	-7.31322
▁थे	-7.324
्य	-7.32746
re	-7.3367
द	-7.34152
▁>	-7.3538
▁<	-7.35556
▁जब	-7.36448
▁रहा	-7.37525
▁out	-7.38773
▁were	-7.39611
ला	-7.39839
ह	-7.40291
▁do	-7.4086
रा	-7.41733
▁also	-7.41791
▁un	-7.41977
▁had	-7.42174
▁when	-7.42193
▁करते	-7.42248
▁time	-7.42285
िक	-7.42851
य	-7.43335
▁करता	-7.43368
▁up	-7.43623
▁no	-7.43633
▁बाद	-7.43888
ियों	-7.44944
श	-7.45826
कर	-7.46177
▁about	-7.46846
es	-7.47132
▁बहुत	-7.47434
▁may	-7.47828
▁india	-7.48139
▁more	-7.48885
▁()	-7.49162
▁its	-7.49238
g	-7.49479
▁सकते	-7.49735
▁been	-7.5073
ते	-7.51174
▁अधिक	-7.51342
ीय	-7.52047
▁होती	-7.52804
ग	-7.53505
▁other	-7.5359
▁कम	-7.53827
▁हम	-7.55344
ation	-7.56132
▁who	-7.5622
▁वि	-7.56752
▁रहे	-7.56776
ः	-7.57186
▁people	-7.57275
ें	-7.57295
ic	-7.57687
ु	-7.5776
री	-7.58282
or	-7.58701
▁होने	-7.58969
c	-7.60692
▁भारत	-7.61205
l	-7.61383
▁कार्य	-7.61654
ओं	-7.61669
in	-7.61895
▁अपनी	-7.62401
▁/	-7.62589
▁स	-7.63163
▁प्र	-7.63166
▁new	-7.6348
▁कारण	-7.63872
ड	-7.64152
”	-7.65117
▁नाम	-7.65461
▁क्या	-7.65936
▁some	-7.6617
ती	-7.662
an	-7.66207
▁वाले	-7.66734
▁these	-7.6705
▁only	-7.67268
▁हुआ	-7.67308
o	-7.67436
▁what	-7.68168
th	-7.69249
▁हुए	-7.69442
▁them	-7.70206
▁मैं	-7.70459
▁चाहिए	-7.7128
▁इन	-7.71477
▁उस	-7.717
ऊ	-7.72
▁re	-7.72098
▁काम	-7.72719
▁प्रति	-7.72749
ness	-7.7289
▁after	-7.73186
▁उसे	-7.73393
▁प्रकार	-7.73563
▁over	-7.73671
▁पहले	-7.74415
▁l	-7.74428
le	-7.74662
ण	-7.75014
b	-7.75426
▁ये	-7.75553
ख	-7.75733
▁म	-7.75922
able	-7.76139
▁लेकिन	-7.76325
▁तरह	-7.76675
▁like	-7.77035
ion	-7.78471
▁मे	-7.78722
ity	-7.78887
या	-7.78912
▁government	-7.79112
▁उनके	-7.79914
▁should	-7.80369
▁two	-7.80391
ड़	-7.80506
▁any	-7.8094
नी	-7.81116
सी	-7.81856
▁दो	-7.82099
us	-7.82184
▁सभी	-7.82292
▁क	-7.82936
▁बात	-7.83352
k	-7.83465
ू	-7.841
ाई	-7.84151
▁व	-7.84427
▁उसके	-7.84551
▁d	-7.84672
ज़	-7.84736
▁कहा	-7.85264
▁लिये	-7.85548
की	-7.85731
▁गई	-7.85946
▁जाने	-7.86152
ऋ	-7.88062
▁फिर	-7.88111
मा	-7.88419
▁इसके	-7.88499
▁अब	-7.88562
▁into	-7.88636
ch	-7.89184
िया	-7.89897
▁होते	-7.90618
▁बारे	-7.90776
ली	-7.90952
▁उन्हें	-7.90962
▁de	-7.91063
▁अन्य	-7.91465
ma	-7.91842
▁यदि	-7.92243
▁world	-7.92281
▁used	-7.92873
▁प्रयोग	-7.92879
▁क्षेत्र	-7.9325
▁दी	-7.9372
▁लोगों	-7.93726
ई	-7.94146
च	-7.94284
▁under	-7.94606
▁जाती	-7.95163
▁ए	-7.9519
▁p	-7.95321
िका	-7.95602
▁my	-7.95632
▁her	-7.95646
का	-7.9577
▁than	-7.95841
▁होना	-7.9617
▁many	-7.9641
ment	-7.96601
▁ब	-7.96764
▁very	-7.96851
▁उन	-7.97692
▁प्राप्त	-7.97776
से	-7.98248
rb	-7.98271
▁सं	-7.98295
f	-7.98466
▁would	-7.98992
ंग	-7.99021
▁me	-7.99115
h	-7.99153
en	-7.99454
▁first	-7.99499
▁होगा	-7.99704
▁could	-8.00353
▁system	-8.00404
▁जाना	-8.00651
▁गए	-8.01025
▁b	-8.01048
▁get	-8.01238
w	-8.01442
▁man	-8.01673
ur	-8.01674
ए	-8.02209
▁work	-8.02492
▁use	-8.02536
▁सरकार	-8.02792
फ	-8.03553
्स	-8.03784
एं	-8.0389
ण्श्	-8.03911
it	-8.03993
▁indian	-8.04022
छ्ष	-8.0456
on	-8.04685
▁अगर	-8.04792
▁state	-8.04915
▁him	-8.05405
▁she	-8.0564
▁प	-8.05645
▁made	-8.05848
il	-8.06028
▁देश	-8.06415
▁go	-8.06424
▁ग	-8.06543
▁most	-8.07619
▁)	-8.07898
▁जैसे	-8.07973
ै	-8.08104
वा	-8.08206
▁ले	-8.08214
▁because	-8.08947
ti	-8.0952
▁t	-8.0958
▁नि	-8.09723
na	-8.099
ta	-8.1009
▁भारतीय	-8.10304
▁{	-8.11071
सा	-8.11112
▁उपयोग	-8.11123
▁सकती	-8.12179
▁पास	-8.12388
िंग	-8.12466
▁name	-8.13266
▁हर	-8.13406
▁now	-8.13485
la	-8.13545
▁रही	-8.13658
▁हुई	-8.13687
▁years	-8.13912
▁then	-8.14001
▁make	-8.14111
ra	-8.15286
▁बार	-8.15327
▁उन्होंने	-8.15804
▁अव	-8.16086
ia	-8.16979
li	-8.17408
▁द	-8.1747
▁even	-8.17953
▁ओर	-8.18251
▁life	-8.18349
ive	-8.18593
थ	-8.18679
▁c	-8.18801
▁पूर्व	-8.18878
▁our	-8.19218
▁इसे	-8.19301
कार	-8.19324
▁per	-8.19432
ant	-8.1953
am	-8.19627
ate	-8.19746
▁लोग	-8.19898
▁उ	-8.19992
man	-8.20025
▁सबसे	-8.20069
▁राज्य	-8.2008
▁आपको	-8.20346
▁बे	-8.20837
rrb	-8.20993
!	-8.21149
▁e	-8.21325
▁file	-8.21662
ले	-8.22124
▁list	-8.22403
▁जीवन	-8.22922
▁ऐसा	-8.23023
▁number	-8.2326
▁उनकी	-8.23374
um	-8.237
ri	-8.23821
▁being	-8.23858
ॉ	-8.24125
▁केवल	-8.24311
▁<>	-8.24518
▁set	-8.24827
▁अनु	-8.24882
▁ज	-8.24903
ul	-8.25222
▁how	-8.25507
▁such	-8.25631
ous	-8.25795
▁year	-8.25885
▁war	-8.25904
id	-8.2594
▁वाली	-8.26242
▁एवं	-8.2668
▁इ	-8.26762
▁part	-8.27271
रे	-8.27471
lo	-8.27636
▁व्यक्ति	-8.27685
ers	-8.27775
▁day	-8.27886
▁before	-8.27899
दा	-8.28105
▁1	-8.28397
}	-8.28503
▁सी	-8.28601
▁स्थान	-8.28619
as	-8.28689
▁g	-8.28718
▁where	-8.2923
▁सु	-8.2933
▁back	-8.29506
▁help	-8.29734
ar	-8.29797
▁करती	-8.30984
▁long	-8.31686
▁कु	-8.31892
▁अभि	-8.32128
प्र	-8.32281
el	-8.32519
▁वर्ष	-8.32637
▁take	-8.32813
▁अपना	-8.32914
to	-8.3295
अ	-8.3317
▁'%	-8.33182
▁श	-8.3319
ro	-8.33358
▁us	-8.33636
is	-8.33777
वि	-8.33787
▁भाग	-8.33933
▁जाते	-8.34114
te	-8.34149
▁through	-8.34383
▁between	-8.3449
▁उसने	-8.34553
▁see	-8.34655
ति	-8.34703
▁भाषा	-8.34704
▁बीच	-8.34807
ध	-8.3494
▁पता	-8.34948
▁स्थिति	-8.35404
▁कई	-8.35422
▁country	-8.3563
▁तब	-8.35767
▁लिया	-8.35898
▁information	-8.3594
ँ	-8.36171
less	-8.3622
st	-8.3624
▁way	-8.36384
▁दिन	-8.36834
▁बा	-8.36949
ंड	-8.37503
▁place	-8.37516
फ़	-8.3786
▁during	-8.37892
ry	-8.38008
▁end	-8.38034
▁court	-8.38035
़	-8.38092
के	-8.38309
▁पा	-8.38578
▁right	-8.38785
▁well	-8.3903
▁called	-8.3905
▁कभी	-8.39168
▁co	-8.39404
u	-8.396
▁र	-8.39619
▁good	-8.39868
मान	-8.40117
▁मुझे	-8.40282
▁उसकी	-8.40755
▁अलग	-8.40968
ce	-8.41516
at	-8.41811
▁किए	-8.4186
ter	-8.42277
भ	-8.42327
▁ऐसे	-8.42344
▁देने	-8.42618
▁just	-8.42851
▁विश्व	-8.43009
▁ह	-8.4311
टी	-8.43239
▁found	-8.4338
▁सूची	-8.43783
▁national	-8.43934
ism	-8.44255
▁अप	-8.44516
▁account	-8.44622
▁त	-8.44676
▁बना	-8.44891
▁ल	-8.45026
ent	-8.45122
▁दर	-8.45345
▁f	-8.45474
▁लगा	-8.45688
ist	-8.45742
▁धर्म	-8.45955
▁said	-8.45957
▁उप	-8.46121
▁अमेरिका	-8.46123
ौ	-8.46276
x	-8.46365
▁language	-8.46407
v	-8.46479
यों	-8.46738
▁सब	-8.46955
▁ख	-8.46995
▁data	-8.47098
sh	-8.47099
ve	-8.47183
the	-8.47657
ठ	-8.47827
▁उपलब्ध	-8.47835
▁विकास	-8.47859
जी	-8.47904
▁अनुसार	-8.47997
▁च	-8.48178
▁दे	-8.4818
▁क्योंकि	-8.48999
जा	-8.49162
ary	-8.49299
नि	-8.49403
▁down	-8.49462
▁m	-8.49689
▁2	-8.49912
▁परि	-8.49929
se	-8.50495
vi	-8.50614
ne	-8.5084
▁आपके	-8.50966
▁must	-8.51062
▁against	-8.51267
▁known	-8.51278
▁those	-8.51357
▁know	-8.5178
▁विशेष	-8.52233
▁युद्ध	-8.52304
गी	-8.52529
tic	-8.52568
▁आधार	-8.52571
▁ला	-8.52802
▁सामान्य	-8.52939
▁free	-8.53034
आ	-8.53179
▁water	-8.53292
स्	-8.53548
▁power	-8.53559
▁need	-8.53741
▁different	-8.54187
▁here	-8.54188
स्त	-8.54245
▁dis	-8.54497
▁अन	-8.54588
इ	-8.54776
▁open	-8.54947
▁वाला	-8.55
▁दोनों	-8.55082
▁वो	-8.55148
▁high	-8.55396
▁want	-8.55808
▁मिल	-8.56203
age	-8.56224
▁हेतु	-8.5631
▁विचार	-8.56336
ll	-8.57046
▁पी	-8.57249
ाना	-8.57317
मी	-8.57492
▁order	-8.57719
▁साल	-8.57772
▁गये	-8.57851
▁great	-8.58079
(	-8.58318
वर	-8.58381
▁house	-8.59053
▁श्रेणीः	-8.5914
▁अनेक	-8.59191
▁देना	-8.59205
di	-8.59307
▁due	-8.59657
दार	-8.59829
▁na	-8.59904
▁प्रक्रिया	-8.59987
को	-8.60313
▁मध्य	-8.60325
▁उत्तर	-8.60355
▁law	-8.60666
▁''	-8.60678
▁सहायता	-8.60712
▁u	-8.60714
▁सा	-8.6086
▁did	-8.60944
गा	-8.61033
▁form	-8.61072
▁three	-8.61284
▁रंग	-8.61322
▁इसका	-8.61442
पी	-8.61688
▁गयी	-8.61903
▁much	-8.61995
पर	-8.62144
ge	-8.62168
▁last	-8.62278
▁while	-8.62788
▁public	-8.62851
ni	-8.63034
ish	-8.6337
्र	-8.63418
▁does	-8.64099
▁ra	-8.64295
▁given	-8.64807
▁non	-8.65038
▁जिसमें	-8.654
▁same	-8.65575
▁home	-8.65949
▁person	-8.66076
▁चार	-8.6634
▁category	-8.66402
▁please	-8.66531
▁computer	-8.6661
▁बन	-8.6661
▁own	-8.6662
▁ऋण	-8.66853
▁error	-8.66888
▁pro	-8.67076
▁काफी	-8.67152
2	-8.67171
▁ka	-8.67213
ak	-8.67315
▁n	-8.67473
टा	-8.676
एँ	-8.67608
▁each	-8.67681
▁हूँ	-8.67761
ci	-8.67762
▁तीन	-8.67768
ies	-8.67929
▁उसका	-8.67955
▁states	-8.68049
ाव	-8.68084
▁off	-8.68207
ated	-8.68221
▁रोग	-8.68671
हा	-8.68697
रो	-8.68882
बा	-8.68905
▁case	-8.68951
▁योजना	-8.68984
▁3	-8.68996
co	-8.68997
▁मु	-8.69069
▁बैंक	-8.691
सं	-8.69127
▁बाहर	-8.69337
▁भ	-8.69341
▁small	-8.69382
▁दौरान	-8.69432
पूर्ण	-8.69476
et	-8.69558
▁नही	-8.69561
ंद	-8.69853
▁cannot	-8.70052
▁संख्या	-8.70062
▁दूसरे	-8.7007
▁important	-8.70103
▁हमारे	-8.70217
▁अल	-8.70649
▁प्रभाव	-8.70822
▁सूचना	-8.70829
▁every	-8.70878
▁&	-8.70955
▁type	-8.71246
▁जल	-8.71383
un	-8.71479
▁both	-8.71551
▁हमें	-8.7167
▁चाहते	-8.71681
▁al	-8.71924
▁car	-8.71976
▁जी	-8.72005
▁सेवा	-8.72093
▁service	-8.7212
▁change	-8.72188
▁अर्थ	-8.72217
▁process	-8.72345
▁local	-8.72375
क्ष	-8.72498
▁capital	-8.72577
▁पत्र	-8.72756
ck	-8.73251
▁...	-8.73276
▁bank	-8.73483
पन	-8.73499
▁ओ	-8.73656
▁उनका	-8.73674
▁फ़ाइल	-8.73883
ंस	-8.73979
▁शामिल	-8.74055
▁इजरायल	-8.74095
▁control	-8.7413
▁सन्	-8.74457
▁घर	-8.74578
▁group	-8.74583
▁show	-8.74621
वी	-8.74645
▁राष्ट्रीय	-8.74756
▁सम	-8.74796
बी	-8.75024
▁इससे	-8.75066
▁come	-8.75162
ियां	-8.75366
क्	-8.75465
ओ	-8.75506
ड़ा	-8.75589
▁प्रदान	-8.7564
▁स्तर	-8.7572
▁support	-8.75862
▁निर्माण	-8.75868
▁ना	-8.7589
da	-8.76012
▁key	-8.76103
im	-8.76134
▁शुरू	-8.76296
▁ई	-8.76321
be	-8.76405
1	-8.76435
▁आगे	-8.77156
▁महत्वपूर्ण	-8.77237
▁air	-8.77399
▁बिना	-8.77472
▁सि	-8.77572
ad	-8.77687
▁मूल	-8.77729
ya	-8.77917
▁market	-8.78013
▁अथवा	-8.78045
स्ट	-8.78082
▁muslim	-8.78135
ीकरण	-8.78234
▁भर	-8.78243
▁मुख्य	-8.783
▁प्रमुख	-8.7833
3	-8.78363
▁5	-8.78447
▁k	-8.78543
▁la	-8.78592
ंट	-8.78702
▁human	-8.78773
दी	-8.7899
▁pre	-8.7926
est	-8.79317
▁o	-8.7942
ty	-8.79463
▁company	-8.79476
▁जानकारी	-8.79509
▁left	-8.79549
▁another	-8.79557
▁main	-8.79628
tion	-8.79641
गत	-8.79798
z	-8.79888
▁जाए	-8.79953
▁book	-8.79996
▁यू	-8.8011
▁पूरी	-8.80255
▁जिसे	-8.80424
्या	-8.80431
▁खेल	-8.80984
▁old	-8.81012
▁post	-8.81024
▁done	-8.81072
▁ऐसी	-8.81243
▁find	-8.81302
▁मेरे	-8.81499
▁पूर्ण	-8.81543
▁बनाने	-8.8166
▁child	-8.8177
▁without	-8.81779
▁available	-8.81845
▁policy	-8.82195
▁फ	-8.82248
▁god	-8.82351
▁ma	-8.82494
िस	-8.82525
va	-8.82552
▁ट	-8.82598
वाद	-8.8271
▁4	-8.82777
▁शब्द	-8.82852
▁text	-8.82886
▁v	-8.82915
ha	-8.83005
▁आज	-8.83199
▁अधिकार	-8.83344
▁hindi	-8.83361
▁river	-8.83407
▁body	-8.83696
ut	-8.83728
म्ब	-8.83916
no	-8.84122
▁islam	-8.84151
▁परिवर्तन	-8.8416
▁विधि	-8.84252
▁give	-8.84294
:%	-8.84316
▁don	-8.84406
ot	-8.84407
▁general	-8.84484
▁act	-8.84587
▁इसमें	-8.84602
▁मान	-8.84924
▁ली	-8.85085
▁h	-8.85101
▁समूह	-8.85142
▁अभी	-8.85164
ष	-8.85176
▁आर्थिक	-8.85356
▁आदि	-8.8537
क्स	-8.85635
▁israel	-8.8586
▁start	-8.85938
▁19	-8.85986
▁position	-8.86068
▁political	-8.86088
▁रक्त	-8.8631
▁second	-8.86318
▁development	-8.86467
▁head	-8.86634
▁sub	-8.86809
▁ध्यान	-8.86828
▁संबंध	-8.86838
▁आम	-8.86856
्म	-8.87258
▁rate	-8.87538
▁money	-8.87572
▁tree	-8.87649
ार	-8.87777
ian	-8.87795
ine	-8.87965
▁बंद	-8.88157
▁ध	-8.88201
▁कहते	-8.88204
में	-8.88379
▁बाजार	-8.88469
ol	-8.8851
▁विषय	-8.88649
▁छ	-8.88754
▁प्रतिशत	-8.8877
▁muslims	-8.88816
▁present	-8.88828
▁काल	-8.8895
▁अंत	-8.89019
ंक	-8.89032
▁जिस	-8.89131
▁जैसा	-8.89182
▁think	-8.89191
▁light	-8.89255
ance	-8.8928
ted	-8.89569
▁view	-8.89725
▁mo	-8.8987
▁माल	-8.89872
▁पे	-8.89878
▁उद्योग	-8.8991
sa	-8.89915
▁children	-8.90062
▁इसलिए	-8.90138
ca	-8.90193
go	-8.90357
▁चल	-8.90574
▁संदेश	-8.90616
▁राज	-8.9064
▁सके	-8.90753
▁bar	-8.90776
ence	-8.90811
्व	-8.91133
ting	-8.91277
ड़ी	-8.91287
me	-8.91335
▁रि	-8.91374
▁उच्च	-8.91449
न्द	-8.91454
▁कंपनी	-8.91454
ान	-8.91573
▁whether	-8.91603
▁तौर	-8.91665
▁period	-8.9187
▁ca	-8.91892
▁president	-8.9198
▁देता	-8.91984
▁मदद	-8.92107
▁उदाहरण	-8.92185
▁full	-8.92194
▁देखा	-8.92204
▁नीति	-8.92298
▁network	-8.92306
▁विभिन्न	-8.92546
▁social	-8.92657
min	-8.92778
▁plant	-8.92889
▁access	-8.92933
▁“”	-8.9297
▁line	-8.93096
▁value	-8.93121
▁महा	-8.93148
op	-8.93312
▁point	-8.93415
ful	-8.93523
▁मैंने	-8.93546
▁घ	-8.93771
्ल	-8.93828
▁hand	-8.93876
▁आई	-8.93877
▁आवश्यक	-8.93921
▁सही	-8.93959
▁ज्यादा	-8.94107
▁pa	-8.94266
▁going	-8.94305
de	-8.94676
▁इसी	-8.9474
▁little	-8.94841
▁en	-8.94911
▁आकार	-8.94967
ke	-8.94981
up	-8.95209
▁मूल्य	-8.95244
▁%	-8.95377
िन	-8.95382
▁history	-8.95403
घ	-8.95569
▁am	-8.957
▁यहाँ	-8.95706
wa	-8.95726
▁बहु	-8.9593
▁put	-8.95935
वे	-8.9606
यां	-8.96158
▁british	-8.96294
▁तैयार	-8.96391
लि	-8.96456
▁कै	-8.96493
▁office	-8.96536
डी	-8.96547
▁जारी	-8.96574
▁address	-8.96647
6	-8.96674
▁खोज	-8.96697
▁bi	-8.96704
ंज	-8.96734
▁con	-8.96853
▁again	-8.96922
▁बड़ी	-8.96974
▁निर्णय	-8.97182
▁न्यायालय	-8.97306
▁समस्या	-8.97523
▁large	-8.97602
▁दूर	-8.97685
▁whole	-8.97716
▁area	-8.97786
▁minister	-8.97791
▁date	-8.9818
ीन	-8.98183
जन	-8.98309
▁बच्चे	-8.98599
▁however	-8.98606
he	-8.98622
han	-8.98638
▁four	-8.98666
ण्ड	-8.98692
▁इतिहास	-8.98707
▁गो	-8.98748
▁मांग	-8.98751
▁सुरक्षा	-8.98767
▁पृष्ठ	-8.98843
खा	-8.9887
तर	-8.98938
कारी	-8.9918
ास	-8.99288
▁बदल	-8.99416
▁days	-8.99437
▁समान	-8.99489
▁आवश्यकता	-8.99512
छ	-8.99736
▁फ़	-8.99769
▁दा	-8.99793
▁land	-8.99817
om	-8.99831
▁उत्पादन	-8.9984
मे	-8.99988
ृ	-9.00032
▁st	-9.00096
▁स्वयं	-9.0011
▁business	-9.00112
▁इस्लाम	-9.00193
ac	-9.00209
▁जमा	-9.00274
▁त्रुटि	-9.00313
▁fact	-9.00406
nt	-9.00475
▁school	-9.00596
▁6	-9.00607
▁झ	-9.00748
▁जहां	-9.00789
त्त	-9.00824
▁united	-9.00862
▁party	-9.00872
▁अधि	-9.00891
▁side	-9.00995
▁लगभग	-9.01066
▁होगी	-9.01071
▁according	-9.01076
▁self	-9.01218
▁failed	-9.01273
ाय	-9.01306
स्थ	-9.01457
▁south	-9.01473
▁शक्ति	-9.01496
हीन	-9.0175
▁ठीक	-9.01904
▁रे	-9.01981
▁प्रत्येक	-9.01989
▁सीमा	-9.02019
▁ऊपर	-9.02201
▁vi	-9.02243
ling	-9.02299
स्क	-9.0241
वादी	-9.02439
“	-9.02511
▁हे	-9.02551
▁look	-9.02606
▁यहां	-9.02863
▁देते	-9.0295
▁रह	-9.02994
ial	-9.03015
▁ऐ	-9.03102
▁सक्रिय	-9.03212
▁ex	-9.03217
gu	-9.03228
▁example	-9.03302
ga	-9.03316
▁कैसे	-9.03558
▁ba	-9.03691
त्र	-9.03881
ात्मक	-9.0394
▁स्थित	-9.03958
▁शरीर	-9.03992
▁common	-9.04124
▁american	-9.04273
▁page	-9.04363
j	-9.04379
▁food	-9.04435
ir	-9.04505
पुर	-9.04548
▁test	-9.04587
▁read	-9.04591
▁things	-9.04606
▁स्पष्ट	-9.04701
▁city	-9.04708
▁अच्छा	-9.0471
▁men	-9.0484
▁economic	-9.04873
त्व	-9.04938
▁कल	-9.04965
वार	-9.05092
त्	-9.05173
▁छोटे	-9.05194
▁got	-9.05334
▁inter	-9.05341
▁शहर	-9.05398
क़	-9.0541
▁पद	-9.05496
▁नियंत्रण	-9.05521
▁चित्र	-9.05563
▁गु	-9.05733
▁blood	-9.05764
▁प्रणाली	-9.05765
उ	-9.05833
bi	-9.05902
▁18	-9.0601
▁मंदिर	-9.06011
▁east	-9.06075
▁पार	-9.06112
▁अंग	-9.06116
▁ha	-9.0617
▁दुनिया	-9.06218
पत्र	-9.0625
▁too	-9.06302
▁नदी	-9.0634
land	-9.06523
mi	-9.0653
▁video	-9.06574
▁seen	-9.06586
▁less	-9.06597
ph	-9.06618
▁सो	-9.06701
▁नीचे	-9.06772
▁ड	-9.06808
रण	-9.06881
os	-9.06946
▁प्रयास	-9.07004
▁स्व	-9.07071
▁still	-9.07122
▁came	-9.0713
करण	-9.07195
▁वर्ग	-9.07205
कि	-9.07223
्क	-9.07238
▁लाभ	-9.07331
▁family	-9.07479
▁become	-9.0756
si	-9.07585
▁करके	-9.07698
▁नया	-9.07736
▁say	-9.07796
ct	-9.07814
▁always	-9.07844
▁पूरा	-9.07871
▁far	-9.08081
▁पुनः	-9.08127
▁व्यवस्था	-9.08304
▁जन्म	-9.08322
▁ho	-9.08536
▁स्थानीय	-9.08699
▁कुल	-9.08789
▁special	-9.08789
pa	-9.08889
▁means	-9.08962
▁लेने	-9.08979
▁x	-9.09014
pi	-9.09052
▁स्वीकार	-9.09111
०	-9.09258
▁le	-9.09348
▁health	-9.09479
▁age	-9.09549
po	-9.09581
▁away	-9.09661
▁पाया	-9.09695
▁मा	-9.09709
▁heart	-9.09784
ba	-9.09838
▁परिणाम	-9.09874
▁हाथ	-9.09901
▁r	-9.09953
ंच	-9.09973
▁संघ	-9.10027
▁बच्चों	-9.10064
ag	-9.10137
▁सहायक	-9.10248
▁anti	-9.10287
▁सेना	-9.1033
हार	-9.10338
रूप	-9.10462
per	-9.10496
▁धन	-9.10558
▁लेखा	-9.10569
टर	-9.10624
र्स	-9.10711
▁near	-9.10743
▁जाएगा	-9.10836
▁film	-9.1088
▁देख	-9.10968
7	-9.10979
▁10	-9.11023
▁लगता	-9.11048
▁फाइल	-9.11078
▁उत्पन्न	-9.11095
▁समझ	-9.11119
▁रखा	-9.11125
▁मामले	-9.11239
▁वृद्धि	-9.1129
▁bill	-9.11432
▁cost	-9.11455
▁services	-9.11467
▁लेकर	-9.11636
▁ja	-9.11716
▁keep	-9.11778
▁next	-9.11851
▁king	-9.11872
रि	-9.11881
्यू	-9.12099
▁code	-9.12362
▁अरब	-9.1244
▁using	-9.12448
ंत	-9.12508
▁run	-9.12511
▁ad	-9.12531
शन	-9.12558
▁ni	-9.1279
hi	-9.128
▁जन	-9.12808
▁face	-9.12928
▁स्थापित	-9.13012
▁device	-9.13045
शा	-9.1319
▁tax	-9.133
डा	-9.13313
कर्ता	-9.13339
▁action	-9.13347
▁बह	-9.13372
▁based	-9.13398
▁ro	-9.13452
▁मानव	-9.13558
▁विज्ञान	-9.1357
tr	-9.13647
▁council	-9.13772
▁international	-9.13772
▁play	-9.13783
▁जांच	-9.13865
pur	-9.13906
▁few	-9.13989
▁मन	-9.14134
▁कृपया	-9.1416
िल	-9.14179
▁कंप्यूटर	-9.14193
र्	-9.14278
▁later	-9.14363
▁best	-9.1442
▁जगह	-9.14468
▁since	-9.14563
▁application	-9.14647
▁cha	-9.14685
▁death	-9.14859
ोर	-9.14902
▁पक्ष	-9.14918
▁within	-9.14983
▁अनुमति	-9.15
▁बड़ा	-9.1504
▁सामने	-9.15093
▁central	-9.15241
▁problem	-9.15255
चा	-9.15263
▁why	-9.15281
▁आतंकवाद	-9.15316
▁check	-9.15426
▁आने	-9.15447
▁विभाग	-9.1546
▁रुप	-9.15518
▁तंत्र	-9.15613
▁foreign	-9.1573
▁सदस्य	-9.15745
▁जिसके	-9.15761
▁department	-9.15829
▁राम	-9.15834
▁सक्षम	-9.15844
▁word	-9.15845
▁बल	-9.15859
▁पीछे	-9.15865
ja	-9.1591
र्ज	-9.16145
▁level	-9.16352
▁क्रिया	-9.16353
▁started	-9.16441
▁संकेत	-9.16551
and	-9.16656
▁बड़े	-9.16687
▁समाप्त	-9.1669
▁चला	-9.16694
▁security	-9.16723
▁user	-9.16821
▁बी	-9.16845
▁गा	-9.16945
▁रा	-9.17044
▁बि	-9.17192
▁love	-9.17196
▁अति	-9.17202
▁create	-9.17217
ah	-9.17284
▁times	-9.17285
▁इस्तेमाल	-9.17324
▁हों	-9.17412
ये	-9.17444
▁taken	-9.1753
▁दक्षिण	-9.17545
र्ड	-9.17627
पा	-9.17719
em	-9.17753
रू	-9.17757
der	-9.17843
▁मात्रा	-9.17848
▁ph	-9.17861
▁निर्धारित	-9.1787
▁पिछले	-9.17933
▁red	-9.17974
▁report	-9.17996
ating	-9.18
▁today	-9.18177
शोथ	-9.18203
▁आय	-9.18412
▁बस	-9.18457
▁व्यापार	-9.18493
▁शिक्षा	-9.18542
▁मि	-9.18617
▁बिल	-9.18621
5	-9.18647
▁around	-9.18741
िए	-9.18798
न्	-9.18822
“”	-9.18981
▁8	-9.19037
▁middle	-9.19047
▁ga	-9.19072
▁demand	-9.19149
▁west	-9.19195
ka	-9.19243
▁price	-9.19327
itis	-9.19351
▁रखने	-9.19438
▁pay	-9.19442
▁एस	-9.19446
▁english	-9.19456
▁प्रवेश	-9.19466
▁कानून	-9.19476
▁मुद्रा	-9.19511
ru	-9.1953
िश	-9.19593
ite	-9.19612
ton	-9.19688
म्	-9.19786
▁परिवार	-9.19893
▁अस	-9.19952
▁राशि	-9.19981
▁000	-9.20016
रु	-9.20057
श्	-9.20079
▁राष्ट्र	-9.20104
▁lot	-9.2021
▁project	-9.20261
िर	-9.20468
▁डी	-9.20479
▁complete	-9.20488
▁class	-9.20494
od	-9.20625
▁bo	-9.20697
▁जिससे	-9.20743
▁call	-9.20768
डे	-9.20851
▁माना	-9.20867
▁current	-9.20958
▁किये	-9.21012
▁ज़	-9.21035
ाइ	-9.21086
भा	-9.2119
▁ब्र	-9.21194
▁संपर्क	-9.21216
▁विकल्प	-9.21337
▁working	-9.21494
▁जि	-9.21503
▁congress	-9.21635
▁possible	-9.21635
▁डेटा	-9.21667
▁लागू	-9.2174
▁मै	-9.2177
▁refers	-9.21843
▁ram	-9.21846
▁sc	-9.21889
▁उपकरण	-9.21908
शी	-9.21909
▁message	-9.21957
▁se	-9.21972
▁गति	-9.22074
धि	-9.22074
▁माध्यम	-9.22266
▁क्षमता	-9.2229
▁result	-9.22383
▁पहचान	-9.22399
mb	-9.22462
▁w	-9.22501
▁रहने	-9.22506
▁मिला	-9.22522
▁वर्तमान	-9.22583
▁better	-9.22584
▁republic	-9.22641
▁contact	-9.22795
▁मुस्लिम	-9.22829
▁अच्छी	-9.22901
▁never	-9.22916
▁विश्वास	-9.22938
ium	-9.23095
ेट	-9.23151
दान	-9.23251
mp	-9.23253
rs	-9.23428
▁परंतु	-9.23434
▁countries	-9.23542
▁राष्ट्रपति	-9.23547
ष्ठ	-9.23599
▁tell	-9.23683
▁related	-9.23707
▁server	-9.2379
▁जिसका	-9.23912
▁credit	-9.23998
▁hard	-9.24022
ाल	-9.2405
▁वर्षों	-9.24062
▁अधिकारी	-9.24078
ियन	-9.24101
ise	-9.2424
▁disease	-9.24551
▁temple	-9.24551
▁search	-9.24553
▁mind	-9.24628
▁able	-9.24733
▁question	-9.24771
ster	-9.24812
▁0	-9.24909
▁वस्तु	-9.25044
▁गुण	-9.25215
▁बाल	-9.2529
▁थीं	-9.25296
▁संबंधित	-9.25303
▁young	-9.25321
▁अर	-9.25321
▁गैर	-9.25345
▁mar	-9.25388
▁care	-9.25535
▁short	-9.25573
▁विस्तार	-9.25593
▁north	-9.25632
ियाँ	-9.25635
▁बै	-9.25642
▁hindu	-9.25791
▁industry	-9.25811
ेल	-9.2587
▁सुधार	-9.25875
ोल	-9.25926
▁संयुक्त	-9.25948
▁goods	-9.25995
ूर	-9.25997
▁image	-9.25999
▁मत	-9.26062
▁सका	-9.26077
▁matter	-9.26104
▁provided	-9.26104
▁रिपोर्ट	-9.26143
▁लाल	-9.26151
▁दूसरी	-9.26249
▁निर्	-9.26278
▁स्	-9.26391
▁j	-9.26407
▁दल	-9.26442
▁term	-9.26615
▁डि	-9.26634
▁folder	-9.26644
▁संविधान	-9.2669
▁अध्ययन	-9.26691
▁सह	-9.26738
▁va	-9.2674
▁दृष्टि	-9.26758
चर	-9.26901
▁took	-9.27026
▁हिन्दी	-9.27112
▁million	-9.27147
▁select	-9.27236
▁par	-9.27311
सर	-9.27349
▁often	-9.2753
▁पानी	-9.27543
▁di	-9.2755
▁amount	-9.27554
▁among	-9.27554
र्क	-9.27626
▁सर	-9.27884
बर	-9.27889
▁women	-9.27913
iv	-9.27985
▁कीमत	-9.28115
कों	-9.28124
▁field	-9.28129
दर	-9.28134
▁add	-9.28253
tu	-9.28265
▁parliament	-9.28337
▁अंतिम	-9.2837
▁प्रस्ताव	-9.28371
बल	-9.28415
▁po	-9.2861
▁पु	-9.28714
▁कह	-9.28764
▁thought	-9.2892
▁लाख	-9.29015
▁america	-9.29083
▁जबकि	-9.29113
▁लेना	-9.29239
▁पै	-9.29264
ber	-9.29278
▁चाहिये	-9.29375
ड़े	-9.29383
▁real	-9.294
ho	-9.29508
▁नए	-9.29599
▁something	-9.296
▁प्रश्न	-9.29672
ढ़	-9.29692
▁religion	-9.29723
यें	-9.29773
▁संभव	-9.29836
▁प्रस्तुत	-9.29859
▁clear	-9.29896
▁महिला	-9.29939
शि	-9.30002
▁already	-9.30055
▁close	-9.30065
झ	-9.30092
ver	-9.30157
▁original	-9.30206
▁पुस्तक	-9.30222
्यु	-9.30269
▁memory	-9.30405
▁बनाया	-9.30507
▁art	-9.30544
▁सर्वर	-9.30599
▁अतिरिक्त	-9.30627
▁low	-9.30688
गो	-9.30693
▁cent	-9.30734
लो	-9.30838
ap	-9.30878
mo	-9.30909
▁district	-9.30972
▁let	-9.30975
▁स्कूल	-9.30976
▁color	-9.31024
▁words	-9.3107
ator	-9.31108
pe	-9.3116
▁कांग्रेस	-9.31202
▁दें	-9.31226
▁शि	-9.31243
▁imp	-9.31357
▁दु	-9.31413
▁रोक	-9.3144
0	-9.31546
▁terrorism	-9.31671
▁निकल	-9.31731
▁ne	-9.31737
▁करे	-9.31802
▁structure	-9.31816
ाँ	-9.31883
▁white	-9.31901
▁income	-9.32016
▁मर	-9.32056
ही	-9.32066
▁संसद	-9.32076
▁देशों	-9.32077
बे	-9.32094
ure	-9.32145
▁etc	-9.32156
▁window	-9.3218
▁आदेश	-9.32194
▁five	-9.32209
▁problems	-9.32237
▁fa	-9.32273
हर	-9.32286
▁एल	-9.32487
▁members	-9.32537
▁समाज	-9.32624
▁display	-9.32653
▁interest	-9.32662
▁islamic	-9.32834
▁li	-9.32978
lic	-9.33043
▁कोशिश	-9.33067
वासी	-9.3316
▁su	-9.33196
▁woman	-9.3331
con	-9.33409
▁ढ	-9.3358
▁यही	-9.33639
▁lo	-9.33647
▁movement	-9.3369
▁size	-9.33764
▁शायद	-9.33774
▁pi	-9.33893
▁went	-9.33918
▁certain	-9.33985
ig	-9.33992
fi	-9.34048
▁अनुभव	-9.34142
▁समर्थन	-9.34174
▁really	-9.34208
▁major	-9.34326
▁live	-9.34442
▁ठ	-9.34469
bo	-9.34474
▁पार्टी	-9.34491
▁files	-9.34504
मन	-9.34589
▁जाँच	-9.34624
▁pe	-9.34624
▁note	-9.34684
▁जाये	-9.34728
▁खर्च	-9.34734
war	-9.3475
▁15	-9.34765
▁क्यों	-9.34836
▁पहुंच	-9.34874
▁छोड़	-9.34979
ज़ा	-9.35
▁पुनर्	-9.35
▁हमने	-9.35044
▁वापस	-9.35054
▁वायु	-9.35056
▁production	-9.35109
tal	-9.35111
mon	-9.35193
▁might	-9.35208
▁author	-9.35262
▁आरंभ	-9.35271
▁प्रथम	-9.35446
ng	-9.35493
▁move	-9.35519
▁जान	-9.35547
▁बल्कि	-9.35566
▁सेट	-9.35634
▁ar	-9.35652
ud	-9.35656
▁अंतर	-9.35711
▁item	-9.35712
▁ab	-9.35714
▁भूमि	-9.35738
men	-9.35752
▁12	-9.35776
▁committee	-9.35929
▁नई	-9.35963
▁सभा	-9.36035
▁एन	-9.36039
▁turn	-9.36056
▁sun	-9.36061
▁डिस्क	-9.36063
▁media	-9.36103
▁चौ	-9.36119
ize	-9.36145
▁थ	-9.36154
▁हा	-9.36281
tra	-9.36284
▁bad	-9.3631
मु	-9.36374
▁निवेश	-9.36441
▁enable	-9.36626
▁सिस्टम	-9.36733
▁नेटवर्क	-9.36779
▁cause	-9.36809
ाम	-9.37021
ology	-9.37023
▁y	-9.37135
याँ	-9.3714
▁आर	-9.37166
▁गलत	-9.37238
न्त	-9.37411
▁पैदा	-9.37432
▁इं	-9.3749
son	-9.37534
▁लोक	-9.3754
ny	-9.37642
▁मह	-9.37737
काल	-9.37743
▁financial	-9.3776
▁true	-9.37763
▁became	-9.37884
▁विशिष्ट	-9.37884
▁हमेशा	-9.37886
▁मेरी	-9.3791
ांग	-9.37916
म्प	-9.37929
▁बढ़	-9.38114
▁विवरण	-9.38131
▁दिए	-9.38304
वाह	-9.38308
▁हि	-9.38312
▁sa	-9.38338
▁mi	-9.38366
▁police	-9.38378
▁making	-9.38386
▁pu	-9.38476
▁पुरुष	-9.38487
▁mode	-9.3852
सु	-9.38555
बद्ध	-9.38601
▁सामाजिक	-9.38656
▁डे	-9.3866
▁constitution	-9.38698
▁मद	-9.387
▁भू	-9.38742
ip	-9.38746
▁science	-9.38751
▁union	-9.388
▁cell	-9.38803
nd	-9.38924
▁लि	-9.38962
har	-9.38979
▁कमी	-9.3904
▁program	-9.39099
▁शासन	-9.39109
▁subject	-9.39125
▁खुद	-9.39167
▁tri	-9.39207
▁कला	-9.39336
▁विंडो	-9.39337
▁संगठन	-9.39368
▁7	-9.39391
▁विकसित	-9.39421
कु	-9.39666
▁निश्चित	-9.39752
ally	-9.39802
▁university	-9.39877
▁देखने	-9.39899
tor	-9.3991
▁य	-9.39961
▁नियम	-9.39973
ांत	-9.40093
▁culture	-9.40132
▁जहाँ	-9.40134
),	-9.40199
▁विदेशी	-9.40239
▁हाल	-9.40312
▁निर्दिष्ट	-9.40478
▁व्यवहार	-9.40506
▁big	-9.40517
we	-9.40527
▁once	-9.40603
▁गिर	-9.40618
ियो	-9.40624
ran	-9.40639
▁black	-9.40639
▁sure	-9.4071
▁साहित्य	-9.40748
▁उद्देश्य	-9.40762
▁खाता	-9.40776
▁trade	-9.40822
ेशन	-9.40848
▁केन्द्र	-9.40891
▁पहुँच	-9.40906
▁though	-9.4102
▁default	-9.41084
line	-9.41177
▁याद	-9.41185
▁तुम	-9.41223
▁mu	-9.4126
▁अमेरिकी	-9.41272
▁रो	-9.41285
▁आयात	-9.41367
▁try	-9.41416
▁11	-9.41453
राज	-9.41477
▁सू	-9.41588
▁pan	-9.41595
▁आपका	-9.41633
▁ground	-9.41664
▁मुसलमानों	-9.41709
वल	-9.41718
भाव	-9.41794
▁कहीं	-9.41801
▁किस	-9.41901
▁religious	-9.41912
▁प्रभावित	-9.41994
ुक	-9.42007
यर	-9.42035
▁संदर्भ	-9.4204
▁20	-9.42074
▁उससे	-9.42101
▁break	-9.42113
▁आया	-9.42148
ाप	-9.42158
▁software	-9.4217
our	-9.42182
▁सम्	-9.42196
▁education	-9.42295
▁certificate	-9.42298
▁भुगतान	-9.42333
▁fall	-9.4237
▁सिंह	-9.42401
8	-9.42406
▁हमारी	-9.42455
ative	-9.42462
▁भूमिका	-9.42465
▁western	-9.42556
▁आपकी	-9.42593
▁following	-9.42654
▁kind	-9.42747
तु	-9.42755
▁पाठ	-9.4277
▁उसी	-9.42786
▁having	-9.42815
ities	-9.42815
do	-9.42817
▁रहता	-9.42847
▁छवि	-9.42889
lu	-9.42942
ee	-9.43022
▁star	-9.43039
बू	-9.43044
ious	-9.43067
▁plan	-9.43085
▁लक्ष्य	-9.43085
▁लग	-9.4314
▁da	-9.43143
▁वास्तव	-9.43145
▁श्री	-9.43155
▁आधुनिक	-9.43205
▁हूं	-9.43235
▁ऑ	-9.43243
▁अवसर	-9.43286
▁मुख	-9.4333
▁provide	-9.43366
ff	-9.4341
▁मृत्यु	-9.43469
▁front	-9.43521
द्र	-9.43572
वान	-9.43576
▁केंद्र	-9.43631
▁required	-9.43667
▁सारे	-9.43669
▁कार	-9.43688
▁क्र	-9.43703
्ट	-9.43708
▁changes	-9.4392
▁रहते	-9.4394
्न	-9.43949
▁पहली	-9.43965
िता	-9.44083
िट	-9.44119
▁पि	-9.44127
ab	-9.44187
▁मो	-9.44204
▁देती	-9.44243
▁अनुप्रयोग	-9.44251
▁along	-9.44255
▁यात्रा	-9.4426
टि	-9.44379
▁further	-9.44383
न्ड	-9.44403
▁effect	-9.44468
ten	-9.44469
▁प्रदेश	-9.44542
▁घटना	-9.44542
▁deal	-9.44647
▁(%	-9.44713
यन	-9.44765
▁विश्वविद्यालय	-9.44778
ची	-9.44859
ization	-9.4491
▁return	-9.4501
▁sha	-9.45014
▁export	-9.45048
▁modern	-9.45048
▁ten	-9.45232
▁claim	-9.45334
▁ta	-9.4544
▁space	-9.45606
ical	-9.45644
ring	-9.45662
end	-9.45691
▁स्प	-9.45703
▁कुंजी	-9.45708
▁पुलिस	-9.45715
▁top	-9.45719
▁लगे	-9.45742
▁सुन	-9.45746
osis	-9.45829
न्ट	-9.45831
▁research	-9.45844
hu	-9.45949
सन	-9.45955
▁रु	-9.45957
▁exchange	-9.45975
र्ट	-9.45978
▁रख	-9.45997
▁उचित	-9.46009
▁mr	-9.46061
▁connection	-9.46134
▁अम	-9.4615
▁प्रकाश	-9.46209
▁योग्य	-9.46221
▁story	-9.46244
▁half	-9.46261
▁आधारित	-9.46326
युक्त	-9.4633
िम	-9.46357
▁राजनीतिक	-9.46378
▁singh	-9.464
▁authority	-9.46424
que	-9.46457
▁मार्ग	-9.46515
▁भा	-9.46517
▁boy	-9.46524
▁sea	-9.46583
ात	-9.4666
▁stop	-9.46874
गु	-9.46929
▁जीव	-9.46965
▁फ़िल्म	-9.46966
▁together	-9.47051
▁चुनाव	-9.47159
▁paper	-9.47192
▁ताकि	-9.47209
so	-9.47245
▁practice	-9.47322
bu	-9.474
▁बने	-9.47415
▁industrial	-9.47485
रिया	-9.47539
▁सिर्फ	-9.47574
▁mark	-9.47678
▁force	-9.47704
▁generally	-9.47731
▁डाल	-9.47738
ven	-9.47786
▁दिनों	-9.47802
▁निर्यात	-9.47906
▁सम्बन्धी	-9.4792
ूल	-9.48002
▁enter	-9.48021
▁san	-9.48218
▁fire	-9.48219
▁society	-9.48276
▁written	-9.48336
▁considered	-9.48348
▁मार	-9.48393
▁job	-9.48436
▁google	-9.48456
▁answer	-9.4855
▁phone	-9.48577
▁टे	-9.48598
ile	-9.48629
▁कार्यक्रम	-9.48753
पाल	-9.48821
▁delhi	-9.48825
्ज	-9.48871
व्य	-9.48886
▁मनुष्य	-9.48963
pt	-9.48982
यो	-9.48986
▁single	-9.49112
▁role	-9.49155
▁बता	-9.49246
ard	-9.49253
▁growth	-9.4926
द्	-9.49308
▁खंड	-9.49331
▁कृषि	-9.49377
▁rule	-9.49403
ible	-9.49409
▁मशीन	-9.49519
▁email	-9.49521
▁past	-9.49556
▁fe	-9.49557
ख़	-9.49609
▁sound	-9.49614
▁अधिकांश	-9.49676
▁week	-9.49761
▁दिल्ली	-9.49797
धा	-9.49829
▁सोच	-9.49864
र्म	-9.49878
▁किंतु	-9.49933
▁राय	-9.49977
्त	-9.50014
▁several	-9.50072
▁क्षेत्रों	-9.50093
ts	-9.50158
▁writing	-9.50186
▁course	-9.50192
▁th	-9.50253
▁वहां	-9.50283
टो	-9.50285
▁prime	-9.50294
ल्ल	-9.50307
▁अकबर	-9.50356
led	-9.50365
२	-9.50373
▁ढंग	-9.50391
▁सरकारी	-9.5048
▁जिन	-9.50531
▁rs	-9.50646
uc	-9.5076
▁अवधि	-9.50811
und	-9.50815
▁ब्रिटिश	-9.50911
▁जनता	-9.50925
टे	-9.50949
मो	-9.51006
▁पेश	-9.51047
▁रखना	-9.5109
ाने	-9.51139
▁receive	-9.5121
▁16	-9.51262
न्न	-9.51273
▁reason	-9.51288
▁screen	-9.51305
▁web	-9.51447
▁population	-9.51477
▁path	-9.51536
▁early	-9.51548
▁सै	-9.51564
ai	-9.51634
▁लिखा	-9.51685
▁9	-9.51834
ized	-9.51891
▁century	-9.519
▁mal	-9.51995
क्र	-9.52005
▁talk	-9.5202
▁दिशा	-9.5219
▁दृश्य	-9.52248
ज्ञ	-9.5225
निक	-9.52266
▁भीतर	-9.52315
▁उठा	-9.52362
जो	-9.52395
▁link	-9.52402
▁study	-9.52469
▁चि	-9.52478
▁बताया	-9.52513
▁article	-9.52573
▁{}	-9.52579
▁strong	-9.52613
▁विरोध	-9.52679
▁क्रम	-9.52716
▁चु	-9.52747
ढ	-9.52836
▁issue	-9.52954
सि	-9.52994
▁ask	-9.53064
ोन	-9.53105
▁lu	-9.53181
▁usually	-9.53223
▁increase	-9.53255
9	-9.53333
▁region	-9.53342
▁दिखाई	-9.53373
▁comp	-9.53396
▁रचना	-9.5343
▁method	-9.53446
▁machine	-9.53451
▁chief	-9.53477
▁update	-9.53495
▁अपराध	-9.53552
▁नये	-9.53552
▁जोड़	-9.53648
▁वेतन	-9.53664
चल	-9.53665
▁सदन	-9.53683
4	-9.53701
▁बढ	-9.53706
ie	-9.53847
▁खरीद	-9.53874
cy	-9.53947
▁sent	-9.53951
▁tr	-9.53963
▁third	-9.54052
▁freedom	-9.54057
ea	-9.54083
hy	-9.54092
▁मगर	-9.54102
av	-9.54156
▁पाकिस्तान	-9.54197
▁प्रारंभ	-9.54288
▁document	-9.54301
फा	-9.54336
▁various	-9.54346
▁तुलना	-9.54374
▁tu	-9.54384
▁चाहता	-9.54575
ष्ट	-9.5458
▁press	-9.54694
▁save	-9.54703
▁source	-9.54772
▁necessary	-9.5478
▁yet	-9.54802
▁meeting	-9.54832
▁copy	-9.54959
▁agreement	-9.55089
▁भिन्न	-9.55129
धान	-9.55146
▁संरचना	-9.55176
गर	-9.55188
वीं	-9.5528
▁son	-9.55307
▁comment	-9.55404
▁akbar	-9.55513
▁future	-9.55515
▁send	-9.55564
र्न	-9.55579
▁मामलों	-9.55586
शील	-9.55591
▁record	-9.55648
▁night	-9.55664
▁nature	-9.55675
▁selected	-9.55761
च्छ	-9.55822
▁mother	-9.5596
धार	-9.55988
sion	-9.5601
▁himself	-9.56103
▁earth	-9.56136
▁खो	-9.56146
▁राजा	-9.56171
५	-9.56186
▁sign	-9.562
▁import	-9.56212
▁others	-9.56245
▁करेंगे	-9.56265
▁मेरा	-9.56312
देश	-9.56341
▁वीडियो	-9.56438
▁months	-9.56498
▁जु	-9.56515
▁leave	-9.56567
▁ve	-9.56659
▁character	-9.56745
▁thing	-9.5676
▁प्रोग्राम	-9.56886
▁centre	-9.57121
ुल	-9.57134
dy	-9.57136
▁समिति	-9.57167
▁card	-9.57183
▁वै	-9.57199
ana	-9.57214
▁स्वास्थ्य	-9.5722
▁प्रा	-9.57248
▁सुरक्षित	-9.57301
▁विरुद्ध	-9.57301
▁पूरे	-9.57311
▁मी	-9.57343
▁natural	-9.57344
एस	-9.57345
▁living	-9.57445
▁निर्भर	-9.57449
ंब	-9.57514
▁पश्चिमी	-9.57554
ex	-9.57599
▁रोगी	-9.57741
▁military	-9.57745
▁rights	-9.57753
▁टी	-9.57757
▁cricket	-9.57896
ow	-9.57905
▁mis	-9.57908
▁total	-9.57927
▁चयन	-9.57972
▁organization	-9.58052
▁न्याय	-9.58093
▁भेज	-9.58141
▁fund	-9.58181
▁soon	-9.58182
▁condition	-9.58242
▁patient	-9.58243
ियम	-9.58253
▁believe	-9.58282
▁village	-9.58349
▁itself	-9.58349
▁व्यापक	-9.58349
▁password	-9.58351
▁base	-9.58373
ji	-9.58401
▁write	-9.58482
▁प्रदर्शन	-9.58518
ari	-9.5854
▁hold	-9.58588
▁six	-9.58634
▁औद्योगिक	-9.58652
▁month	-9.58735
▁operation	-9.58769
▁छोटी	-9.58804
▁sp	-9.58856
▁mumbai	-9.58956
▁होंगे	-9.58963
▁वा	-9.58985
▁member	-9.59035
▁multi	-9.59035
क्त	-9.59051
▁news	-9.59099
वन	-9.591
▁team	-9.59166
▁ज्ञान	-9.59188
▁अवस्था	-9.59224
▁अल्प	-9.5927
▁says	-9.59429
▁निर्देश	-9.59441
▁युग	-9.5952
▁स्मृति	-9.59626
▁loan	-9.59698
▁ख़	-9.59699
▁लघु	-9.59721
▁asked	-9.59737
ward	-9.59745
ाब	-9.59893
ुर	-9.59956
au	-9.60091
▁share	-9.60113
ub	-9.60116
▁देखें	-9.60172
▁फ़ोल्डर	-9.60182
न्स	-9.60281
▁quality	-9.60337
▁पाने	-9.60343
for	-9.60405
mer	-9.60421
way	-9.60459
▁either	-9.60491
▁चाहे	-9.60494
▁उत्पाद	-9.60504
▁payment	-9.60544
ेन	-9.60606
▁बेहतर	-9.60633
▁gra	-9.60727
▁दूसरा	-9.60801
▁तु	-9.60913
▁भाव	-9.60925
नाथ	-9.6095
▁respect	-9.61005
▁त्रि	-9.61008
▁एम	-9.61008
▁poor	-9.61038
▁bring	-9.61062
▁जवाब	-9.61112
▁जायेगा	-9.61137
▁individual	-9.61201
▁personal	-9.61269
▁ya	-9.61291
▁करेगा	-9.61396
q	-9.61401
▁खा	-9.6141
▁understand	-9.61428
▁taking	-9.61429
▁सलाह	-9.61515
▁pakistan	-9.61519
▁सार्वजनिक	-9.6158
▁फल	-9.61585
▁block	-9.616
८	-9.616
▁bit	-9.61625
▁फिल्म	-9.61667
tri	-9.61682
नीय	-9.61784
३	-9.61798
▁literature	-9.61893
▁संगीत	-9.61896
oc	-9.62005
▁el	-9.62041
▁निकाल	-9.62059
▁आस	-9.62101
▁स्थल	-9.62149
▁मुक्त	-9.62268
▁rest	-9.62309
▁cases	-9.62319
▁हटा	-9.62321
▁sector	-9.62383
▁सामग्री	-9.62423
▁चिकित्सा	-9.62441
▁port	-9.62492
ner	-9.62532
्ग	-9.62592
▁officer	-9.62627
▁app	-9.62639
पूर्व	-9.62701
▁मुसलमान	-9.62706
▁thus	-9.6273
र्द	-9.62758
▁civil	-9.62811
▁rules	-9.62939
पे	-9.62991
▁छोटा	-9.62997
▁अदालत	-9.62998
वास	-9.63014
▁getting	-9.63068
▁version	-9.63159
ान्त	-9.63162
▁प्रदर्शित	-9.63169
कल	-9.63181
नाम	-9.63229
▁सर्व	-9.63257
कृत	-9.63286
स्व	-9.63315
▁game	-9.63328
▁वास्तविक	-9.63351
▁section	-9.6341
▁music	-9.63421
▁oil	-9.63421
ंगा	-9.63541
▁द्वि	-9.63592
▁विफल	-9.6362
▁until	-9.63634
▁center	-9.63763
▁areas	-9.63771
ाह	-9.63774
▁गणराज्य	-9.63794
▁चुका	-9.63845
▁तंत्रिका	-9.63849
६	-9.63868
हन	-9.63906
िनी	-9.63944
▁वेब	-9.63972
▁तर्क	-9.64004
▁ball	-9.64032
▁अपेक्षा	-9.64079
▁chi	-9.64087
ning	-9.64118
▁audio	-9.64256
ार्थ	-9.64327
▁unit	-9.64343
gi	-9.64397
▁अग्र	-9.64513
▁उपचार	-9.64638
▁सीख	-9.64685
bb	-9.64705
तम	-9.64811
▁मल	-9.6483
▁continue	-9.64862
▁आयु	-9.6487
▁संघर्ष	-9.64923
▁सुभाष	-9.64927
▁books	-9.64945
ised	-9.65001
▁पश्चिम	-9.65052
जे	-9.6513
था	-9.65164
▁दिल	-9.65175
▁तरीके	-9.65243
▁balance	-9.65257
डि	-9.65276
▁community	-9.65405
▁ru	-9.65461
out	-9.65484
ीर	-9.65493
▁im	-9.65587
▁अवि	-9.65597
▁वहाँ	-9.65709
▁स्थापना	-9.65732
ram	-9.65774
▁gave	-9.65787
ose	-9.65836
▁संस्थान	-9.65855
▁bal	-9.65961
cul	-9.65967
▁legal	-9.6598
▁परियोजना	-9.66008
▁परीक्षण	-9.66058
chi	-9.66084
▁function	-9.66093
▁सुविधा	-9.66114
▁arab	-9.66151
▁moon	-9.66153
▁चा	-9.66216
▁मुंबई	-9.66221
१	-9.66233
कना	-9.66305
▁स्रोत	-9.66333
पति	-9.66398
▁loss	-9.66424
▁upon	-9.66515
ंगी	-9.66523
▁management	-9.66563
▁url	-9.66573
▁flag	-9.66582
्वा	-9.66589
▁rec	-9.6662
▁खोल	-9.66716
ble	-9.66747
▁ko	-9.66758
▁लागत	-9.66762
ेड	-9.66775
▁simple	-9.66889
▁letter	-9.66926
▁संस्कृति	-9.66955
▁निजी	-9.67028
▁हवा	-9.67053
▁limit	-9.67084
९	-9.67202
▁क्रिकेट	-9.67208
▁output	-9.67232
▁pass	-9.67287
▁होकर	-9.673
▁धार्मिक	-9.67374
▁भोजन	-9.6738
▁decision	-9.67397
▁actually	-9.67429
▁फोन	-9.67505
▁पर्याप्त	-9.6754
ze	-9.67561
▁feel	-9.67621
▁यूरोप	-9.67641
▁mail	-9.67693
▁युक्ति	-9.67699
▁भविष्य	-9.67705
ोस	-9.67719
▁दिये	-9.67793
ill	-9.67904
▁wall	-9.67943
▁title	-9.6796
सू	-9.6799
▁शिकायत	-9.68039
▁इतना	-9.68093
▁वी	-9.68105
▁active	-9.68161
▁नोट	-9.68165
▁session	-9.68207
▁सत्ता	-9.6841
▁fast	-9.68466
िये	-9.68587
▁जरूरत	-9.68593
▁नगर	-9.6862
▁बो	-9.6877
▁popular	-9.68879
▁ऋ	-9.68917
▁गंगा	-9.68935
▁पूंजी	-9.69032
ुआ	-9.69089
▁settings	-9.69109
▁doctor	-9.69214
▁format	-9.69216
▁risk	-9.69219
tha	-9.69229
▁सिर	-9.69316
▁success	-9.69333
द्द	-9.69355
िय	-9.69365
▁supreme	-9.69382
▁command	-9.69398
▁अर्	-9.69403
▁महान	-9.69426
▁te	-9.69431
ल्स	-9.69458
▁themselves	-9.69552
▁road	-9.6958
▁कहना	-9.69638
ेज	-9.69666
▁प्रशासन	-9.69669
▁enough	-9.69725
▁including	-9.69769
▁डाक	-9.69776
▁israeli	-9.69818
यी	-9.69882
▁प्रतिक्रिया	-9.69907
▁संबंधी	-9.7
नो	-9.70001
ide	-9.70027
one	-9.70031
▁अधीन	-9.7006
▁हिस्सा	-9.70061
▁regard	-9.70065
▁du	-9.70072
रस	-9.70085
▁हल	-9.70085
पट	-9.70178
▁doing	-9.70211
▁technology	-9.70231
▁मेल	-9.70271
ib	-9.70309
▁cut	-9.70332
▁board	-9.70338
▁ईश्वर	-9.70407
act	-9.70429
▁allow	-9.70435
▁बाहरी	-9.70462
▁province	-9.70573
▁तार	-9.70594
र्ग	-9.70619
ors	-9.7063
▁visit	-9.70672
▁stage	-9.70676
▁needs	-9.70678
du	-9.70683
▁advice	-9.70744
▁developed	-9.70818
चे	-9.70898
▁forward	-9.70948
▁कौन	-9.71016
▁father	-9.71091
▁अध्यक्ष	-9.71245
▁pra	-9.71311
▁संस्कृत	-9.71405
▁लो	-9.71413
▁built	-9.71432
▁mobile	-9.71432
▁अच्छे	-9.71432
▁ever	-9.71458
ोप	-9.71495
▁अंक	-9.71621
▁auto	-9.71633
ple	-9.71738
▁शेयर	-9.71745
▁least	-9.71791
if	-9.71826
▁table	-9.71879
▁treatment	-9.71881
नों	-9.7192
▁presented	-9.71941
▁महत्व	-9.71951
▁attack	-9.72095
▁जिन्हें	-9.72126
▁room	-9.72131
▁आक्रमण	-9.72151
▁पड़	-9.72232
श्त	-9.72279
ूँ	-9.72289
▁sex	-9.7229
▁therefore	-9.72299
लैंड	-9.72453
▁percent	-9.72478
▁30	-9.72551
▁step	-9.72584
mar	-9.72596
▁खास	-9.72598
▁park	-9.7265
▁follow	-9.72713
▁em	-9.72725
घात	-9.72728
जि	-9.72855
▁वित्तीय	-9.72863
kar	-9.72926
▁charge	-9.7295
▁disk	-9.72965
▁global	-9.72997
▁चू	-9.73025
▁difficult	-9.73039
ress	-9.73052
▁ता	-9.73059
▁निधि	-9.7307
▁पालन	-9.7309
▁ob	-9.731
▁मिलता	-9.73102
▁micro	-9.7314
▁male	-9.73149
▁गंभीर	-9.73173
▁घोषणा	-9.73173
देव	-9.73187
ft	-9.73206
रों	-9.73339
▁समाचार	-9.73352
▁तेल	-9.73412
▁इन्	-9.73492
▁व्य	-9.73493
▁लड़	-9.73512
▁towards	-9.73531
▁प्रमाणपत्र	-9.73536
▁प्रकाशित	-9.73656
▁director	-9.7368
▁१	-9.73701
▁जैसी	-9.73716
▁(19	-9.7374
▁हु	-9.73764
bar	-9.73782
▁eye	-9.73801
▁पदार्थ	-9.73862
▁internet	-9.73884
▁सामान	-9.73888
तः	-9.73903
▁told	-9.73943
▁पद्धति	-9.73958
बार	-9.73969
इस	-9.73983
ोट	-9.74024
▁अद्यतन	-9.74055
▁मंत्री	-9.74058
▁choose	-9.74061
▁parts	-9.74063
▁सेटिंग	-9.74088
▁normal	-9.74109
▁कोड	-9.74192
▁administration	-9.74232
▁सर्वेक्षण	-9.74232
▁famous	-9.74232
▁वजह	-9.74232
▁सीमित	-9.74265
र्ण	-9.74289
सो	-9.74292
▁reach	-9.74319
▁joint	-9.74436
▁देखते	-9.74513
▁above	-9.74588
▁आता	-9.74611
▁आते	-9.74635
▁europe	-9.74718
▁कदम	-9.7472
▁शीर्ष	-9.74724
▁बर	-9.74748
side	-9.74854
▁खाते	-9.74875
ang	-9.74924
▁host	-9.74935
▁almost	-9.7495
▁शब्दों	-9.75011
▁pal	-9.75026
▁नष्ट	-9.75061
▁task	-9.75085
▁average	-9.75123
▁accept	-9.75127
▁property	-9.75134
ाक	-9.75177
▁specific	-9.75268
▁नव	-9.75273
▁जितन	-9.75281
▁पथ	-9.75283
▁click	-9.75315
▁भारी	-9.75335
▁कोशिका	-9.75507
▁flow	-9.75568
ाकार	-9.75572
ठा	-9.7559
▁direct	-9.756
ेश	-9.7562
let	-9.75655
▁survey	-9.75662
▁मिली	-9.75668
▁मोबाइल	-9.75719
योग	-9.75735
▁बोल	-9.75765
▁कूट	-9.75774
▁sanskrit	-9.75842
▁statement	-9.75855
दे	-9.75867
तक	-9.7596
▁सरल	-9.75965
धर	-9.75988
▁सफल	-9.76046
▁till	-9.76088
▁}	-9.76114
▁लेते	-9.76144
▁जे	-9.76189
▁अंतर्गत	-9.76223
▁उठ	-9.76241
▁created	-9.76248
▁नेता	-9.76252
▁cla	-9.76258
▁born	-9.76329
ok	-9.76374
▁पिता	-9.76378
▁green	-9.76382
▁private	-9.76566
▁पड़ा	-9.76602
▁dr	-9.76709
▁match	-9.76712
▁door	-9.76721
▁scale	-9.76769
▁je	-9.76806
▁outside	-9.76813
▁os	-9.76847
▁करा	-9.76868
▁चलते	-9.76879
▁क़	-9.76888
▁नी	-9.76907
▁forces	-9.76909
▁comes	-9.76919
▁wrong	-9.7693
▁आरम्भ	-9.76937
▁चुनें	-9.76939
▁basis	-9.76967
▁terms	-9.7699
ship	-9.77058
▁शाखा	-9.77145
▁basic	-9.77155
▁धीरे	-9.77193
▁विवाद	-9.77276
▁transfer	-9.77293
▁stock	-9.77295
▁पो	-9.77324
▁paid	-9.77355
▁भाष्	-9.77418
▁बनाना	-9.77445
गल	-9.77465
▁industries	-9.77478
▁स्वतंत्रता	-9.77481
▁उपर	-9.77501
▁z	-9.77539
▁उसमें	-9.77588
▁conditions	-9.77608
▁अस्थि	-9.7762
▁आपने	-9.77656
▁संभावना	-9.77662
▁sabha	-9.77707
▁wa	-9.77731
▁लेख	-9.7785
▁sense	-9.77905
▁ago	-9.78001
▁शेष	-9.78014
▁प्रकट	-9.78056
मि	-9.78058
▁para	-9.78096
▁स्वतः	-9.78227
▁प्रमाण	-9.78246
▁environment	-9.78288
▁अना	-9.78296
▁25	-9.7843
▁range	-9.78478
▁मौजूद	-9.78529
▁decided	-9.78539
▁बीज	-9.78542
sis	-9.78626
▁अप्र	-9.78666
▁deep	-9.78707
▁kept	-9.78778
red	-9.78787
▁army	-9.78856
▁lead	-9.78905
▁spread	-9.78958
▁निकट	-9.78973
नु	-9.79026
isation	-9.79041
▁idea	-9.79069
nath	-9.79107
▁cap	-9.7912
ki	-9.79181
चार	-9.792
▁ke	-9.79218
▁limited	-9.79292
ler	-9.79301
▁pattern	-9.79329
▁औसत	-9.79329
▁physical	-9.79329
▁मीडिया	-9.79332
▁pipes	-9.79352
▁साधन	-9.79353
यक	-9.79407
▁stand	-9.79416
▁procedure	-9.79515
▁institute	-9.79703
ांक	-9.79706
▁आरोप	-9.7972
▁सहित	-9.79727
▁दंड	-9.79767
▁आंदोलन	-9.7989
og	-9.79894
ल्ड	-9.79951
ाया	-9.79966
डो	-9.79995
ron	-9.79998
वर्ती	-9.80025
▁birth	-9.80075
eg	-9.80085
▁poet	-9.80108
▁material	-9.80115
▁knowledge	-9.8012
▁programme	-9.80167
▁इस्लामी	-9.80169
▁अगले	-9.80193
▁14	-9.802
▁advance	-9.80236
▁cat	-9.80276
ified	-9.80285
▁wide	-9.80372
ping	-9.80511
▁टो	-9.80575
▁fear	-9.80594
▁storage	-9.80644
▁style	-9.80647
ंभ	-9.80719
▁design	-9.80725
▁raj	-9.80844
oid	-9.80922
▁ju	-9.80962
▁संस्करण	-9.81024
▁गृह	-9.81042
मय	-9.81052
tar	-9.81083
सार	-9.81131
▁द्वार	-9.81162
ड्	-9.81198
rate	-9.8122
▁prevent	-9.81363
क्षण	-9.81391
क्रम	-9.81395
▁anything	-9.81405
भाग	-9.81409
▁हैः	-9.81429
com	-9.81447
io	-9.81466
▁आशा	-9.81541
▁डर	-9.81559
▁experience	-9.81567
▁सिद्धांत	-9.81602
ju	-9.81651
qu	-9.81744
्ज़	-9.8176
▁अलावा	-9.81787
over	-9.81804
▁profit	-9.81815
vo	-9.81821
▁बढ़ा	-9.81927
▁cross	-9.81931
tin	-9.8194
▁cr	-9.81952
▁bas	-9.81957
▁economy	-9.81978
▁पोजीशन	-9.81978
▁सुनिश्चित	-9.81978
▁निर्मित	-9.81991
▁status	-9.81994
िस्तान	-9.8202
▁che	-9.82028
▁lower	-9.8203
▁मनो	-9.82118
▁निम्न	-9.82169
▁परन्तु	-9.8217
▁२	-9.82175
▁टीम	-9.82182
▁संस्था	-9.82273
▁रहती	-9.82274
▁टा	-9.82279
▁assistant	-9.82368
ाइट	-9.82382
▁palestinian	-9.82434
विज्ञान	-9.82523
ture	-9.82531
ili	-9.82554
▁female	-9.82555
रत	-9.8258
light	-9.82604
▁scheme	-9.82629
▁load	-9.82655
▁location	-9.82688
▁cells	-9.82707
▁प्रतीक	-9.82714
▁travel	-9.82729
▁प्राचीन	-9.8275
▁असफल	-9.82755
लर	-9.8276
▁प्रेम	-9.82788
▁particular	-9.82802
▁पढ़	-9.82817
ियर	-9.82819
▁कहानी	-9.82859
▁इनमें	-9.82864
▁वर्णन	-9.82864
▁कीट	-9.82963
▁बनाए	-9.83041
ां	-9.83046
▁पहला	-9.83061
▁रहना	-9.83126
लेख	-9.83141
▁nor	-9.83167
ाइल	-9.83212
su	-9.8324
द्ध	-9.83285
▁net	-9.83316
▁consider	-9.83321
▁३	-9.83349
▁शांति	-9.8339
▁दर्ज	-9.83392
▁benefit	-9.83417
ाद	-9.83428
▁कठिन	-9.83484
▁march	-9.83488
▁विरोधी	-9.83494
▁fo	-9.83533
▁इक	-9.83545
ens	-9.83551
▁स्क्रीन	-9.83606
क्षा	-9.83695
▁learn	-9.83698
▁master	-9.83705
▁notice	-9.83708
▁capacity	-9.83719
▁ग्र	-9.83751
van	-9.83792
▁looking	-9.83818
▁pur	-9.83832
▁dead	-9.83843
▁अंदर	-9.83922
▁माता	-9.83948
▁contract	-9.83953
ration	-9.83987
यू	-9.83997
ara	-9.84045
▁ban	-9.8407
▁फा	-9.841
▁उपयोगकर्ता	-9.84121
▁justice	-9.84121
▁स्वरूप	-9.84134
▁टन	-9.8417
▁वही	-9.84189
▁इच्छा	-9.84189
▁stone	-9.84284
▁brought	-9.84307
tive	-9.84316
ेर	-9.84391
▁progress	-9.84474
▁नामक	-9.84498
▁clean	-9.84502
▁ill	-9.84603
▁details	-9.84663
▁इन्हें	-9.84704
lan	-9.84714
▁विमान	-9.84721
▁वाद	-9.84721
मुख	-9.84724
▁अंतर्	-9.8475
▁model	-9.84754
▁समझा	-9.84761
▁held	-9.84785
▁gl	-9.84785
▁banks	-9.84917
▁लक्षण	-9.84946
▁entire	-9.84948
▁हृदय	-9.84969
▁वन	-9.84969
ग़	-9.85016
▁फि	-9.85028
▁allowed	-9.85043
▁count	-9.85053
▁लगाया	-9.85073
▁street	-9.85094
▁organisation	-9.85107
▁log	-9.85195
nic	-9.85261
▁activity	-9.85297
▁entry	-9.85299
▁अनुमान	-9.85305
▁रक्षा	-9.85327
▁बच	-9.85346
▁win	-9.8536
cl	-9.85372
qui	-9.85442
▁har	-9.85454
▁fort	-9.85471
निया	-9.85477
▁रस	-9.855
▁latest	-9.85508
▁दबा	-9.85526
▁कार्यालय	-9.85527
cent	-9.85545
▁met	-9.85579
▁award	-9.85639
वत	-9.85683
▁setting	-9.85684
▁गांधी	-9.85689
▁पांच	-9.85739
▁higher	-9.85804
▁():	-9.8584
▁आत्म	-9.85853
af	-9.85885
ेस	-9.85908
che	-9.85924
▁तत्व	-9.85955
▁received	-9.85998
▁प्रसिद्ध	-9.86102
sha	-9.86139
▁व्यय	-9.8619
dic	-9.86195
▁दस	-9.86221
tur	-9.86269
भि	-9.86278
दु	-9.86287
▁मिलने	-9.86294
▁review	-9.86297
▁separate	-9.86343
▁सत्र	-9.86406
▁जिला	-9.86409
▁आती	-9.86419
▁iran	-9.86483
▁nothing	-9.86493
▁अधिनियम	-9.86494
tan	-9.86539
▁groups	-9.86569
जर	-9.86598
▁official	-9.86626
ापन	-9.86666
▁running	-9.86703
time	-9.86706
▁accounts	-9.86712
▁install	-9.86742
▁वर्ण	-9.86776
▁commission	-9.86805
▁secret	-9.86871
▁asia	-9.86878
ेक	-9.86879
▁situation	-9.8689
ned	-9.8692
▁व्यवसाय	-9.86939
▁european	-9.86944
वाँ	-9.86978
ंध	-9.86987
▁अभिगम	-9.87047
स्प	-9.8706
▁conflict	-9.87092
▁जानते	-9.87187
शास्त्र	-9.87231
र्त	-9.87251
▁17	-9.87253
▁कर्ण	-9.87276
▁सौ	-9.87283
▁hospital	-9.87294
लिन	-9.8733
▁include	-9.87381
ग्र	-9.87386
▁चुन	-9.87432
res	-9.87449
▁तथ्य	-9.87497
▁medical	-9.87503
▁सिद्ध	-9.8755
▁round	-9.87552
▁आदमी	-9.87568
ल्	-9.87717
▁पड़ता	-9.87725
▁स्ट	-9.8774
▁makes	-9.87777
▁established	-9.87831
ign	-9.87853
▁avoid	-9.87903
dra	-9.87927
▁purpose	-9.88063
जनक	-9.88144
▁quite	-9.88146
▁si	-9.88183
▁ste	-9.88233
▁करनी	-9.88278
▁ध्वनि	-9.88282
tric	-9.88289
▁evidence	-9.8831
▁font	-9.88325
▁श्रेणी	-9.8835
मेंट	-9.88461
▁gandhi	-9.8847
र्व	-9.88491
▁remove	-9.88501
▁लोड	-9.88501
▁speech	-9.88515
▁मात्र	-9.8852
▁दिखा	-9.88525
▁china	-9.88555
▁हस्त	-9.8857
▁लें	-9.8858
▁साफ	-9.88603
▁directory	-9.88649
fe	-9.88655
▁mean	-9.88689
▁energy	-9.8872
▁तल	-9.88724
▁custom	-9.8876
पो	-9.88803
▁girl	-9.8883
▁सकें	-9.88845
▁५	-9.88888
▁मस्तिष्क	-9.88896
▁साम	-9.89014
▁reading	-9.89025
ik	-9.89038
mit	-9.89086
▁began	-9.89125
▁behind	-9.89131
▁super	-9.89153
▁inside	-9.8919
▁बु	-9.892
▁ऑफ	-9.89212
▁स्क	-9.89222
▁प्ल	-9.89265
▁राजनैतिक	-9.89337
▁शीघ्र	-9.89337
▁track	-9.89343
▁लगी	-9.89428
त्मक	-9.89443
▁विशाल	-9.89485
▁krishna	-9.89512
▁fi	-9.89524
▁अंश	-9.89539
धी	-9.89547
▁bird	-9.89554
▁दशक	-9.89568
▁works	-9.89594
जीव	-9.89609
tation	-9.89716
▁अनिवार्य	-9.89751
शु	-9.8977
▁building	-9.89802
▁mor	-9.89836
ाधिकार	-9.89899
▁संग्रह	-9.89936
▁station	-9.89948
▁daniel	-9.89958
▁स्तंभ	-9.89958
प्त	-9.90007
▁नेत्र	-9.90035
▁चक्र	-9.90048
वेद	-9.90066
▁extension	-9.90077
▁सप्ताह	-9.90166
▁protect	-9.90242
▁मानते	-9.90325
▁cash	-9.90333
▁बैठक	-9.9036
▁standard	-9.90373
▁चुके	-9.9041
▁khan	-9.90435
▁iraq	-9.90444
nce	-9.90456
pp	-9.90532
▁site	-9.90532
न्ध	-9.90568
▁threat	-9.90584
▁महीने	-9.90584
▁नियत	-9.906
▁duty	-9.90602
▁sometimes	-9.90644
▁मोड	-9.90646
▁final	-9.90707
▁object	-9.90762
▁instead	-9.90792
▁पसंद	-9.90792
▁nepal	-9.90799
▁इराक	-9.90802
▁pain	-9.90822
प्	-9.90839
rat	-9.90841
▁places	-9.90886
ेय	-9.90949
▁atomic	-9.91003
▁मकान	-9.91004
▁हिन्दू	-9.91018
▁जिनमें	-9.91023
▁bone	-9.91103
▁भु	-9.91113
णा	-9.91137
ांतर	-9.91155
▁उम्र	-9.91212
▁बनी	-9.91229
▁bear	-9.91328
गन	-9.9133
▁प्रान्त	-9.91336
▁drive	-9.91355
▁चीज	-9.91411
▁कल्पना	-9.91428
▁अवैध	-9.91436
ृत	-9.91522
▁विदेश	-9.91527
ency	-9.91556
▁साधारण	-9.9164
▁शा	-9.91644
▁आनंद	-9.91656
▁fit	-9.91692
▁प्रो	-9.91706
▁cho	-9.91764
ाणु	-9.91801
▁tab	-9.91822
▁यद्यपि	-9.91845
▁labour	-9.91848
▁वेद	-9.91864
ॉल	-9.91868
▁फूल	-9.9187
्ति	-9.91875
▁peace	-9.91881
▁column	-9.91949
▁दवा	-9.91996
▁publication	-9.92034
▁exp	-9.92038
▁ज़्यादा	-9.92044
▁species	-9.92064
▁भावना	-9.92122
▁तरफ	-9.92123
▁नेपाल	-9.92125
ata	-9.92136
dha	-9.92191
शाला	-9.92202
▁transport	-9.9222
▁प्रबंधन	-9.92264
▁प्रशिक्षण	-9.92269
▁target	-9.92269
▁१९	-9.92271
▁played	-9.92285
्ह	-9.92293
▁similar	-9.92336
▁न्यू	-9.92348
▁रखते	-9.92357
pl	-9.92366
▁published	-9.92433
▁शैली	-9.92544
▁प्रयुक्त	-9.92559
ंडा	-9.92577
ev	-9.92592
▁easy	-9.92695
▁ट्र	-9.92701
▁finance	-9.92702
▁pound	-9.92709
▁कर्म	-9.92786
▁जीन	-9.92801
मेल	-9.92853
्रे	-9.92885
▁संगणक	-9.92909
हृ	-9.9293
▁देव	-9.93015
घर	-9.93085
▁पुत्र	-9.93098
▁product	-9.93105
▁चीन	-9.93156
shi	-9.93274
▁अक्षम	-9.93277
▁भूल	-9.93324
▁अध	-9.93326
▁उपाय	-9.93334
▁delete	-9.93334
▁response	-9.93337
ug	-9.93338
▁pradesh	-9.93339
▁इनके	-9.93343
▁लु	-9.93361
▁निर्देशिका	-9.93387
▁पकड़	-9.93411
▁जाति	-9.93562
▁store	-9.9357
▁अपील	-9.93616
▁ways	-9.93619
एक	-9.93639
ेश्वर	-9.93657
▁दस्तावेज	-9.93745
▁nation	-9.93756
▁dec	-9.93794
▁kar	-9.9381
den	-9.9383
▁अंग्रेजी	-9.93835
▁input	-9.93914
use	-9.93926
▁रात	-9.9396
▁violence	-9.93984
▁50	-9.93989
▁विजय	-9.9399
ani	-9.94001
▁करोड़	-9.94013
▁वैज्ञानिक	-9.94066
▁गैस	-9.94082
▁नजर	-9.94119
▁languages	-9.94129
▁समुदाय	-9.942
▁चर्चा	-9.94241
▁गोल	-9.94276
▁जिसने	-9.943
▁सफलता	-9.94431
▁हवाई	-9.9448
▁साइट	-9.94614
▁leader	-9.94627
▁हस्ताक्षर	-9.94636
▁speed	-9.94637
▁अत्यंत	-9.94637
▁अर्थव्यवस्था	-9.94639
▁box	-9.94648
▁रू	-9.94705
ric	-9.9471
िज	-9.948
▁द्वीप	-9.94817
ग्रस्त	-9.94821
▁frame	-9.94982
rn	-9.94996
▁सूक्ष्म	-9.95068
▁channel	-9.95072
▁series	-9.95078
▁प्रभावी	-9.95119
▁पड़े	-9.95155
▁unable	-9.95171
▁कॉ	-9.95179
▁ali	-9.9521
▁यंत्र	-9.95228
▁perhaps	-9.9529
▁सुंदर	-9.95291
हे	-9.95317
▁com	-9.95325
▁लगाने	-9.95357
▁observed	-9.95358
kh	-9.95366
pro	-9.95372
▁earlier	-9.95509
▁opinion	-9.95509
▁सीधे	-9.95509
दि	-9.95531
ped	-9.95566
ट्र	-9.95582
▁assembly	-9.95729
▁उनसे	-9.9576
gra	-9.95789
▁content	-9.95801
▁आर्	-9.9588
पत	-9.95891
▁caused	-9.95903
ध्य	-9.95905
लु	-9.95945
▁activities	-9.95949
▁approach	-9.95949
हित	-9.95961
lin	-9.96027
pr	-9.96043
▁trans	-9.96069
▁passed	-9.96126
▁attempt	-9.9617
▁महसूस	-9.9617
▁विश्लेषण	-9.9617
▁invalid	-9.9617
▁subscribe	-9.96175
▁extra	-9.96176
ral	-9.96223
▁appeal	-9.96391
▁sin	-9.96454
▁affect	-9.96495
▁तय	-9.96541
▁सात	-9.96546
cc	-9.96557
वाला	-9.96601
▁enjoy	-9.96613
▁सत्य	-9.96615
▁chrome	-9.96633
▁पश्चात	-9.96662
ell	-9.96696
पि	-9.96747
▁organ	-9.96827
▁सवाल	-9.96874
▁मानक	-9.96935
▁rich	-9.96952
▁समस्याओं	-9.96968
▁नियमित	-9.97012
▁leaders	-9.97035
▁external	-9.97058
▁कर्मचारी	-9.9706
iness	-9.97064
▁कक्ष	-9.97094
▁सॉफ्टवेयर	-9.97101
of	-9.97108
▁brain	-9.9711
▁longer	-9.97118
आर	-9.97149
▁पर्वत	-9.97162
बो	-9.97199
ung	-9.97219
▁br	-9.97243
▁christian	-9.97287
dh	-9.97294
▁allowance	-9.97299
gh	-9.97309
▁क्ल	-9.97328
▁lost	-9.97331
▁draw	-9.97344
num	-9.97383
uri	-9.97387
▁increased	-9.97397
▁चयनित	-9.97429
ून	-9.97431
▁खाना	-9.9744
▁connect	-9.97464
▁तट	-9.97474
▁sal	-9.97479
▁रखें	-9.97486
▁drugs	-9.97492
▁jo	-9.97512
▁वालों	-9.97526
▁kan	-9.97558
मार	-9.97585
▁edit	-9.97594
डर	-9.97647
>	-9.97701
▁एशिया	-9.97714
▁व्याख्या	-9.97729
▁previous	-9.97729
▁न्यूनतम	-9.97729
▁ब्याज	-9.97729
▁अनुकूल	-9.97729
▁आमतौर	-9.97732
▁पंक्ति	-9.97732
चक	-9.97756
▁ki	-9.97758
रिक	-9.97884
फल	-9.97897
▁एक्स	-9.97905
▁हिंदू	-9.97954
▁बिजली	-9.97954
▁complex	-9.97957
ेंगे	-9.97982
▁दोष	-9.98115
▁fixed	-9.98167
▁investment	-9.98206
▁ईरान	-9.98239
▁someone	-9.98242
▁मित्र	-9.9827
▁won	-9.98275
▁लाइन	-9.9828
▁gr	-9.98289
▁hope	-9.98348
▁hands	-9.98369
▁बर्	-9.98381
ala	-9.98381
▁remote	-9.98405
ंप	-9.98427
wan	-9.9846
भार	-9.98463
ash	-9.98472
tes	-9.98496
▁चाल	-9.98576
▁भार	-9.98585
▁mon	-9.986
्रा	-9.98663
▁fair	-9.98671
ham	-9.98674
िस्ट	-9.98689
▁below	-9.98726
▁13	-9.98742
▁गुप्त	-9.98782
▁disc	-9.98799
wi	-9.98817
▁ancient	-9.98858
▁build	-9.98875
▁meet	-9.98908
▁करीब	-9.98917
▁col	-9.98933
्ली	-9.98936
▁instrument	-9.98978
▁signal	-9.99009
▁sur	-9.99023
▁सदस्यों	-9.99054
▁root	-9.99075
▁square	-9.99085
▁पुराने	-9.99092
▁लै	-9.99103
▁इकाई	-9.99131
some	-9.99134
▁परिषद	-9.99168
▁रेखा	-9.99176
ns	-9.9922
▁print	-9.9924
▁संचार	-9.9926
▁बद	-9.99289
▁begin	-9.99333
ability	-9.99395
▁अर्ध	-9.99398
▁तेज	-9.99417
ीस	-9.99477
ify	-9.99521
म्भ	-9.9953
▁gold	-9.99536
▁stay	-9.99555
हत	-9.99555
ese	-9.99564
मर	-9.99624
▁bus	-9.99633
▁menu	-9.99749
▁कनेक्शन	-9.9977
▁reserve	-9.99777
▁दिखाएँ	-9.99794
▁युवा	-9.99823
▁मस	-9.99865
▁produce	-9.99891
▁कार्ड	-9.99896
ery	-9.99935
ulate	-9.9998
▁ge	-9.99991
▁gas	-9.99996
▁विस्तृत	-9.99999
▁rather	-10
▁lord	-10.0001
▁तर	-10.0003
▁”“	-10.001
▁rise	-10.0014
▁सर्वाधिक	-10.0016
name	-10.0021
oo	-10.0022
▁carried	-10.0023
les	-10.0027
▁पाए	-10.0029
▁एड	-10.0029
▁फ्ल	-10.0031
टन	-10.0031
ably	-10.0033
▁उद्	-10.0034
▁fight	-10.0039
▁hit	-10.0046
▁अत्यधिक	-10.0046
▁प्राकृतिक	-10.0046
▁किन्तु	-10.0046
▁असमर्थ	-10.0046
▁sort	-10.0051
▁manager	-10.0053
▁वंश	-10.0057
ल्ला	-10.0061
▁माप	-10.0064
कुल	-10.0064
▁इंटरनेट	-10.0074
▁परीक्षा	-10.008
gen	-10.0092
▁बंगाल	-10.0092
इन	-10.0099
अप	-10.01
▁shi	-10.0104
▁branch	-10.011
▁पत	-10.011
▁मिलती	-10.0112
▁accurate	-10.0115
▁milk	-10.0116
▁cu	-10.0116
▁सुना	-10.0119
▁mad	-10.0122
▁नयी	-10.0129
▁saw	-10.013
▁ir	-10.0131
▁wrote	-10.0139
▁फैल	-10.014
▁terrorist	-10.0142
▁ag	-10.0143
▁shown	-10.0144
▁क्लिक	-10.0145
▁min	-10.0147
▁बैठ	-10.0147
▁expect	-10.0155
row	-10.0158
▁types	-10.0161
ॉन	-10.0161
▁समुद्र	-10.0165
▁पैर	-10.017
टक	-10.0171
▁जरूरी	-10.0177
▁option	-10.0181
▁printer	-10.0184
▁volume	-10.0185
▁blue	-10.0187
▁eight	-10.0191
ath	-10.0191
रहित	-10.0199
▁windows	-10.0199
ged	-10.0201
▁plants	-10.0202
▁especially	-10.0209
▁तकनीक	-10.0217
▁former	-10.0218
▁शाह	-10.0218
all	-10.0219
▁pen	-10.0227
▁आफ	-10.023
▁hours	-10.0231
▁meaning	-10.0231
▁मतलब	-10.0232
▁kingdom	-10.0233
▁प्रारूप	-10.0234
▁direction	-10.0238
▁वित्त	-10.024
▁धारा	-10.024
▁safe	-10.0241
▁correct	-10.0241
▁आए	-10.0243
▁सम्बन्ध	-10.0246
▁दीवार	-10.0253
▁reference	-10.0257
▁firm	-10.0259
लू	-10.0263
▁skin	-10.0269
▁सारी	-10.0272
▁कं	-10.0272
▁छूट	-10.0275
▁training	-10.0276
▁निर्धारण	-10.0276
▁दीर्घ	-10.0279
▁background	-10.028
▁deposit	-10.0287
▁africa	-10.0291
▁फिलीस्तीनी	-10.0295
▁काट	-10.0299
▁website	-10.0303
▁वातावरण	-10.0303
▁चिह्न	-10.0316
▁grant	-10.0317
ग्रह	-10.0319
▁जानी	-10.0323
▁चे	-10.0327
▁comm	-10.0329
▁named	-10.0333
lam	-10.0333
▁ganga	-10.0333
▁dh	-10.0341
▁उल्लेख	-10.035
▁criminal	-10.035
▁हालांकि	-10.035
▁चालू	-10.0355
गम	-10.0361
▁ku	-10.037
▁responsible	-10.0374
▁उत्	-10.0376
▁प्रकृति	-10.0378
्वे	-10.0379
▁gain	-10.0388
▁लिपि	-10.0397
▁देखभाल	-10.0398
▁शताब्दी	-10.0398
▁gu	-10.0402
▁लगाना	-10.0414
▁तेजी	-10.0415
▁voice	-10.0422
▁वैध	-10.0422
ey	-10.0437
▁ध्वज	-10.0446
▁धु	-10.0446
प्प	-10.0448
▁अभिलेख	-10.0453
▁अधिकतम	-10.0454
▁pop	-10.0456
▁aid	-10.0456
▁revolution	-10.0468
▁आतंकवादी	-10.047
▁foot	-10.0472
▁सहयोग	-10.0476
वर्त	-10.0477
▁wanted	-10.0482
▁radio	-10.0491
ko	-10.0491
▁सद	-10.0492
्ता	-10.0494
▁shape	-10.0499
▁एच	-10.0501
▁cre	-10.0504
▁अधिकारियों	-10.0514
▁शीर्षक	-10.0515
▁शो	-10.0515
▁seven	-10.0516
▁हत्या	-10.0518
▁horse	-10.0518
▁border	-10.0519
▁व्यक्तिगत	-10.0527
▁ताल	-10.0528
▁powers	-10.0528
▁remember	-10.0542
▁ब्रिटेन	-10.0542
ris	-10.0552
कालीन	-10.0553
ँग	-10.0554
▁आसान	-10.056
▁contain	-10.0561
▁दर्शन	-10.0562
▁आल	-10.0567
▁length	-10.0567
▁colour	-10.0568
▁internal	-10.0568
एम	-10.0568
▁प्रत्यक्ष	-10.0571
▁चरण	-10.0571
▁items	-10.0571
ek	-10.0575
टिक	-10.0581
▁फी	-10.0582
▁results	-10.0588
▁दावा	-10.059
▁प्रधान	-10.0591
▁budget	-10.0591
▁तस्वीर	-10.0591
▁alone	-10.0594
▁teacher	-10.0598
▁majority	-10.06
▁विभाजन	-10.0603
nk	-10.0604
▁sum	-10.0606
▁effective	-10.0606
▁rep	-10.0614
रुप	-10.0615
iya	-10.0617
▁मू	-10.0618
▁develop	-10.0625
▁टि	-10.0625
▁लौट	-10.0625
▁bu	-10.0632
पात	-10.0634
mm	-10.0635
क़्	-10.0637
द्य	-10.0638
▁college	-10.064
▁switch	-10.064
▁download	-10.0641
▁समाधान	-10.0641
ंघ	-10.0647
▁लेखक	-10.0647
▁changed	-10.065
▁जीत	-10.0651
▁पू	-10.0653
मत	-10.0655
gan	-10.0656
▁पट	-10.0658
बंध	-10.066
▁जाल	-10.0663
▁double	-10.0664
▁अक्सर	-10.0665
▁शुल्क	-10.0665
▁domestic	-10.0665
▁whose	-10.0667
▁islamist	-10.0672
▁hi	-10.0672
ient	-10.0676
▁जिसकी	-10.0677
▁जहाज	-10.0679
एल	-10.0683
▁resources	-10.0688
▁विपरीत	-10.0689
▁democratic	-10.0689
▁trust	-10.0689
▁picture	-10.069
▁स्वतंत्र	-10.069
▁लड़के	-10.0692
▁factor	-10.0695
stan	-10.0695
पूर्वक	-10.0695
▁provides	-10.0695
स्ट्र	-10.0697
▁sam	-10.0703
▁bha	-10.0706
▁followed	-10.0706
▁icon	-10.0713
▁england	-10.0714
▁medicine	-10.0714
▁supply	-10.0714
▁कर्मचारियों	-10.0714
ंडी	-10.0715
▁carry	-10.0716
▁vote	-10.072
▁कानूनी	-10.0723
▁बल्लेबाज	-10.0724
▁bush	-10.0735
▁across	-10.0738
▁everything	-10.0738
▁इतनी	-10.074
▁बीमारी	-10.0755
▁हानि	-10.0755
▁सार	-10.0757
▁जल्दी	-10.0759
▁ऊर्जा	-10.0763
▁valid	-10.0763
▁garden	-10.0764
nu	-10.0767
▁हमारा	-10.0767
hra	-10.0767
▁मिटा	-10.0768
▁ran	-10.0773
▁कब	-10.0778
▁eyes	-10.0782
▁24	-10.0783
▁independent	-10.0788
▁template	-10.0788
▁हिंसा	-10.0788
ual	-10.0789
▁बचा	-10.0791
ay	-10.0791
▁मिले	-10.0796
▁event	-10.0796
▁goes	-10.0807
▁def	-10.0811
▁हिंदुस्तान	-10.0813
▁जोखिम	-10.0813
▁खींच	-10.0813
▁पुर	-10.0813
कला	-10.0816
▁ची	-10.082
ट्ट	-10.083
▁watch	-10.0832
▁recent	-10.0832
▁नागरिक	-10.0832
▁पाई	-10.0838
▁स्थायी	-10.0838
▁prince	-10.0838
▁pressure	-10.084
ore	-10.0843
▁parties	-10.0849
▁bond	-10.0849
हु	-10.0852
▁उपस्थित	-10.0856
▁explain	-10.0858
▁button	-10.0861
गे	-10.0862
▁beautiful	-10.0863
▁focus	-10.0863
▁beginning	-10.0863
her	-10.0864
▁संशोधन	-10.0864
▁maha	-10.0864
रना	-10.0869
▁प्रचार	-10.0869
मार्ग	-10.0874
लिंग	-10.0875
▁संसाधन	-10.0875
्फ	-10.0879
▁खान	-10.0881
▁विशेषता	-10.0881
▁feeling	-10.0885
▁notes	-10.0887
▁बिक्री	-10.0888
▁employees	-10.0894
▁स्तन	-10.0894
▁बदलने	-10.0896
फ़ा	-10.0897
▁fish	-10.0902
ification	-10.0902
दारी	-10.0906
▁register	-10.0908
▁100	-10.0909
▁communication	-10.0913
▁कार्रवाई	-10.0913
▁contains	-10.0913
▁mass	-10.0914
▁शोध	-10.0915
▁sleep	-10.0938
▁मैदान	-10.0941
▁additional	-10.0944
▁offer	-10.0945
▁पेशी	-10.0945
▁poly	-10.0946
▁users	-10.0955
▁श्वेत	-10.0957
▁साम्राज्य	-10.0963
▁package	-10.0965
▁drug	-10.0966
▁मौजूदा	-10.0971
king	-10.0972
▁लिख	-10.0974
▁serious	-10.0974
▁गल	-10.0974
ोड	-10.0975
▁topics	-10.0986
न्या	-10.0987
▁exercise	-10.0989
▁integral	-10.0989
▁सम्मिलित	-10.0989
▁आंतरिक	-10.0989
ger	-10.0992
ीला	-10.0994
▁election	-10.0995
िड	-10.1001
▁touch	-10.1003
ute	-10.1004
▁व्यक्तियों	-10.1006
▁अनुवाद	-10.1006
▁request	-10.101
oli	-10.1012
▁kha	-10.1012
▁cultural	-10.1014
▁कठोर	-10.1014
▁cur	-10.1018
▁element	-10.102
▁इस्लामवादी	-10.103
भी	-10.1032
बाबू	-10.1036
▁प्रधानमंत्री	-10.1039
▁purchase	-10.104
▁आखिर	-10.104
कड़	-10.104
mat	-10.1042
▁आये	-10.1042
▁temples	-10.1055
▁सेवाओं	-10.1059
my	-10.106
▁goal	-10.1062
▁पुरस्कार	-10.1065
▁dream	-10.1065
▁वार	-10.1068
ाउ	-10.1068
▁उपयोगी	-10.1069
▁tried	-10.1076
च्च	-10.1079
▁iron	-10.1085
▁tool	-10.1091
▁keyboard	-10.1091
▁प्राथमिक	-10.1097
▁courts	-10.1097
▁खाली	-10.1098
▁map	-10.1099
तंत्र	-10.1105
धन	-10.1108
ंगे	-10.111
▁प्रगति	-10.1113
लोक	-10.1117
▁छि	-10.1117
स्त्र	-10.112
▁भि	-10.112
▁अश	-10.1124
▁bengal	-10.1128
▁खिलाफ	-10.1131
▁त्रुटिः	-10.1132
▁shah	-10.1135
▁ऑडियो	-10.1135
▁मार्च	-10.1145
▁केंद्रीय	-10.1153
▁cave	-10.1153
▁accepted	-10.1159
lar	-10.1159
▁added	-10.1159
▁photo	-10.116
▁likely	-10.1165
आई	-10.1165
▁evolution	-10.1168
▁sexual	-10.1168
▁महाभारत	-10.1168
▁airport	-10.1169
▁अनुपात	-10.1171
▁कुरान	-10.1172
▁सच	-10.1174
▁स्थानों	-10.1174
▁moment	-10.118
fer	-10.1183
ैन	-10.1184
by	-10.1184
▁१५	-10.1186
▁apply	-10.1192
▁mount	-10.1192
▁राजनीति	-10.1193
▁beyond	-10.1194
▁staff	-10.1194
▁तरीका	-10.1194
▁लोकप्रिय	-10.1194
ker	-10.1201
▁coming	-10.1205
फी	-10.1206
ूक	-10.1207
ou	-10.1208
ज़ी	-10.1211
tel	-10.1211
▁proper	-10.1216
▁products	-10.1217
पद	-10.1218
med	-10.1219
▁exist	-10.1228
▁भेजा	-10.1235
▁qu	-10.1239
▁उत्तरी	-10.1243
तन	-10.1243
▁प्रौद्योगिकी	-10.1245
▁corporation	-10.1246
▁daily	-10.1246
रोध	-10.1249
▁६	-10.1249
▁निष्क्रिय	-10.1253
▁forest	-10.1258
ेरी	-10.1263
▁although	-10.1271
▁ट्यूब	-10.1271
ब्र	-10.1274
ाइड	-10.1275
gal	-10.1279
uff	-10.1282
▁lake	-10.1283
▁मना	-10.1286
▁questions	-10.1286
▁lock	-10.1287
val	-10.129
▁नियंत्रित	-10.1298
▁यु	-10.1298
▁कवि	-10.1298
▁generation	-10.1298
▁wife	-10.1298
▁सां	-10.1309
▁हित	-10.1314
ists	-10.1321
▁बातचीत	-10.1324
▁यहूदी	-10.1324
▁movie	-10.1324
▁collection	-10.1326
▁स्त्री	-10.1327
▁ce	-10.1328
▁fine	-10.1328
▁debt	-10.133
▁useful	-10.1335
▁ब्रह्म	-10.1336
▁needed	-10.134
▁mailing	-10.1346
▁expenditure	-10.135
▁मौसम	-10.135
▁क़्योंकि	-10.135
cor	-10.1358
मल	-10.1366
▁origin	-10.1368
▁wear	-10.1369
ika	-10.1373
सम	-10.1373
▁string	-10.1374
▁cover	-10.1376
▁desert	-10.1376
▁multiple	-10.1378
▁डाटा	-10.1378
▁bra	-10.1378
▁माह	-10.1387
▁विनिमय	-10.1388
▁घटक	-10.1392
work	-10.1397
▁पल	-10.14
हल	-10.1406
चि	-10.1412
▁नर	-10.1413
cus	-10.1416
cal	-10.1417
▁अन्त	-10.1426
par	-10.1428
▁faith	-10.1428
▁brother	-10.1429
▁पत्थर	-10.1429
▁maximum	-10.143
मिन	-10.1432
ड़ना	-10.1435
▁प्रविष्टि	-10.1437
▁नील	-10.1447
▁opening	-10.1448
▁भाई	-10.1453
pho	-10.1454
▁degree	-10.1456
▁minimum	-10.1456
▁डाउनलोड	-10.1456
▁die	-10.1456
▁रन	-10.1458
▁rock	-10.146
▁numbers	-10.1466
▁trying	-10.1467
▁संपूर्ण	-10.147
▁प्रवाह	-10.1472
▁seed	-10.1473
▁ac	-10.1474
▁इल	-10.1479
▁बटन	-10.1485
▁damage	-10.1489
lessness	-10.1489
▁hall	-10.1489
▁ह्य	-10.1491
▁friends	-10.1493
▁लिंग	-10.1494
▁hindus	-10.1495
▁greater	-10.1496
▁spot	-10.1497
je	-10.1505
▁chandra	-10.1506
▁मुश्किल	-10.1509
▁primary	-10.1509
स्थान	-10.151
▁राज्यों	-10.1511
▁अं	-10.1511
ava	-10.1513
istic	-10.152
ंगल	-10.1521
▁तुर्की	-10.1524
ess	-10.1524
▁गेंद	-10.1526
▁ब्ल	-10.1532
▁association	-10.1536
▁</>	-10.1536
▁john	-10.1536
▁animals	-10.1536
अर	-10.1538
▁संकट	-10.1538
▁शिव	-10.1539
▁crop	-10.1543
▁देर	-10.1544
▁appear	-10.1545
▁rain	-10.1547
▁bat	-10.1547
▁बजाय	-10.155
▁cons	-10.1551
▁convert	-10.156
▁qua	-10.156
▁commercial	-10.1562
▁वार्षिक	-10.1562
▁मिनट	-10.1563
▁dark	-10.1565
▁अज	-10.1567
▁lakh	-10.1568
▁खाद्य	-10.1569
▁script	-10.157
▁gives	-10.1571
aries	-10.1577
▁बीमा	-10.1579
▁cold	-10.158
मैन	-10.1581
▁अंध	-10.1583
▁telephone	-10.1589
ालय	-10.1592
▁steel	-10.1593
rd	-10.1593
▁तीव्र	-10.1597
▁मालिक	-10.16
▁thank	-10.1601
▁band	-10.1604
▁difference	-10.1605
▁जेल	-10.1609
oma	-10.1611
▁consumer	-10.1623
rk	-10.1626
rus	-10.1626
▁ri	-10.1633
▁tube	-10.1634
▁inc	-10.1634
▁forwarded	-10.1636
ष्	-10.1637
सल	-10.164
▁concern	-10.1641
▁systems	-10.1642
▁comments	-10.1643
▁दुकान	-10.1644
▁failure	-10.1644
▁complaint	-10.1651
▁वस्तुओं	-10.1656
▁town	-10.1656
▁पढ़ने	-10.1659
▁शु	-10.166
भव	-10.1668
▁चिकित्सक	-10.1669
▁london	-10.167
▁politics	-10.167
▁उद्यम	-10.1671
▁रेलवे	-10.1672
▁करो	-10.1675
▁acid	-10.1676
▁निगम	-10.1678
▁hum	-10.1679
▁matters	-10.1681
▁formed	-10.1682
▁friend	-10.1686
▁relations	-10.1696
▁अली	-10.1697
▁नस्ल	-10.1699
▁विवाह	-10.1709
ini	-10.1713
▁बोर्ड	-10.1714
▁wind	-10.1715
▁फै	-10.1718
▁ग़	-10.172
▁शिशु	-10.1721
▁बाह्य	-10.1725
▁battle	-10.1726
ula	-10.1727
▁stream	-10.173
▁cri	-10.173
▁गांव	-10.1735
▁lok	-10.1737
▁बन्द	-10.174
▁takes	-10.1753
nation	-10.1754
▁arm	-10.176
▁represents	-10.1768
▁ver	-10.1768
▁पृथ्वी	-10.178
▁giving	-10.178
र्प	-10.178
▁अक	-10.1782
ठी	-10.1786
▁समक्ष	-10.1786
log	-10.1787
▁mid	-10.179
▁पेट	-10.1791
▁पूछ	-10.1794
चन	-10.1804
ack	-10.1805
▁मोह	-10.1806
▁forms	-10.1806
chan	-10.1807
▁tissue	-10.1807
▁गुणवत्ता	-10.1807
▁दैनिक	-10.1807
▁विद्युत	-10.1807
▁agency	-10.1808
▁causes	-10.1808
▁वैसे	-10.1813
रोग	-10.1819
▁kh	-10.182
▁heat	-10.1821
▁उज	-10.1827
▁wi	-10.1829
▁spirit	-10.1834
▁desktop	-10.1835
▁पुस्तिका	-10.1835
▁बराबर	-10.1835
▁wish	-10.1842
▁connected	-10.1844
▁बनाई	-10.1845
▁led	-10.186
▁ensure	-10.1862
▁aim	-10.1863
set	-10.1868
▁panel	-10.1868
▁बदलाव	-10.1874
ेंट	-10.1874
सऋ	-10.1877
चित	-10.1877
dar	-10.188
कर्म	-10.1883
▁trial	-10.1886
ाहट	-10.189
▁saudi	-10.189
▁agent	-10.1897
▁दर्द	-10.1898
▁चर	-10.19
▁charges	-10.19
यु	-10.1905
▁रखी	-10.1918
गार	-10.192
▁waste	-10.1921
▁उपयुक्त	-10.1922
▁hill	-10.1922
▁tenant	-10.1924
▁issues	-10.1924
▁अन्तर	-10.1929
▁installed	-10.1931
▁टैब	-10.1931
▁आउट	-10.1932
▁weight	-10.1934
▁अधिकतर	-10.1936
क्षेत्र	-10.1943
तल	-10.1946
▁परिवर्तित	-10.1946
▁बजट	-10.1946
▁विशेषज्ञ	-10.1949
▁वृक्ष	-10.1951
lum	-10.1952
▁gland	-10.1955
▁lives	-10.1956
▁workers	-10.1959
्थ	-10.196
▁issued	-10.196
iz	-10.1963
▁grand	-10.1964
र्थ	-10.1966
पु	-10.1971
▁division	-10.1974
▁independence	-10.1974
▁न्यायाधीश	-10.1974
षण	-10.1977
▁रखता	-10.1987
▁रखे	-10.1989
टना	-10.1992
▁शिकार	-10.1999
▁kashmir	-10.2002
▁felt	-10.2002
▁विडियो	-10.2002
▁semi	-10.2005
▁counter	-10.2006
स्टर	-10.201
▁hot	-10.2011
ैल	-10.2019
▁accident	-10.203
▁challenge	-10.203
▁democracy	-10.203
▁fundamental	-10.203
▁राज़्य	-10.203
▁bin	-10.203
▁बाग	-10.2031
▁sen	-10.2031
▁तभी	-10.2032
ौल	-10.2035
▁असं	-10.2037
▁audit	-10.2043
▁obama	-10.2058
nc	-10.206
लाइन	-10.207
▁अनि	-10.207
वासियों	-10.207
▁उतर	-10.207
▁चलता	-10.2074
▁होनी	-10.2081
▁buy	-10.2082
thi	-10.2084
▁चेतावनी	-10.2086
▁त्वचा	-10.2086
▁टूट	-10.2088
▁संक्रमण	-10.2088
▁गुरु	-10.2089
▁करार	-10.2091
▁जिनके	-10.2091
राम	-10.2095
▁गि	-10.21
▁importance	-10.2104
▁चले	-10.2105
तार	-10.2105
cur	-10.2106
▁ear	-10.211
लेट	-10.2112
▁produced	-10.2113
hor	-10.2114
▁कृष्ण	-10.2114
▁शुरुआत	-10.2114
▁सूर्य	-10.2115
टिंग	-10.2116
▁drop	-10.2118
▁दबाव	-10.2125
▁हाँ	-10.213
▁terminal	-10.2143
bha	-10.2145
▁nar	-10.2145
▁pick	-10.2147
▁influence	-10.2149
▁guide	-10.215
izing	-10.2152
za	-10.2155
▁आयोग	-10.2156
▁sri	-10.2164
▁अक्षर	-10.2167
▁railway	-10.2167
▁wood	-10.2167
रल	-10.217
▁आवेदन	-10.217
▁concept	-10.2171
▁जनसंख्या	-10.2171
▁rural	-10.2172
▁राजस्थान	-10.2173
▁खुश	-10.2176
खी	-10.2176
▁sh	-10.2177
▁21	-10.218
▁insects	-10.2191
ky	-10.2194
▁शत्रु	-10.2195
त्ता	-10.2197
▁कागज	-10.2198
▁fat	-10.2198
▁रद्द	-10.22
▁प्रेरित	-10.22
▁विचारों	-10.22
▁authorities	-10.2202
▁protection	-10.2206
िष्ट	-10.2209
्ड	-10.2214
▁initial	-10.2214
▁कॉल	-10.2227
▁अस्तित्व	-10.2228
▁उपयोक्ता	-10.2228
▁profile	-10.2229
▁नियमों	-10.223
▁कप	-10.2234
zi	-10.2235
▁motion	-10.2235
ियत	-10.2239
▁doubt	-10.2241
फे	-10.2244
illa	-10.2245
▁rid	-10.2246
▁depend	-10.225
▁तिथि	-10.2258
वाल	-10.2258
▁analysis	-10.2258
ियाई	-10.2262
▁चुकी	-10.2265
▁equal	-10.2267
▁अंड	-10.2269
▁रेडियो	-10.2274
▁22	-10.2276
▁कू	-10.2278
▁judge	-10.228
ade	-10.2283
▁messages	-10.2285
▁शुद्ध	-10.2287
▁पाँच	-10.2287
pha	-10.2289
ef	-10.2289
▁partner	-10.2291
▁ready	-10.2295
rm	-10.2298
▁soft	-10.23
cious	-10.2302
रम	-10.2309
▁चीज़	-10.231
▁didn	-10.2313
▁late	-10.2314
▁ग्रामीण	-10.2315
▁index	-10.2315
श्च	-10.2316
▁involved	-10.2319
▁solar	-10.2324
▁shows	-10.2326
rum	-10.2332
cr	-10.2332
▁funds	-10.2336
▁सम्मान	-10.2339
▁invest	-10.2341
▁आवाज	-10.2343
▁newspaper	-10.2344
▁unknown	-10.2344
▁mouth	-10.2344
▁repair	-10.2344
▁मानसिक	-10.2346
▁genus	-10.2347
▁मिस्र	-10.2347
▁चमक	-10.2347
परि	-10.2348
▁options	-10.2352
▁नौ	-10.2352
▁powerful	-10.2353
▁decide	-10.2353
▁supported	-10.2358
▁regular	-10.2359
▁ताकत	-10.2363
▁processing	-10.2367
ैक	-10.2372
▁protocol	-10.2373
▁सामना	-10.2375
▁विन्यास	-10.2376
▁wage	-10.2378
ज्जा	-10.2378
▁feed	-10.2382
ix	-10.2383
▁अमर	-10.2385
▁essential	-10.2388
▁गुट	-10.2394
▁remain	-10.2399
▁attention	-10.2402
▁क्षति	-10.2403
▁भाषण	-10.2403
▁कार्यों	-10.2403
▁phase	-10.2404
▁planning	-10.2404
लैण्ड	-10.2409
ement	-10.2412
िटी	-10.2413
▁bomb	-10.2413
▁भौतिक	-10.2414
युक़्त	-10.2416
▁release	-10.2418
ura	-10.2419
▁finally	-10.2423
▁op	-10.2423
हो	-10.2429
▁नेतृत्व	-10.2431
▁annual	-10.2432
▁permit	-10.2434
▁अदा	-10.2451
▁animal	-10.246
▁surface	-10.2461
चित्र	-10.2465
ulation	-10.2465
मक	-10.2474
▁names	-10.2474
▁कविता	-10.2481
▁बाकी	-10.2486
▁description	-10.249
▁खराब	-10.2491
▁label	-10.2492
▁फैला	-10.2506
▁प्रथा	-10.2512
▁repost	-10.2521
▁संपत्ति	-10.2521
▁chance	-10.2521
▁students	-10.2522
▁browser	-10.2523
▁char	-10.253
▁प्रारंभिक	-10.2532
▁shall	-10.2532
▁wh	-10.2534
▁असर	-10.2539
▁directly	-10.2544
▁बम	-10.2544
▁अनुच्छेद	-10.2549
▁शुरु	-10.255
▁sad	-10.2552
▁cow	-10.2557
▁farm	-10.2559
▁जोर	-10.2561
ानी	-10.2565
▁जू	-10.2565
hen	-10.2568
▁runs	-10.2568
room	-10.2571
▁सन	-10.2572
▁speak	-10.2574
▁जोड़ें	-10.2577
▁आग	-10.2578
▁housing	-10.2579
▁perform	-10.2579
▁तत्काल	-10.258
▁dy	-10.2581
▁26	-10.2584
▁apart	-10.2585
hin	-10.2586
▁mental	-10.2587
▁acc	-10.2588
▁डाय	-10.2593
▁player	-10.2593
▁parents	-10.2598
शे	-10.2602
▁writer	-10.2606
▁रोकने	-10.2607
▁hour	-10.2608
▁currency	-10.2609
▁अचानक	-10.2609
▁हिंदी	-10.2609
▁visible	-10.2609
▁वर्	-10.2632
ब्	-10.2635
▁आहार	-10.2636
▁rama	-10.2636
▁april	-10.2639
▁heavy	-10.2639
▁किताब	-10.2639
▁बच्चन	-10.2639
▁else	-10.2643
▁associated	-10.2647
ेगा	-10.2649
▁उतार	-10.265
ali	-10.2653
▁त्याग	-10.2655
dis	-10.2659
▁शोर	-10.266
▁हजार	-10.266
▁grow	-10.2661
▁स्वर	-10.2661
▁era	-10.2663
▁दुर्घटना	-10.2668
▁argument	-10.2668
▁october	-10.2668
▁doesn	-10.2669
▁relationship	-10.2669
▁गणना	-10.2669
▁pin	-10.2687
▁leg	-10.2688
वाले	-10.2692
वाली	-10.2696
▁बनाये	-10.2697
well	-10.2697
▁companies	-10.2698
▁जनवरी	-10.2699
दन	-10.2701
▁लिंक	-10.2702
▁दि	-10.2709
▁कथा	-10.2713
००	-10.2716
▁ड्र	-10.2717
▁इनका	-10.2717
▁festival	-10.2729
▁rajasthan	-10.2729
▁shift	-10.2729
▁disable	-10.2731
mor	-10.2734
▁hair	-10.2734
▁conf	-10.2737
▁प्राप्ति	-10.2741
्री	-10.2741
▁रेल	-10.2749
not	-10.2756
▁डा	-10.2758
▁23	-10.2758
▁conference	-10.2759
▁empire	-10.2759
▁चैनल	-10.2759
▁कीजिए	-10.2759
▁कमजोर	-10.2759
▁अंतरराष्ट्रीय	-10.2759
▁लगातार	-10.2761
▁figure	-10.2764
▁consist	-10.2766
▁फर	-10.2775
▁flu	-10.2779
ीकृत	-10.278
▁ग्रहण	-10.2785
ऐ	-10.2786
▁height	-10.2787
▁hundred	-10.2789
▁stories	-10.2789
▁धातु	-10.2789
▁iranian	-10.2791
पल	-10.2792
▁cy	-10.2795
▁shop	-10.2797
▁mill	-10.2802
ier	-10.2802
fo	-10.2806
▁दिख	-10.2808
▁spi	-10.2809
▁sand	-10.281
यान	-10.2811
▁agricultural	-10.2819
▁configuration	-10.2819
▁truth	-10.2819
▁संलग्न	-10.282
▁crime	-10.2821
▁infection	-10.2822
▁प्रांत	-10.2822
▁sentence	-10.2822
ायी	-10.2823
▁houses	-10.2825
last	-10.2827
▁पट्टी	-10.2828
▁piece	-10.2831
▁उड़	-10.2836
▁40	-10.2839
vel	-10.2842
▁चोट	-10.2844
▁बनने	-10.2845
▁confirm	-10.285
▁घंटे	-10.285
▁बच्चा	-10.285
▁saving	-10.285
▁प्यार	-10.2851
▁concerned	-10.2853
▁जाएगी	-10.2859
▁gar	-10.2865
nal	-10.287
खंड	-10.2871
क्ति	-10.2873
▁ship	-10.2874
▁सुख	-10.2874
▁60	-10.2875
मंत्र	-10.2876
▁rev	-10.2877
▁egypt	-10.2879
दू	-10.288
▁jewish	-10.2881
▁जड़	-10.2881
▁शत	-10.2881
▁seek	-10.2887
िकल	-10.2888
▁belong	-10.289
▁लिखने	-10.2894
गढ़	-10.2897
▁संग	-10.2903
▁pat	-10.2912
▁अनुसंधान	-10.2912
▁reduce	-10.2912
▁ज़ि	-10.2914
ानु	-10.2915
▁बट	-10.2921
▁व्यापारी	-10.2923
▁पाल	-10.2925
▁तारा	-10.2937
▁आमदनी	-10.2942
▁season	-10.2944
▁maintain	-10.2945
▁bharat	-10.2945
बन्ध	-10.2948
ल्ट	-10.2953
raj	-10.2956
थे	-10.296
▁समस्त	-10.2969
▁cancer	-10.2973
▁खुले	-10.2974
▁construction	-10.2975
▁जून	-10.2976
▁agree	-10.2978
▁दिखाया	-10.298
▁ref	-10.2981
▁फो	-10.2981
▁expected	-10.2982
▁आइ	-10.2983
▁पढ	-10.2985
▁described	-10.2988
▁vis	-10.2992
▁आना	-10.2993
▁ग्राहक	-10.2997
▁bound	-10.2999
▁nations	-10.3
▁george	-10.3004
▁ड्राइव	-10.3004
▁गुफा	-10.3006
▁neuro	-10.3007
▁affected	-10.3015
▁घट	-10.3015
क़्त	-10.3016
ibility	-10.3017
▁sale	-10.3023
▁bri	-10.3028
▁नाग	-10.3032
▁पशु	-10.3035
▁चन्द्र	-10.3035
▁worship	-10.3035
▁बिल्कुल	-10.3035
▁संचिका	-10.3035
▁चेक	-10.3036
▁पृष्ठभूमि	-10.3036
▁जमीन	-10.3036
▁फसल	-10.3037
▁पूर्वी	-10.3038
मित	-10.3042
मै	-10.3055
▁स्वीकृति	-10.3057
▁disabled	-10.3058
▁particularly	-10.3058
▁july	-10.3059
▁अस्थायी	-10.3066
▁घोषित	-10.3066
▁chemical	-10.3066
द्व	-10.3067
▁islamists	-10.3067
▁भंडारण	-10.307
▁documents	-10.3075
▁स्थिर	-10.3076
लाई	-10.308
▁पीठ	-10.3084
जात	-10.3084
▁recently	-10.3084
▁अल्	-10.3086
त्री	-10.3086
▁examination	-10.3097
▁विवेक	-10.3097
▁applications	-10.3098
▁मौत	-10.3098
▁मूर्ति	-10.3098
▁sweet	-10.3098
▁exc	-10.3098
़ी	-10.3107
hal	-10.3117
nes	-10.3119
▁moral	-10.3121
▁ring	-10.3126
▁indicate	-10.3127
▁सड़क	-10.313
▁delay	-10.3132
▁islands	-10.3135
▁lack	-10.3135
▁cities	-10.3136
ties	-10.3136
▁रै	-10.3136
▁fix	-10.3136
▁पैसे	-10.3139
mal	-10.3145
▁ग्ल	-10.3148
▁cd	-10.3149
▁den	-10.3157
▁sky	-10.3157
▁potential	-10.316
▁ओबामा	-10.316
▁छुट्टी	-10.316
▁मजबूत	-10.316
▁radical	-10.3161
mu	-10.3164
▁किरायेदार	-10.3165
▁adult	-10.3166
▁wait	-10.3167
▁आदर्श	-10.3168
▁निष्कर्ष	-10.317
वाई	-10.3175
धारी	-10.3177
▁learning	-10.3178
▁id	-10.318
ular	-10.3185
▁प्रभार	-10.3185
abad	-10.3185
ैश	-10.3185
▁प्राय	-10.3188
▁resolution	-10.3192
▁revenue	-10.3192
▁september	-10.3192
▁solution	-10.3192
▁nerve	-10.3192
▁theory	-10.3196
▁कमांड	-10.3197
▁हार	-10.3201
▁मानना	-10.3203
▁80	-10.3206
▁समा	-10.3208
▁दुख	-10.3209
▁parent	-10.321
▁बातें	-10.3222
▁उपभोक्ता	-10.3223
▁january	-10.3223
▁अफ्रीका	-10.3223
▁डेस्कटॉप	-10.3223
▁खतरा	-10.3223
▁expert	-10.3223
▁पुरानी	-10.3224
gam	-10.3225
▁दूध	-10.3227
tain	-10.323
▁declared	-10.3231
▁shiva	-10.3231
▁pull	-10.3231
&	-10.3232
▁सौर	-10.3233
▁reader	-10.3234
▁देगा	-10.3238
but	-10.3244
विक	-10.3244
ंदा	-10.3245
मिल	-10.3247
atory	-10.325
ever	-10.3251
▁appropriate	-10.3255
▁french	-10.3255
विधि	-10.3257
▁अवश्य	-10.3257
▁पात्र	-10.3259
यल	-10.3267
तया	-10.327
दाता	-10.3275
वक	-10.3276
प्स	-10.328
गाह	-10.3285
▁equipment	-10.3287
▁विधेयक	-10.3287
▁कितना	-10.3289
▁included	-10.3289
▁पृथक	-10.329
▁दू	-10.3291
▁effects	-10.3291
▁fill	-10.3292
▁री	-10.3296
▁कौ	-10.3296
▁sat	-10.3299
▁मैने	-10.3303
ue	-10.3305
▁dance	-10.3308
▁डो	-10.3309
app	-10.3312
स्तर	-10.3312
▁भंडार	-10.3315
▁significant	-10.3319
▁struggle	-10.3319
▁निम्नलिखित	-10.3319
▁तोड़	-10.332
▁अनुरूप	-10.3328
▁साइ	-10.3333
hara	-10.3337
xi	-10.334
्टर	-10.3341
▁banking	-10.3343
uch	-10.3345
▁gui	-10.335
▁executive	-10.3351
▁bombay	-10.3351
▁traditional	-10.3357
▁द्वितीय	-10.3359
▁मैच	-10.3362
ारी	-10.3363
झा	-10.3372
▁ministers	-10.3375
▁suggest	-10.3381
▁pollution	-10.3383
▁साँचाः	-10.3383
▁northern	-10.3383
▁वितरण	-10.3383
▁चिंता	-10.3383
▁finger	-10.3385
बाज	-10.3387
▁compare	-10.3389
▁जय	-10.339
▁selection	-10.3395
▁dev	-10.3398
lay	-10.3401
▁सूत्र	-10.3401
▁सहज	-10.3407
▁बदलें	-10.3408
▁tradition	-10.3409
▁नियुक्त	-10.3415
▁washington	-10.3415
▁york	-10.3415
▁खत्म	-10.3415
▁सतह	-10.3416
▁hide	-10.3421
वां	-10.3425
लक	-10.3427
▁lit	-10.3429
▁अक्ष	-10.3433
▁जर्मनी	-10.3434
▁बिंदु	-10.3434
▁leading	-10.3436
▁laws	-10.344
▁calendar	-10.3448
▁elephant	-10.3448
▁proposal	-10.3448
▁बावजूद	-10.3448
▁दिमाग	-10.3448
▁wild	-10.3448
▁इंडिया	-10.3448
▁habit	-10.3449
▁dar	-10.3451
▁conduct	-10.3452
▁earn	-10.3455
स्य	-10.3457
ुष	-10.346
20	-10.3463
▁छत	-10.3463
▁died	-10.3465
▁straight	-10.3472
▁successful	-10.3475
▁उधार	-10.348
▁guarantee	-10.348
▁mandapa	-10.348
▁वेबसाइट	-10.348
▁muscle	-10.348
▁इमारत	-10.348
▁रिकार्ड	-10.3481
▁strike	-10.3481
▁प्रायः	-10.3485
▁seat	-10.3492
▁लेन	-10.3494
▁फोटो	-10.3495
▁देंगे	-10.3499
▁values	-10.35
िकी	-10.3505
▁ash	-10.3507
▁assets	-10.3507
▁निरूपित	-10.3513
▁palace	-10.3513
▁uttar	-10.3513
▁चीनी	-10.3513
्द	-10.3513
▁efforts	-10.3513
▁walk	-10.3515
▁immediately	-10.3519
▁विधान	-10.3519
otic	-10.3522
▁continued	-10.3524
▁बातों	-10.353
▁points	-10.3532
▁happen	-10.3534
▁roy	-10.3543
उन	-10.3544
▁intelligence	-10.3545
▁शारीरिक	-10.3545
▁operating	-10.3546
▁filter	-10.3547
▁discussion	-10.3548
▁चाह	-10.3548
▁हाथों	-10.3549
▁डॉ	-10.3562
▁ray	-10.3562
▁provision	-10.3562
▁पुराण	-10.357
car	-10.357
▁mag	-10.3573
▁insurance	-10.3578
▁संख़्या	-10.3578
▁राजधानी	-10.3578
▁प्रतीत	-10.358
जाल	-10.3584
▁regime	-10.3585
▁संवाद	-10.3586
हीनता	-10.3587
▁दान	-10.3588
▁officers	-10.3592
षित	-10.3593
▁असम	-10.3597
▁विल	-10.3598
▁एफ	-10.3599
न्ना	-10.3604
सान	-10.361
ांकन	-10.361
वट	-10.3611
▁circumstances	-10.3611
▁दायित्व	-10.3611
▁रास्ता	-10.3612
▁thinking	-10.3613
▁ईसाई	-10.3614
▁आपूर्ति	-10.3615
▁भवन	-10.3616
ोड़	-10.3617
▁प्रबंधक	-10.3618
▁appointed	-10.3621
ंठ	-10.3632
▁दोस्त	-10.364
▁ideas	-10.364
▁वृ	-10.3641
▁ग्रंथ	-10.3643
▁twenty	-10.3644
▁आकाश	-10.3644
▁कूटशब्द	-10.3644
▁murder	-10.3645
▁बेल	-10.3647
▁sick	-10.3647
▁tour	-10.3651
▁घटा	-10.3653
▁मई	-10.366
▁पत्त	-10.3661
दर्श	-10.3664
▁आठ	-10.3664
▁reached	-10.3666
क्षेप	-10.3669
net	-10.367
▁कोर्ट	-10.3671
▁mountain	-10.3677
▁फ्रांस	-10.3677
▁component	-10.3677
▁कश्मीर	-10.3677
▁परामर्श	-10.3677
▁मुख़्य	-10.3677
▁स्वचालित	-10.3678
ologist	-10.3681
▁अग	-10.3686
▁दंत	-10.3689
film	-10.3691
▁मांस	-10.3692
▁नौकरी	-10.3693
▁प्राथमिकता	-10.3703
▁सहेज	-10.3703
▁hear	-10.3705
▁mac	-10.3706
▁अज्ञात	-10.371
▁डिफ़ॉल्ट	-10.371
▁सर्वोच्च	-10.371
▁पैकेज	-10.371
▁breath	-10.371
▁शिखर	-10.371
▁अंतर्राष्ट्रीय	-10.3711
▁interface	-10.3711
ौर	-10.3711
▁अभियान	-10.3713
▁priority	-10.3713
like	-10.3715
▁प्रवृत्ति	-10.3716
▁mission	-10.3718
▁persons	-10.3723
▁चलने	-10.3726
▁turned	-10.3726
▁दर्शा	-10.3727
▁institution	-10.373
▁एकल	-10.373
▁sport	-10.3734
▁ven	-10.3736
ेम	-10.3738
ंड़	-10.3739
▁facilities	-10.3744
▁responsibility	-10.3744
▁eastern	-10.3744
▁रवीन्द्रनाथ	-10.3744
▁झील	-10.3744
▁governor	-10.3749
▁संसार	-10.375
▁शीत	-10.3752
▁flat	-10.3758
ोत्तर	-10.376
▁पारित	-10.3763
वर्तन	-10.3764
▁सांस्कृतिक	-10.3777
▁specified	-10.3778
▁defeat	-10.3778
▁june	-10.3781
▁dam	-10.3783
▁प्रत्या	-10.3785
जल	-10.3785
▁palm	-10.3786
▁क्रांति	-10.3787
▁घु	-10.3788
▁खोलें	-10.3788
▁आवास	-10.379
▁जाएं	-10.3793
▁meta	-10.3808
पान	-10.3808
▁attend	-10.381
▁symbol	-10.381
▁afghanistan	-10.3811
▁opportunity	-10.3811
▁situated	-10.3811
▁secure	-10.3812
▁हमला	-10.3813
▁पोर्ट	-10.3818
▁लाने	-10.3821
”।	-10.3834
▁स्वामी	-10.3839
▁आव	-10.3841
▁पर्यावरण	-10.3844
▁seems	-10.3848
ley	-10.3849
▁जुड़	-10.3855
▁मान्यता	-10.3859
▁सजा	-10.3863
▁weeks	-10.3864
▁योग	-10.3864
्टे	-10.3864
▁ratio	-10.3872
▁except	-10.3874
▁worth	-10.3875
▁database	-10.3878
▁तुम्हें	-10.3878
▁सुझाव	-10.3878
▁completed	-10.3882
take	-10.3882
▁bed	-10.3884
▁चो	-10.3887
▁एंड	-10.3898
ina	-10.3901
कल्प	-10.3901
▁scar	-10.3903
िक्स	-10.3904
▁graph	-10.3905
▁subhas	-10.3908
भर	-10.391
▁employment	-10.3912
▁enemy	-10.3912
▁नेहरू	-10.3912
▁प्रतिनिधि	-10.3913
▁तापमान	-10.3913
▁fla	-10.3913
छा	-10.3915
मूल	-10.3918
क्का	-10.3918
▁reg	-10.392
▁जिनका	-10.3921
पुष्प	-10.3928
कृति	-10.3929
▁increasing	-10.3932
▁दर्शाता	-10.3932
▁गीत	-10.3936
▁अच	-10.3943
्टी	-10.3943
▁temperature	-10.3946
▁पंजाब	-10.3946
▁पत्नी	-10.3946
▁prompt	-10.3946
▁tonnes	-10.3946
▁sar	-10.3947
▁पह	-10.3947
▁launch	-10.395
▁fever	-10.3951
▁steps	-10.3952
day	-10.3952
table	-10.3954
षा	-10.3955
ांश	-10.3956
▁किस्म	-10.3962
▁gets	-10.3966
र्च	-10.3967
wal	-10.3967
▁strength	-10.3975
▁परंपरा	-10.3979
▁nav	-10.3979
▁library	-10.398
▁nuclear	-10.398
▁tagore	-10.3981
▁देवी	-10.3982
▁आन	-10.3982
खाना	-10.3984
▁बदले	-10.3992
बोर्ड	-10.3998
▁उभर	-10.4
्दी	-10.4002
स्थल	-10.4007
▁jan	-10.4013
▁दम	-10.4013
▁vishnu	-10.4014
▁turkey	-10.4015
▁dispute	-10.4015
▁औ	-10.4015
▁sync	-10.4016
ाशय	-10.4025
णी	-10.4026
ography	-10.4029
▁सभ्यता	-10.403
अलग	-10.4039
ome	-10.4039
▁सागर	-10.4048
▁probably	-10.4049
▁हिस्से	-10.4049
▁mus	-10.4049
▁performance	-10.405
▁roman	-10.4061
▁गर्भ	-10.4067
▁2000	-10.4067
▁benefits	-10.4068
िव	-10.4075
▁agriculture	-10.4083
▁liquid	-10.4083
▁saint	-10.4083
लंब	-10.4084
▁morning	-10.4084
▁माँ	-10.4085
▁baby	-10.4085
▁कार्यवाही	-10.4086
cu	-10.4086
ैम	-10.4087
▁arch	-10.4087
▁आत्मा	-10.4091
▁join	-10.4097
सूची	-10.4103
▁अंतः	-10.4108
ीज़	-10.4108
प्रति	-10.4114
▁अह	-10.4114
ड़िया	-10.4116
दो	-10.4116
▁नैतिक	-10.4118
▁partition	-10.4118
▁कैंसर	-10.4118
▁उत्साह	-10.4118
▁भगवान	-10.4119
can	-10.4119
hood	-10.4121
▁foundation	-10.4121
▁row	-10.4123
और	-10.4125
पाद	-10.4126
▁race	-10.4132
jan	-10.4137
बिल	-10.4137
▁noise	-10.4137
▁भागों	-10.4145
▁wing	-10.4145
yan	-10.4148
▁सऋ	-10.415
▁automatically	-10.4153
mark	-10.4154
▁कराने	-10.4155
yn	-10.4161
▁starting	-10.4163
दर्शी	-10.4165
▁कस	-10.4166
▁reasons	-10.4167
▁dry	-10.4172
▁महल	-10.4178
▁अद	-10.4179
▁campaign	-10.4187
▁happy	-10.4187
▁ministry	-10.4187
▁traffic	-10.4187
▁width	-10.4187
▁समीक्षा	-10.4188
▁suit	-10.419
▁occur	-10.4191
▁संस्थापित	-10.4191
चु	-10.4191
▁बॉ	-10.4195
▁मृत	-10.4196
▁largest	-10.4198
▁plugin	-10.4201
part	-10.4202
▁rub	-10.4205
▁शै	-10.4218
▁तन	-10.4222
▁समझौता	-10.4222
ttle	-10.4223
▁choice	-10.4223
ाइन	-10.4223
वर्ग	-10.4225
▁जीवित	-10.4225
▁वृक्क	-10.4226
▁जायेगी	-10.4228
bal	-10.4231
र्य	-10.4235
▁lac	-10.4238
▁आसानी	-10.4245
▁खोलने	-10.4246
▁कुमार	-10.4249
▁addition	-10.425
▁heard	-10.425
don	-10.4251
▁व्यक्त	-10.4255
▁easily	-10.4258
▁पवित्र	-10.4258
▁मंत्रालय	-10.4258
▁batsman	-10.4258
▁मिलते	-10.4258
▁कितनी	-10.4258
▁स्वागत	-10.4259
▁फे	-10.4265
▁fu	-10.4268
wn	-10.4272
▁looked	-10.4273
भूमि	-10.4278
▁operations	-10.4281
▁इनकी	-10.4282
▁placed	-10.4287
यह	-10.4292
▁nehru	-10.4293
▁breast	-10.4293
▁इलाज	-10.4296
▁संजाल	-10.4296
फर	-10.4301
▁fully	-10.4302
▁views	-10.4302
▁समाप्ति	-10.4305
gn	-10.4322
▁लेता	-10.4323
बोध	-10.4323
▁समझौते	-10.4328
▁रास्ते	-10.4328
▁accused	-10.4328
▁medium	-10.4328
▁परमाणु	-10.4328
▁अत	-10.4329
जु	-10.4329
▁client	-10.4329
▁existence	-10.433
▁शास्त्र	-10.4333
▁germany	-10.4337
▁yes	-10.4339
तो	-10.4344
▁निर	-10.4347
pat	-10.4347
▁मार्क	-10.4348
▁kill	-10.4349
cha	-10.4351
▁gone	-10.4355
भु	-10.4359
▁impact	-10.4361
▁वाल	-10.4362
▁पहन	-10.4363
▁policies	-10.4364
▁अस्पताल	-10.4364
▁unique	-10.4364
▁wants	-10.4364
▁आसपास	-10.4364
tta	-10.4364
▁स्वा	-10.4367
▁expression	-10.4367
▁समझने	-10.437
▁चलाने	-10.4371
▁minutes	-10.4371
ada	-10.4373
▁मामला	-10.4378
lit	-10.438
▁पार्क	-10.438
▁भग	-10.4384
▁peri	-10.4388
ries	-10.439
माल	-10.4391
ध्व	-10.4392
ami	-10.4396
▁receipt	-10.4399
▁ऐतिहासिक	-10.4399
tom	-10.4401
▁हुये	-10.4401
ट्स	-10.4404
ावधि	-10.4407
▁tag	-10.4412
▁निदेशक	-10.4412
▁island	-10.4424
▁flower	-10.4428
▁२००	-10.4431
्यता	-10.4434
ारा	-10.4434
▁advantage	-10.4435
▁chinese	-10.4435
▁studies	-10.4435
▁चुनौती	-10.4435
▁संहिता	-10.4435
▁armed	-10.444
▁existing	-10.4441
▁manner	-10.4443
पथ	-10.4444
▁radi	-10.4447
▁वहीं	-10.4451
port	-10.4455
▁lay	-10.4463
▁१८	-10.4466
▁कारक	-10.4467
▁जटिल	-10.447
▁agra	-10.447
▁broad	-10.447
▁distance	-10.4471
▁married	-10.4471
▁जलवायु	-10.4471
▁representative	-10.4471
ुत	-10.4472
▁संक्षिप्त	-10.4472
▁इनपुट	-10.4475
▁speaker	-10.4475
▁fun	-10.4481
▁हॉ	-10.4482
▁saying	-10.4484
▁जला	-10.4485
लय	-10.4485
▁bur	-10.4486
▁diseases	-10.4492
▁विविध	-10.4493
▁memo	-10.4495
▁eat	-10.4496
▁देखना	-10.45
meter	-10.4503
▁dog	-10.4503
▁cor	-10.4504
▁cal	-10.4504
्ले	-10.4505
▁australia	-10.4507
▁november	-10.4507
▁aspect	-10.4507
▁reflect	-10.4507
▁विद्यालय	-10.4507
▁अनुक्रम	-10.4508
▁seem	-10.4509
▁दोहरा	-10.4511
▁units	-10.4513
aj	-10.4517
▁दशा	-10.4521
▁currently	-10.4521
{	-10.4525
ंडर	-10.4527
ily	-10.4531
शो	-10.4539
▁instance	-10.4543
▁पुष्टि	-10.4544
▁सौंप	-10.4544
▁परिस्थितियों	-10.4544
▁cheque	-10.4544
▁स्विच	-10.4545
▁slow	-10.4545
▁mainly	-10.4547
लाना	-10.4547
▁ति	-10.4554
िब	-10.4556
char	-10.456
▁चुने	-10.4562
ancy	-10.4567
▁raised	-10.4567
▁पहुंचा	-10.4571
▁domain	-10.4572
▁कलाकार	-10.4578
▁निवास	-10.4579
▁प्रतीक्षा	-10.4579
▁मस्जिद	-10.4579
▁श्रृंखला	-10.4579
▁museum	-10.4579
▁यातायात	-10.4579
▁evil	-10.4579
▁presence	-10.4579
▁उद्यान	-10.458
▁मूल्यांकन	-10.458
▁sho	-10.4583
योजन	-10.4584
▁गर्म	-10.4584
▁located	-10.4584
▁मंदिरों	-10.4588
▁बक	-10.459
▁prepared	-10.4593
▁प्रचलित	-10.4593
▁editor	-10.4598
मंडल	-10.4603
▁बचत	-10.4611
ंद्र	-10.4611
▁गरीब	-10.4613
▁december	-10.4615
▁muhammad	-10.4615
▁तुरंत	-10.4615
▁पीड़ित	-10.4615
▁निष्पादन	-10.4615
▁कहाँ	-10.4616
▁सर्	-10.4619
▁लिखे	-10.462
esh	-10.4627
कत	-10.4628
▁adopted	-10.4632
▁अवरोध	-10.4632
ल्फ	-10.4634
ox	-10.4638
nar	-10.4639
ोज	-10.4641
▁अन्तर्	-10.4643
▁handle	-10.4647
▁closed	-10.4649
▁effort	-10.4651
▁sheet	-10.4651
▁disorder	-10.4652
▁wikipedia	-10.4652
▁घरेलू	-10.4652
▁व्या	-10.4652
▁ज्ञात	-10.4652
▁संरक्षण	-10.4655
▁uk	-10.4662
▁पेड़	-10.4663
▁खड़ा	-10.4664
▁ट्रैक	-10.4666
▁desire	-10.4667
▁train	-10.4669
कै	-10.467
गामी	-10.4672
▁सिल	-10.4673
▁भय	-10.4674
▁बीमार	-10.4679
थी	-10.468
ाभ	-10.4683
▁burn	-10.4684
▁van	-10.4688
▁welcome	-10.4688
▁नुकसान	-10.4688
▁liberal	-10.4689
▁बाज़ार	-10.4689
▁लक	-10.4689
▁leaflet	-10.4689
▁अभ	-10.4691
▁safety	-10.4691
ude	-10.4696
ida	-10.4696
▁creation	-10.4696
▁बंध	-10.4698
▁काव्य	-10.47
▁tea	-10.4702
▁पुष्प	-10.4708
▁दिखाने	-10.4709
▁roll	-10.471
▁mentioned	-10.471
▁upper	-10.4712
▁खुल	-10.4714
▁सहमत	-10.472
▁जुड़े	-10.4721
ण्ट	-10.4723
▁february	-10.4725
▁प्रदूषण	-10.4725
▁translation	-10.4726
▁गूगल	-10.4726
▁camp	-10.473
▁बैंकों	-10.4731
▁distribution	-10.4734
pol	-10.4737
▁उदार	-10.4744
▁properly	-10.4746
▁cloud	-10.4747
्रि	-10.475
▁निर्गम	-10.4753
▁पंच	-10.4753
▁प्राण	-10.4756
▁lines	-10.4756
▁सोचा	-10.4757
▁हालत	-10.4757
बान	-10.4762
▁respond	-10.4762
▁कनेक्ट	-10.4762
▁2006	-10.4763
▁mono	-10.4765
▁becomes	-10.4766
▁reform	-10.4767
▁समर्थित	-10.4767
वृत्त	-10.4767
mus	-10.4774
▁यूरोपीय	-10.4774
000	-10.4777
वत्	-10.4779
▁सुर	-10.4788
गमन	-10.4789
▁mut	-10.4789
▁खर	-10.479
▁mahal	-10.4793
▁gen	-10.4794
▁prove	-10.4795
bra	-10.4798
▁मुहम्मद	-10.4799
▁सैन्य	-10.4799
▁हैंः	-10.4801
yo	-10.4801
▁उच्चतम	-10.4802
▁सामान्यतः	-10.4803
script	-10.4805
▁vision	-10.4808
▁articles	-10.4809
▁भेजें	-10.481
▁दिवस	-10.4819
rc	-10.4822
▁माँग	-10.4823
▁measures	-10.4824
lf	-10.4825
▁enabled	-10.4829
▁moving	-10.4836
▁मॉडल	-10.4836
▁किनारे	-10.4837
▁लोकतंत्र	-10.4838
▁छा	-10.4838
▁मं	-10.484
▁lady	-10.484
▁दूरस्थ	-10.4842
▁wo	-10.4842
▁dust	-10.4847
▁प्रबंध	-10.4854
uction	-10.4856
▁लिखी	-10.4858
▁treated	-10.4862
▁माइक्रो	-10.4862
▁दुर्ग	-10.4865
ld	-10.4865
़ा	-10.4868
press	-10.4873
▁august	-10.4874
▁जिन्होंने	-10.4874
▁आउटपुट	-10.4874
▁दृष्टिकोण	-10.4874
▁श्रम	-10.4874
▁sugar	-10.4875
▁स्वर्ण	-10.4877
▁mah	-10.488
▁events	-10.488
िमा	-10.4882
▁secondary	-10.4884
▁layer	-10.4884
▁नेताओं	-10.4884
▁अधिकारों	-10.4887
लम	-10.489
कोशिकाओं	-10.4891
▁tooth	-10.4894
az	-10.4896
▁अभाव	-10.4898
▁citizens	-10.4899
ane	-10.49
ंजर	-10.4901
▁automatic	-10.4911
▁empty	-10.4911
▁husband	-10.4911
▁राजकुमार	-10.4911
▁teeth	-10.4912
▁डॉलर	-10.4912
▁everyone	-10.4915
▁reaction	-10.4915
▁secretary	-10.4915
▁प्रतिभूति	-10.4915
▁अम्ल	-10.4915
ising	-10.4916
▁planet	-10.4917
▁बुश	-10.4922
भाषा	-10.4923
ंख	-10.4925
▁billion	-10.4928
cho	-10.4935
zz	-10.4941
ैट	-10.4943
▁corner	-10.4948
▁ham	-10.4949
▁गठन	-10.4949
▁britain	-10.4949
▁fellow	-10.4949
▁growing	-10.495
▁भत्ता	-10.4951
▁स्टेशन	-10.4951
ञ्ज	-10.4952
▁thousand	-10.4952
▁चंद्र	-10.4957
▁institutions	-10.4964
फ्र	-10.4968
कभी	-10.4968
▁विष	-10.4976
▁वरन	-10.498
▁ruler	-10.4984
▁proxy	-10.4986
▁हासिल	-10.4987
▁अप्रैल	-10.4987
▁अगस्त	-10.4989
▁मुगल	-10.499
▁express	-10.4993
▁arabic	-10.4998
verse	-10.5
▁includes	-10.5005
▁costs	-10.5006
▁artist	-10.5012
स्थापन	-10.5014
matic	-10.5016
▁दूरी	-10.5023
स्ता	-10.5024
▁behaviour	-10.5024
▁आनुवंशिक	-10.5024
▁आलोचना	-10.5024
▁मरम्मत	-10.5024
▁विद्यमान	-10.5024
▁प्रतिनिधित्व	-10.5026
▁decline	-10.5026
▁governorate	-10.5027
▁lose	-10.5029
▁zone	-10.503
▁कर्ज	-10.5032
▁गेंदबाज	-10.5044
▁कट	-10.505
▁refer	-10.505
▁killed	-10.5056
▁उद्योगों	-10.5063
▁हिमालय	-10.5063
▁आयोजित	-10.5066
ological	-10.5069
शिया	-10.5072
▁लेखन	-10.5073
▁prices	-10.5075
रक्षण	-10.5075
रित	-10.5076
▁दाम	-10.5076
निष्ठ	-10.5076
▁केन्द्रीय	-10.5079
▁नकल	-10.5082
ख्यात	-10.5084
पना	-10.5085
▁गाय	-10.5088
▁इसने	-10.5094
ेक्ट	-10.5094
uk	-10.5096
▁जाएँ	-10.5096
▁expenses	-10.5097
टल	-10.5099
▁प्रोटोकॉल	-10.5101
▁विरूद्ध	-10.5101
▁कर्तव्य	-10.5101
▁constant	-10.5101
▁fault	-10.5101
▁अन्दर	-10.5102
▁expand	-10.5102
▁cook	-10.5104
▁मोटर	-10.5105
▁weak	-10.5106
▁चै	-10.5106
▁करेगी	-10.5107
▁पाते	-10.5108
▁str	-10.5109
ingly	-10.5109
▁सूर	-10.5113
▁attached	-10.5114
▁देखी	-10.5117
▁बैंकिंग	-10.5119
ice	-10.512
▁सल	-10.5126
कट	-10.5126
▁drag	-10.5129
voc	-10.5131
हरा	-10.5136
▁larger	-10.5137
▁lie	-10.5137
▁senior	-10.5139
▁mistake	-10.514
▁पड	-10.514
▁crisis	-10.514
▁huge	-10.5142
▁render	-10.5142
▁पूजा	-10.5142
▁delivery	-10.5145
ero	-10.5146
▁वासी	-10.5149
▁fruit	-10.5151
▁देह	-10.5158
▁खुला	-10.5159
▁q	-10.5162
प्ट	-10.5173
▁cast	-10.5174
py	-10.5175
▁poll	-10.5175
▁समन्वय	-10.5177
▁चौड़ाई	-10.5177
▁लंबे	-10.5177
▁2007	-10.5178
▁पासवर्ड	-10.5179
▁विद्रोह	-10.5179
▁दौर	-10.5179
▁अन्तर्गत	-10.518
▁lip	-10.5182
▁warning	-10.5184
▁publish	-10.5186
▁gha	-10.5187
▁बहस	-10.5188
▁caste	-10.5189
▁elected	-10.519
gar	-10.5198
▁छाया	-10.5199
▁शर	-10.5202
▁रॉ	-10.5206
पुट	-10.5208
▁reli	-10.5209
▁jail	-10.5209
▁प्रयत्न	-10.5216
▁ocean	-10.5216
▁धन्यवाद	-10.5216
▁plain	-10.5216
▁जम	-10.5217
▁knew	-10.5217
▁removed	-10.5219
रंग	-10.5222
हरी	-10.5223
▁push	-10.5225
▁pair	-10.5225
कम	-10.5226
▁quickly	-10.523
▁चिन्ह	-10.5231
▁bridge	-10.5233
वृत्ति	-10.5237
िच	-10.5242
ढ़ा	-10.5244
गण	-10.5246
▁elections	-10.5247
▁गण	-10.5252
▁attribute	-10.5255
▁लिमिटेड	-10.5255
▁धरती	-10.5255
▁खतरे	-10.5255
▁glass	-10.5255
▁मूलभूत	-10.5256
▁अंतराल	-10.5258
▁insert	-10.5259
▁भाषाओं	-10.5259
▁दिला	-10.5262
duct	-10.527
▁relative	-10.528
▁pure	-10.5282
▁raise	-10.5283
▁daughter	-10.5294
▁architecture	-10.5294
▁throw	-10.5295
हम	-10.5299
▁debate	-10.5302
▁अंतरण	-10.5306
▁bor	-10.5308
▁shares	-10.5316
क्षित	-10.5326
▁dia	-10.5326
form	-10.5327
▁happened	-10.5329
▁trouble	-10.5333
▁ज़रूरत	-10.5333
▁सफेद	-10.5333
▁adapt	-10.5333
▁2008	-10.5333
▁pension	-10.5334
▁गुजर	-10.5335
▁coin	-10.5336
▁शासक	-10.5341
▁schools	-10.5343
▁2005	-10.5347
▁whom	-10.535
ific	-10.5357
▁standing	-10.5358
▁requires	-10.5358
▁पाइ	-10.5359
▁१९९	-10.5363
ंजन	-10.5365
▁theme	-10.5368
▁tar	-10.5369
eous	-10.5371
▁calcutta	-10.5372
▁judicial	-10.5372
▁फ़ॉन्ट	-10.5372
▁मेमोरी	-10.5372
▁रजिस्टर	-10.5372
देन	-10.5373
▁pot	-10.5374
dev	-10.5375
▁खून	-10.5376
▁calls	-10.5377
▁divided	-10.5385
air	-10.5387
▁पॉ	-10.5387
▁पौ	-10.5399
▁online	-10.54
▁लॉ	-10.5401
ेदार	-10.5404
▁algorithm	-10.5411
▁cycle	-10.5411
▁belief	-10.5411
▁couple	-10.5411
▁perfect	-10.5411
▁relief	-10.5412
िला	-10.5417
kha	-10.542
▁जापान	-10.5421
▁quarter	-10.5424
पिता	-10.5427
▁दक्षिणी	-10.5429
▁परा	-10.5432
▁ः	-10.5435
बाजी	-10.5437
▁mat	-10.5442
mir	-10.5443
▁शांत	-10.5449
▁southern	-10.5451
▁गहरा	-10.5451
▁नंबर	-10.5457
▁announced	-10.546
▁listen	-10.546
▁यथा	-10.5464
▁gene	-10.5467
▁interesting	-10.5472
पोर्ट	-10.5481
▁खाने	-10.5482
▁soul	-10.5484
▁var	-10.5486
पू	-10.5486
▁व्यक़्ति	-10.5488
▁television	-10.549
▁एकमात्र	-10.549
▁variety	-10.5491
▁leadership	-10.5491
▁chairman	-10.5493
▁क़्या	-10.5494
नेट	-10.5495
ब्ब	-10.5496
▁असल	-10.5499
▁offence	-10.5499
arian	-10.5501
▁insect	-10.5503
▁affairs	-10.5506
▁raw	-10.5506
▁warm	-10.5508
▁क्षण	-10.5516
▁highly	-10.5518
▁मंडल	-10.552
▁पोस्ट	-10.5521
▁elements	-10.5521
▁require	-10.5522
ण्य	-10.5523
▁स्टार	-10.5524
▁ईसा	-10.5527
▁vehicle	-10.553
▁पौधे	-10.553
▁प्रयोक्ता	-10.553
▁virtual	-10.553
▁प्रदाह	-10.553
▁भेड़	-10.5531
▁जीवाणु	-10.5532
▁fresh	-10.5532
▁coal	-10.5533
शल	-10.5539
▁इतने	-10.5539
▁पैसा	-10.5541
▁घेर	-10.5542
बुल	-10.5545
▁motor	-10.5546
▁बडी	-10.5548
वारी	-10.5556
▁quick	-10.5556
▁आजादी	-10.5558
▁measure	-10.5558
▁बुरा	-10.556
्टन	-10.556
▁बिट	-10.5561
▁छह	-10.5563
▁thousands	-10.5566
▁गणित	-10.5568
▁परिवहन	-10.557
▁सउदी	-10.557
▁डॉक्टर	-10.5571
प्रणाल	-10.5573
▁स्वस्थ	-10.5577
▁recommend	-10.5581
▁edge	-10.5586
right	-10.5591
▁learned	-10.5591
▁कड़ी	-10.5592
▁मानवीय	-10.5593
▁लॉग	-10.5595
▁पश्च	-10.5603
▁अरबी	-10.5606
▁रुचि	-10.5607
▁rates	-10.5609
▁positive	-10.561
▁technique	-10.561
▁निरीक्षण	-10.561
▁protest	-10.5611
स्थापित	-10.5611
▁योगदान	-10.5612
▁appointment	-10.5612
▁loose	-10.5613
▁सदी	-10.5625
▁निरा	-10.5626
oon	-10.5627
▁engineering	-10.5628
र्ष	-10.5629
▁opened	-10.5632
▁उनको	-10.5635
▁soil	-10.5637
hand	-10.5642
▁normally	-10.5644
▁मुह	-10.5649
ole	-10.5649
▁ट्रे	-10.565
▁legislative	-10.5651
▁marriage	-10.5651
▁विभाजित	-10.5651
▁सम्पर्क	-10.5651
▁jews	-10.5651
▁छोड	-10.5651
▁tv	-10.5652
▁जुलाई	-10.5654
▁वीर	-10.5654
▁चाहती	-10.5657
▁बाधा	-10.5658
▁offered	-10.5659
▁ग्राम	-10.5659
▁९	-10.566
aka	-10.5663
▁अनुरोध	-10.5664
▁महिलाओं	-10.5668
▁palestinians	-10.5676
ऑ	-10.5682
▁खात	-10.5683
▁हरि	-10.5683
▁contribution	-10.5691
▁इत्यादि	-10.5691
▁कृत्रिम	-10.5691
▁stra	-10.5691
▁डाक्टर	-10.5692
▁koran	-10.5694
▁couldn	-10.5694
▁साक्ष्य	-10.5694
वर्ण	-10.5696
▁ज्यादातर	-10.5698
▁route	-10.5699
▁ii	-10.57
क्ट	-10.5703
िग	-10.5705
▁बनाएँ	-10.5711
▁निश्चय	-10.5711
▁chat	-10.5712
▁ग्रे	-10.5714
fulness	-10.5717
▁आकर	-10.5721
▁sim	-10.5722
जैसे	-10.5727
▁bottom	-10.5732
▁mosque	-10.5732
▁indeed	-10.5733
▁तारीख	-10.5735
▁स्टे	-10.5737
▁देकर	-10.5738
▁minor	-10.5741
▁nine	-10.5743
▁वक्त	-10.5746
▁आराम	-10.5747
ुट	-10.5752
var	-10.5754
▁पार्श्व	-10.5759
▁manage	-10.576
▁रिक्त	-10.576
क्षु	-10.5763
▁ideal	-10.5772
▁रणनीति	-10.5773
▁technical	-10.5773
▁illegal	-10.5773
▁वसा	-10.5774
▁2003	-10.5774
▁standards	-10.5775
▁ईमेल	-10.5776
▁लिखित	-10.5778
▁निहित	-10.5779
▁features	-10.5785
▁shrine	-10.5785
▁ऑफ़	-10.5785
▁नाक	-10.5787
▁bow	-10.5789
▁bug	-10.5791
▁संसदीय	-10.5792
▁वर्क	-10.5793
योग्य	-10.5794
▁vac	-10.5795
▁represent	-10.5796
product	-10.581
योजक	-10.581
▁गे	-10.5811
▁metal	-10.5811
▁दूसरों	-10.5814
▁रेगिस्तान	-10.5814
▁holding	-10.5815
▁घूम	-10.5815
▁संयंत्र	-10.5816
ella	-10.5818
गृह	-10.582
▁पूर्ति	-10.5823
▁keeping	-10.5823
▁अनुदान	-10.5824
dr	-10.5826
▁bills	-10.5835
▁उपकरणों	-10.584
ाबाद	-10.5841
▁पूछा	-10.585
▁नाटक	-10.5853
▁guard	-10.5855
▁poison	-10.5855
▁changing	-10.5855
▁jihad	-10.5855
▁मार्	-10.5855
▁मालूम	-10.5856
▁फेंक	-10.5858
▁taj	-10.5859
▁प्रतिभा	-10.5859
▁28	-10.586
▁पादप	-10.5863
▁bell	-10.5864
▁वॉ	-10.5864
ov	-10.5869
▁निचल	-10.5873
▁terror	-10.5876
▁poems	-10.5877
run	-10.5878
▁देखे	-10.588
▁conc	-10.5885
▁अफ	-10.5885
▁complain	-10.5885
▁भेजने	-10.5885
▁actor	-10.5886
▁तिल	-10.5894
पित	-10.5896
▁व्यावसायिक	-10.5896
▁extent	-10.5896
▁simply	-10.5896
▁शिक्षक	-10.5896
▁electronic	-10.5896
▁context	-10.5897
▁अग्रिम	-10.5898
▁हट	-10.5898
▁vir	-10.5901
मंद	-10.5901
जू	-10.5902
▁covered	-10.5902
▁advanced	-10.5903
▁pack	-10.5906
pen	-10.5907
▁वाद्य	-10.5909
▁improve	-10.5912
▁योग्यता	-10.5916
▁मूत्र	-10.592
▁27	-10.592
▁exists	-10.5926
stro	-10.5926
▁प्रतिरोध	-10.5934
▁administrative	-10.5938
▁trading	-10.5938
▁factors	-10.5938
▁संग्रहालय	-10.5938
▁remains	-10.5939
▁defence	-10.594
▁मिलकर	-10.594
▁vital	-10.5942
▁अर्जी	-10.5943
▁वस्त्र	-10.5944
धर्म	-10.5945
▁सहेजें	-10.5951
▁ओवर	-10.5952
▁worked	-10.5953
१९	-10.5956
▁estimate	-10.5957
र्ति	-10.5966
▁अट	-10.5967
क्टर	-10.5971
▁tape	-10.5973
र्ध	-10.5973
▁pri	-10.5976
ूं	-10.5976
▁बेच	-10.5977
▁जाकर	-10.5977
▁substance	-10.5979
▁अँ	-10.598
▁खड़े	-10.5988
▁returned	-10.599
▁drink	-10.599
▁officials	-10.5992
▁trip	-10.5993
▁आयी	-10.5994
▁detect	-10.5995
▁alter	-10.5996
ेंस	-10.6003
▁pages	-10.6006
▁absolute	-10.6007
▁commonly	-10.6007
▁तकनीकी	-10.6007
▁बजा	-10.6013
▁collect	-10.6015
िट्	-10.6017
endra	-10.6021
▁circuit	-10.6021
▁scientific	-10.6021
▁टिप्पणी	-10.6021
▁draft	-10.6021
▁परस्पर	-10.6021
▁थोड़ा	-10.6021
▁escape	-10.6021
▁predict	-10.6022
▁मां	-10.6022
▁professional	-10.6026
▁spent	-10.6027
▁८	-10.6039
▁experiment	-10.6039
▁attacks	-10.604
▁निष्	-10.6041
पूरक	-10.6042
जिन	-10.6047
▁allows	-10.6047
down	-10.6051
▁reported	-10.6061
हिन्दी	-10.6061
▁रहेगा	-10.6061
▁compensation	-10.6063
rang	-10.6069
▁बुद्ध	-10.607
▁दुर्	-10.6072
▁actions	-10.6073
▁links	-10.6077
घा	-10.6079
फि	-10.6081
मौ	-10.6083
▁showing	-10.6093
ुम	-10.6095
▁himalaya	-10.6097
▁छाप	-10.6099
राग	-10.61
▁hearing	-10.6103
▁danger	-10.6103
▁temporary	-10.6105
▁अवयव	-10.6106
▁गणतंत्र	-10.6106
▁severe	-10.6107
▁कितने	-10.6107
िआ	-10.6107
55	-10.6107
▁mouse	-10.6108
▁electricity	-10.6108
▁kumar	-10.611
pad	-10.6113
▁playing	-10.6113
एन	-10.6113
▁healthy	-10.6116
▁वापसी	-10.6117
▁clearly	-10.6117
▁निभा	-10.6121
uda	-10.6122
ल्प	-10.6124
न्दा	-10.6127
▁उदर	-10.6131
eb	-10.6132
▁iraqi	-10.6134
▁पुल	-10.6134
▁americans	-10.6135
▁sides	-10.6135
ग्रन्थि	-10.6143
प्रद	-10.6143
...	-10.6146
▁poverty	-10.6148
▁टर्मिनल	-10.6148
▁discharge	-10.6148
▁cancel	-10.6149
▁2001	-10.6149
▁trend	-10.615
▁prop	-10.615
▁आवाज़	-10.6156
▁genetic	-10.6156
bus	-10.6159
▁images	-10.6165
▁fin	-10.6171
▁छु	-10.6172
▁rose	-10.6181
▁झु	-10.6183
▁decisions	-10.6184
▁जानने	-10.6188
▁cabinet	-10.619
▁occasion	-10.619
▁वैश्विक	-10.619
▁rupee	-10.619
▁साबित	-10.619
▁नज़र	-10.6192
▁पुराना	-10.6194
▁throughout	-10.6197
▁बयान	-10.6198
▁tip	-10.62
▁mostly	-10.6205
▁reality	-10.6206
साथ	-10.6206
वेल	-10.6207
▁संधि	-10.6209
▁मॉ	-10.6214
▁suffering	-10.6215
▁permission	-10.6216
कोड	-10.6217
▁proved	-10.6217
▁gate	-10.6227
met	-10.6228
word	-10.6232
▁नमूना	-10.6233
▁vitamin	-10.6233
▁आकर्षित	-10.6233
▁false	-10.6233
▁वकील	-10.6233
▁creating	-10.6235
▁improvement	-10.6237
▁उपबंध	-10.6237
▁कम्पनी	-10.6237
▁रुपये	-10.6238
▁poetry	-10.6238
▁boot	-10.6239
▁तिर	-10.6241
गति	-10.6242
▁लड़ाई	-10.6243
▁आयत	-10.6243
▁harm	-10.6249
▁शौ	-10.6251
केट	-10.6252
▁happens	-10.6254
back	-10.6256
▁loans	-10.6258
pal	-10.6261
▁permanent	-10.6261
ved	-10.6268
▁bio	-10.6269
▁treat	-10.6275
▁proceed	-10.6276
ाली	-10.6276
▁ordinary	-10.6276
▁गिरफ्तार	-10.6276
▁संचालन	-10.6276
▁इस्पात	-10.6276
▁opposition	-10.6276
कू	-10.6279
▁exception	-10.6281
▁आरक्षित	-10.6282
▁parliamentary	-10.6284
ically	-10.6287
▁highest	-10.6288
रंज	-10.6289
▁आह	-10.6293
▁कम्प	-10.6293
▁अन्	-10.6294
▁उतन	-10.6295
▁believed	-10.6295
▁हिम	-10.6296
▁acts	-10.6298
▁uri	-10.6303
▁wave	-10.6304
▁arms	-10.6307
▁holy	-10.631
ास्थि	-10.6312
▁वर्षा	-10.6312
jo	-10.6315
▁letters	-10.6315
▁तयशुदा	-10.6319
▁मेनू	-10.6319
▁सिविल	-10.632
▁परिभाषा	-10.6321
▁brahma	-10.6322
▁objective	-10.6325
▁अंग्रेज	-10.6325
▁जायेंगे	-10.6326
स्कर	-10.6328
▁critical	-10.6328
▁novel	-10.6329
▁terrorists	-10.6333
▁digital	-10.6335
▁फ्र	-10.6337
रेट	-10.6343
भूत	-10.6344
bro	-10.6349
▁मास	-10.6352
▁hero	-10.6353
नगर	-10.6357
विन	-10.6358
▁डाला	-10.6362
▁आश्चर्य	-10.6362
▁identity	-10.6362
▁चेहरे	-10.6362
▁applied	-10.6362
▁promote	-10.6363
▁hunt	-10.6363
▁रोम	-10.6364
▁rough	-10.6364
▁शराब	-10.6364
▁ganges	-10.6366
▁प्रबन्ध	-10.6369
ंसी	-10.6372
▁anyone	-10.6373
वादियों	-10.6374
▁पीड़ा	-10.6375
▁छात्र	-10.6379
▁जनन	-10.6379
10	-10.638
बाल	-10.638
▁ter	-10.6383
▁शेख	-10.6384
▁saved	-10.6385
▁dollar	-10.6389
▁सहयोगी	-10.639
▁released	-10.6395
कर्ताओं	-10.64
थि	-10.6405
▁दृढ़	-10.6406
▁soviet	-10.6406
▁विमानक्षेत्र	-10.6407
▁कबीर	-10.6407
सना	-10.6407
▁जनरल	-10.6408
▁hamas	-10.6409
▁इलाक	-10.6417
▁consideration	-10.6417
▁असली	-10.6421
▁beat	-10.6421
urg	-10.6422
▁completely	-10.6423
▁constitutional	-10.6424
▁historical	-10.6427
कार्य	-10.6429
▁moved	-10.6443
▁macro	-10.6445
▁तत्वों	-10.6446
▁एक्सटेंशन	-10.6449
▁ढूंढ	-10.645
▁शल्य	-10.645
▁quran	-10.6451
▁settlement	-10.6451
ectomy	-10.6452
▁stick	-10.6452
▁राजस्व	-10.6453
rick	-10.6459
▁शहरों	-10.6462
▁epi	-10.6463
▁camera	-10.6463
बाद	-10.6465
▁siva	-10.6471
ght	-10.6473
▁मीटर	-10.6477
बन	-10.6477
▁actual	-10.6481
▁consult	-10.6488
br	-10.6489
▁लाया	-10.649
▁understanding	-10.6492
▁गतिविधि	-10.6493
▁alternative	-10.6493
▁प्रावधान	-10.6493
▁मुकदमा	-10.6493
▁प्रॉक्सी	-10.6493
▁परम्परा	-10.6493
▁performed	-10.6494
▁breed	-10.6494
▁specify	-10.6494
▁संभाल	-10.6494
▁हाउस	-10.6494
▁bull	-10.6498
▁दस्तावेज़	-10.6498
▁helped	-10.6499
▁हथियार	-10.6499
र्ब	-10.6499
्हे	-10.65
▁bhu	-10.6501
▁sight	-10.6501
▁अनुदेश	-10.6501
▁registered	-10.6502
kan	-10.6508
अल	-10.6508
▁चक	-10.6513
▁कन	-10.6516
▁वाहन	-10.6518
्का	-10.6518
▁अतः	-10.6519
आइ	-10.6521
▁संस्थापन	-10.6522
▁पड़ी	-10.6523
लिप	-10.6523
▁कन्	-10.6524
▁ben	-10.6526
▁फु	-10.6529
▁bang	-10.653
▁जीवों	-10.6531
▁लगों	-10.6535
▁characters	-10.6537
▁facility	-10.6537
▁कौंसिल	-10.6537
▁youtube	-10.6537
ंजी	-10.6542
▁विकेट	-10.6543
▁ऊतक	-10.6543
▁बनाते	-10.6543
▁श्रमिक	-10.6545
▁formation	-10.6545
▁नियुक्ति	-10.6548
शाली	-10.6549
▁कर्ता	-10.6555
▁owner	-10.6557
▁सारा	-10.6557
▁interests	-10.6561
▁मधु	-10.6563
ray	-10.6568
▁इम	-10.657
▁छल	-10.6572
फ्ट	-10.6573
try	-10.6575
▁career	-10.6575
emia	-10.6579
ैया	-10.6579
▁कैल	-10.658
▁shri	-10.6581
▁climate	-10.6582
▁competition	-10.6582
▁surgery	-10.6582
▁फोल्डर	-10.6582
▁पौधों	-10.6582
▁carbon	-10.6582
▁रहस्य	-10.6583
▁साहस	-10.6583
पृष्ठ	-10.6584
▁lamp	-10.6588
▁floor	-10.6589
▁methods	-10.659
▁आयोजन	-10.6592
▁royal	-10.6595
▁२०	-10.6596
▁unless	-10.6597
▁बडा	-10.6598
▁रुक	-10.6599
▁lotus	-10.6599
िज़	-10.6602
▁cro	-10.6603
साद	-10.6604
▁determine	-10.6604
▁describe	-10.6607
len	-10.661
▁पटल	-10.6613
▁विनाश	-10.6622
▁ऊँच	-10.6622
डिया	-10.6623
nam	-10.6624
▁helps	-10.6626
▁wicket	-10.6626
▁असाधारण	-10.6626
▁सामूहिक	-10.6626
▁सितंबर	-10.6626
▁मुद्रक	-10.6626
▁लंदन	-10.6626
ूद	-10.6628
put	-10.663
▁chu	-10.663
▁बुल	-10.6633
▁प्ले	-10.6634
▁camel	-10.6634
▁dress	-10.6638
▁नार	-10.6642
▁obtain	-10.6642
shed	-10.6645
ायन	-10.6646
द्वार	-10.6647
ware	-10.6648
col	-10.6652
▁fail	-10.6652
▁वचन	-10.6654
▁feature	-10.6658
▁favour	-10.6661
बाज़	-10.6665
लिक	-10.6665
▁क्षेत्रीय	-10.6666
avi	-10.667
▁waiting	-10.667
▁yield	-10.6671
▁उपन्यास	-10.6671
▁latter	-10.6671
▁tamil	-10.6671
▁gift	-10.6671
▁संदेह	-10.6674
▁hotel	-10.6677
शीलता	-10.6678
▁29	-10.6681
pu	-10.6681
comp	-10.6681
▁डालर	-10.6688
▁खुशी	-10.6689
▁लेती	-10.6689
▁भले	-10.669
क्षी	-10.6691
▁indians	-10.6695
▁निकाला	-10.6695
ndi	-10.6696
षऋ	-10.6698
▁sac	-10.67
▁न्यायिक	-10.6702
▁div	-10.6706
ूम	-10.6706
वें	-10.6709
रेशन	-10.671
▁killing	-10.6711
▁au	-10.6711
▁अण्ड	-10.6712
▁तुम्हारे	-10.6714
▁lal	-10.6714
▁उन्नत	-10.6714
▁japan	-10.6715
▁shot	-10.6715
pati	-10.6715
▁centuries	-10.6716
▁routine	-10.6716
▁conclusion	-10.6716
▁निरंतर	-10.6716
▁summer	-10.6717
▁सहारा	-10.6717
▁strange	-10.6718
▁मंडप	-10.6718
▁cord	-10.672
▁games	-10.6726
ेस्ट	-10.6727
▁लेबल	-10.6728
▁ji	-10.6732
lon	-10.6733
50	-10.6736
▁none	-10.6737
▁धारणा	-10.6738
inal	-10.6743
माला	-10.6744
▁operate	-10.6745
▁उद	-10.6748
▁फार्म	-10.675
▁औषध	-10.6755
▁wonder	-10.6756
▁पं	-10.6756
▁बड़	-10.6757
bin	-10.676
▁families	-10.6761
▁parallel	-10.6761
▁sequence	-10.6761
▁ताजमहल	-10.6761
▁otherwise	-10.6761
▁transmission	-10.6761
▁लंबी	-10.6761
▁devi	-10.6762
▁आपस	-10.6763
bhi	-10.6768
▁अपवाद	-10.677
▁सकेगा	-10.6771
▁बताना	-10.6772
▁एयर	-10.6775
▁guru	-10.6782
ित्र	-10.6786
zar	-10.6789
▁32	-10.6791
▁मंच	-10.6796
▁serve	-10.6798
▁rent	-10.6798
▁vol	-10.6801
लेखन	-10.6805
▁खु	-10.6806
▁despite	-10.6806
▁निर्वाचन	-10.6806
उच्छेदन	-10.6806
cap	-10.6807
▁हड्डी	-10.6807
▁spell	-10.6807
राशि	-10.681
▁उन्	-10.681
▁depends	-10.6811
▁बांध	-10.6811
▁सिर्फ़	-10.6814
▁pig	-10.6815
▁weapons	-10.6815
nate	-10.6816
▁संबद्ध	-10.6818
▁hang	-10.6821
नियम	-10.683
श्य	-10.683
▁tele	-10.683
lation	-10.6832
▁expressed	-10.6842
▁प्रिय	-10.6844
▁arabs	-10.685
▁मुँह	-10.6851
▁अकेले	-10.6851
▁पर्यटन	-10.6851
▁धो	-10.6851
▁एकदम	-10.6853
▁परिवेश	-10.6853
▁गतिविधियों	-10.6854
▁साझा	-10.6854
▁घाट	-10.6857
▁मुक	-10.686
ication	-10.6863
▁cloth	-10.6868
▁पाद	-10.6868
ावरण	-10.6874
▁पत्रिका	-10.6877
बंदी	-10.6884
▁खण्ड	-10.6886
▁ec	-10.6892
▁confidence	-10.6897
▁अस्वीकार	-10.6897
▁वैदिक	-10.6897
onia	-10.6899
▁driver	-10.6901
चना	-10.6903
▁colon	-10.6906
▁सहमति	-10.6906
पक्ष	-10.6906
▁भरा	-10.6912
▁destroy	-10.6913
▁lies	-10.6913
▁लगती	-10.6914
ष्ण	-10.6919
ong	-10.6919
▁जायें	-10.6926
▁साइन	-10.6933
▁examples	-10.6936
▁अगल	-10.6943
▁चूंकि	-10.6943
▁सम्मेलन	-10.6943
▁france	-10.6944
▁ब्राह्मण	-10.6944
▁upgrade	-10.6945
▁intra	-10.6946
▁जॉन	-10.6947
ट्रा	-10.6947
ode	-10.6947
▁गू	-10.6949
▁सीधा	-10.6952
▁drama	-10.6952
▁devices	-10.6955
▁establish	-10.6956
▁miss	-10.6956
ope	-10.6959
▁drawing	-10.696
▁individuals	-10.6963
▁फ़िर	-10.6963
▁होटल	-10.6966
place	-10.697
▁fri	-10.6972
▁चुना	-10.6978
वाना	-10.6979
रिट	-10.698
▁बढा	-10.6982
▁gi	-10.6984
▁उन्हे	-10.6985
▁कल्याण	-10.6989
▁विस्फोट	-10.6989
▁लेट	-10.6989
▁establishment	-10.6992
▁बूट	-10.6993
▁प्रयोजन	-10.6995
▁cache	-10.6996
▁via	-10.6997
▁बग	-10.6999
▁शर्त	-10.7
▁formal	-10.7004
क्षय	-10.7005
तऋ	-10.7011
क्रिया	-10.7015
मिया	-10.7019
▁रहें	-10.7019
▁agreed	-10.7022
path	-10.7022
▁कार्बन	-10.7032
▁circle	-10.7035
▁landlord	-10.7035
▁professor	-10.7035
▁tribunal	-10.7035
▁beauty	-10.7035
▁2002	-10.7037
▁rajya	-10.7039
▁कराया	-10.7049
लिका	-10.7049
bol	-10.7051
▁अपमान	-10.7057
▁shared	-10.7057
रोधी	-10.7057
▁हद	-10.706
▁encourage	-10.706
विष	-10.7063
▁painting	-10.7066
▁जिले	-10.7066
ियाना	-10.7067
▁missing	-10.7068
▁जोड़ा	-10.7071
▁principle	-10.7074
▁ip	-10.7081
रक्षक	-10.7082
▁अफगानिस्तान	-10.7082
▁मुर	-10.7083
▁roof	-10.7084
▁पिछली	-10.7084
▁दोनो	-10.7085
▁बाध्य	-10.7087
▁hy	-10.7088
▁whatever	-10.7089
lus	-10.7093
▁आगरा	-10.7093
trop	-10.7093
▁bag	-10.7093
▁सीरिया	-10.7094
▁संस्थाओं	-10.7094
▁introduced	-10.7099
▁factory	-10.7104
चाल	-10.7104
ट्री	-10.7104
▁customer	-10.7106
▁उड़ान	-10.7106
▁जानता	-10.7113
kara	-10.7113
▁योनि	-10.7114
▁31	-10.7119
▁वाह	-10.7119
्मा	-10.7119
▁german	-10.7119
एफ	-10.7124
क्की	-10.7124
▁blind	-10.7124
▁score	-10.7126
▁pictures	-10.7127
▁impossible	-10.7128
▁हिसाब	-10.7129
▁quiet	-10.7129
तन्त्र	-10.7129
▁sample	-10.713
▁मास्टर्स	-10.713
▁appearance	-10.7131
▁विशेषकर	-10.7134
▁मिशन	-10.7134
ection	-10.7136
▁वर्गीकरण	-10.7136
▁उत्पादक	-10.7137
▁installation	-10.7141
तू	-10.7141
लिस	-10.7146
▁tend	-10.7147
▁spend	-10.7147
▁विधा	-10.7153
▁recover	-10.7165
▁bud	-10.7167
▁attract	-10.7169
धू	-10.7173
ola	-10.7174
देह	-10.7174
▁configure	-10.7175
▁आंशिक	-10.7175
▁नमूने	-10.7175
▁संपादित	-10.7175
▁weather	-10.7175
▁बुनियादी	-10.7176
▁अन्तर्राष्ट्रीय	-10.7176
▁डोमेन	-10.7176
▁पाना	-10.7176
▁ड्रग्स	-10.7177
▁blow	-10.7179
▁कण	-10.7183
garh	-10.7183
नायक	-10.7186
उप	-10.7192
▁attain	-10.7193
kin	-10.7193
▁घटनाओं	-10.7193
▁बोस	-10.7194
जिस	-10.7195
▁आरंभिक	-10.7199
▁जग	-10.7199
▁प्रिंटर	-10.7207
▁za	-10.7207
▁घुटन	-10.7207
▁भंग	-10.7209
रिस	-10.7211
▁पंख	-10.7211
▁lib	-10.7216
ोद	-10.7217
▁rare	-10.7218
▁रोज	-10.7221
▁philosophy	-10.7223
▁sanction	-10.7223
▁chapter	-10.7223
▁वाशिंगटन	-10.7223
▁honor	-10.7223
▁signed	-10.7223
▁माउस	-10.7224
यत	-10.7225
रानी	-10.7226
▁स्वच्छ	-10.7226
▁हाइ	-10.7227
▁ग्रह	-10.7228
tum	-10.723
▁ice	-10.7232
दायक	-10.7233
▁outer	-10.7236
▁dynamic	-10.7241
cast	-10.7247
काम	-10.725
ेन्ट	-10.7251
▁उठाने	-10.7262
▁अभ्यास	-10.7262
▁mahabharata	-10.7263
▁student	-10.7266
▁जै	-10.7267
▁legs	-10.7267
▁प्रोत्साहन	-10.727
▁श्रेष्ठ	-10.727
▁इसलिये	-10.727
▁vimana	-10.727
▁महीनों	-10.727
▁नक़ल	-10.727
▁brief	-10.7271
▁characteristic	-10.7271
▁egyptian	-10.7272
▁करवा	-10.7272
▁broken	-10.7274
▁रकम	-10.7274
▁प्रजनन	-10.7274
▁fields	-10.7276
▁मानी	-10.7279
▁peak	-10.7281
number	-10.7281
house	-10.7281
chal	-10.7283
hr	-10.7286
uous	-10.7287
▁arrest	-10.7288
▁हटाने	-10.7304
▁प्रेस	-10.7305
▁inner	-10.7308
शियन	-10.7308
इयों	-10.7312
▁उल	-10.7317
▁jerusalem	-10.7318
▁सुबह	-10.7318
▁फौज	-10.7318
▁रसायन	-10.7318
▁destruction	-10.7319
▁assessment	-10.732
▁वाक्य	-10.732
▁पॉल	-10.7321
▁तह	-10.7331
जित	-10.7333
▁तहत	-10.7333
44	-10.7335
▁ऊपरी	-10.7343
▁tender	-10.7344
▁reply	-10.7346
▁देखकर	-10.7347
▁deb	-10.7351
ाधीन	-10.7354
▁वृत्त	-10.7362
▁egg	-10.7363
दिन	-10.7363
▁प्रतिबंध	-10.7364
64	-10.7365
▁emergency	-10.7365
▁imagine	-10.7365
▁बुरी	-10.7366
▁knee	-10.7366
▁मुल्क	-10.7367
▁regions	-10.7368
▁sit	-10.737
▁शक़्ति	-10.7373
सिंह	-10.7375
▁defined	-10.7378
▁टैग	-10.7379
मुखी	-10.7379
ena	-10.7383
▁सावधानी	-10.7386
▁अय	-10.7389
▁showed	-10.7392
ae	-10.7392
ग्राफ	-10.7404
tam	-10.7404
▁गै	-10.7406
▁समुद्री	-10.7407
▁fro	-10.741
▁attitude	-10.7414
▁defense	-10.7414
▁holiday	-10.7414
▁इंग्लैंड	-10.7414
▁gnome	-10.7414
▁कंपनियों	-10.7414
▁mountains	-10.7414
▁candidate	-10.7414
▁खिलाड़ी	-10.7415
▁sheep	-10.7415
▁amendment	-10.7415
▁कंप	-10.742
▁shut	-10.7422
मारी	-10.7423
▁mala	-10.7425
▁login	-10.7427
▁flo	-10.7427
▁उपस्थिति	-10.7429
▁आग्रह	-10.743
▁dealing	-10.743
▁बचाव	-10.7433
▁ऋस	-10.7435
ggle	-10.7438
▁reports	-10.7439
▁सूख	-10.7439
▁श्र	-10.7443
मेट	-10.7444
ban	-10.7447
▁कहता	-10.7449
▁बेस	-10.7455
▁श्वास	-10.7457
▁mod	-10.7459
▁veda	-10.746
शेष	-10.7462
▁mughal	-10.7462
▁रिकॉर्ड	-10.7462
▁अमरीका	-10.7462
▁gather	-10.7462
▁चरित्र	-10.7462
▁japanese	-10.7462
▁plate	-10.7466
▁penis	-10.7468
▁sell	-10.7474
▁programming	-10.7475
book	-10.7475
▁वस्तुएं	-10.7476
lv	-10.7479
▁बोली	-10.748
▁kids	-10.7482
कायदा	-10.7486
गंध	-10.749
▁vast	-10.7492
▁gun	-10.7493
lex	-10.7497
टू	-10.7499
रोह	-10.7501
▁emperor	-10.751
▁principal	-10.751
▁एवोल्यूशन	-10.751
▁मधुमेह	-10.7511
▁buddha	-10.7511
▁shortcut	-10.7511
▁sources	-10.7513
box	-10.7523
▁नकदी	-10.7526
कोश	-10.7529
▁रज	-10.753
lia	-10.7531
stone	-10.7532
▁इंग	-10.7534
▁catch	-10.7535
टिन	-10.7539
▁emb	-10.7544
▁निकालने	-10.7545
▁stat	-10.7547
▁घुस	-10.7547
▁शिरा	-10.7551
▁डेटाबेस	-10.7559
▁ब्राउज़र	-10.7559
▁मुकदमे	-10.7559
▁फरवरी	-10.7559
▁besides	-10.756
▁विचारधारा	-10.7561
▁instruction	-10.7561
▁bacteria	-10.7562
▁occurs	-10.7569
▁header	-10.7573
aya	-10.7578
▁शुक्र	-10.7581
loom	-10.7584
कोशिका	-10.7584
▁lived	-10.7585
▁कारणों	-10.7592
fully	-10.7596
▁खिल	-10.76
▁पहुँचा	-10.7602
▁सेंट	-10.7604
▁federal	-10.7608
▁औपचारिक	-10.7608
▁समृद्ध	-10.7608
▁pleasure	-10.7608
▁संविदा	-10.7608
▁smart	-10.7609
कारक	-10.7609
कर्त्ता	-10.761
स्थिति	-10.761
▁ov	-10.7614
▁खे	-10.7614
▁rank	-10.7614
▁गाड़ी	-10.7615
▁lung	-10.7621
▁mam	-10.7623
▁गुल	-10.7623
▁reject	-10.7628
▁tourist	-10.7629
▁feet	-10.7629
▁achieve	-10.7632
▁schedule	-10.7635
▁नासा	-10.7636
pping	-10.7642
▁sudden	-10.7643
दर्शन	-10.7646
▁बसव	-10.7647
▁खिला	-10.7647
▁looks	-10.7654
ष्म	-10.7656
▁license	-10.7657
▁resolve	-10.7657
▁परिणामस्वरूप	-10.7657
▁मिट्टी	-10.7657
▁संभावित	-10.7657
▁शिश्न	-10.7657
▁रोजगार	-10.7658
▁१०	-10.7658
▁जॉर्ज	-10.7658
▁शिल्प	-10.7659
▁resource	-10.7659
▁ahead	-10.766
▁prior	-10.7661
▁proposed	-10.7664
हट	-10.7666
▁rat	-10.7667
क्शन	-10.7668
▁decade	-10.7677
▁cotton	-10.7678
lip	-10.7686
▁chain	-10.7688
मूल्य	-10.7692
▁dismiss	-10.7694
▁जैन	-10.7695
▁35	-10.7699
▁leaves	-10.7701
स्तान	-10.7702
▁resident	-10.7706
▁academic	-10.7707
▁church	-10.7707
▁नृत्य	-10.7707
▁टाइप	-10.7707
▁indo	-10.7707
▁reduced	-10.7707
▁spiritual	-10.7708
▁उत्तरदायी	-10.7708
▁सिद्धान्त	-10.7709
वह	-10.771
▁inspector	-10.771
▁गर्मी	-10.7712
▁unity	-10.7713
200	-10.7713
late	-10.7718
▁200	-10.7719
▁boat	-10.7721
▁toward	-10.7725
▁cool	-10.7728
▁शे	-10.773
▁छोड़कर	-10.7731
▁मान्य	-10.7733
▁क्रय	-10.7735
des	-10.7736
position	-10.7742
ksha	-10.7743
▁indra	-10.7745
▁minute	-10.7747
र्बुद	-10.7754
▁regional	-10.7756
▁jurisdiction	-10.7757
▁वैकल्पिक	-10.7757
▁refuge	-10.7757
▁ग्रन्थ	-10.7757
शूल	-10.776
▁एन्	-10.7761
▁entered	-10.7766
त्रिक	-10.7767
▁developing	-10.777
▁अर्थात	-10.7771
▁बडे	-10.7774
ख़ा	-10.7774
▁finding	-10.7777
▁बिन	-10.7779
▁उतना	-10.7785
▁टॉ	-10.7791
▁पढ़ा	-10.7793
वाज	-10.7796
▁figures	-10.78
▁बुद्धि	-10.78
सिल	-10.7805
▁gujarat	-10.7807
▁incident	-10.7807
▁older	-10.7807
▁अंतरिक्ष	-10.7807
▁अग्नि	-10.7807
▁गर्भाशय	-10.7807
कूट	-10.7808
▁बिलकुल	-10.7809
▁leaf	-10.7809
▁farmers	-10.7811
▁relation	-10.7817
▁मजदूर	-10.7818
यंत्र	-10.7819
लाभ	-10.782
▁matches	-10.7823
▁भेद	-10.7826
भारत	-10.7829
▁लार	-10.7833
▁श्वसन	-10.7834
▁mention	-10.7836
gin	-10.7839
ंटा	-10.7844
▁सोम	-10.7848
▁kur	-10.7849
▁ग्राफ	-10.7853
▁records	-10.7855
▁hidden	-10.7857
▁negative	-10.7857
▁urban	-10.7857
▁dialog	-10.7857
chy	-10.7857
▁पंचांग	-10.7858
▁शक्तिशाली	-10.7858
▁contrast	-10.7858
▁लाइ	-10.7859
▁गुजरात	-10.7859
▁नो	-10.786
▁eu	-10.7862
▁crore	-10.7864
ez	-10.7866
▁tasks	-10.7868
▁स्वीकार्य	-10.7868
▁टेप	-10.7869
▁जल्द	-10.7871
▁suddenly	-10.7872
वस्तु	-10.7873
▁पते	-10.7874
▁defect	-10.7876
link	-10.7877
▁lab	-10.7879
▁क्रमांक	-10.7882
▁displayed	-10.7885
▁designed	-10.7886
▁बाँ	-10.7887
कोष	-10.7887
▁मध्यम	-10.7893
▁जोड़ने	-10.7896
▁hari	-10.7897
▁ठहरा	-10.7899
क़्क	-10.7905
▁70	-10.7905
▁correspond	-10.7907
▁इंडियन	-10.7907
▁परिभाषित	-10.7907
▁मुकाबले	-10.7907
hana	-10.7908
▁उत्कृष्ट	-10.7908
▁छिपा	-10.7911
▁सिम	-10.7912
▁flight	-10.7913
▁bath	-10.7915
▁कीटों	-10.7917
▁चीजें	-10.792
▁tail	-10.7922
हू	-10.7922
▁दास	-10.7923
▁वात	-10.7929
ेन्द्र	-10.793
▁joy	-10.7935
▁भरी	-10.7936
▁topic	-10.7936
भाष्	-10.7938
yu	-10.7944
प्रिय	-10.7944
दुर	-10.7946
ान्तर	-10.7953
▁स्वीकृत	-10.7953
▁विराम	-10.7955
▁१२	-10.7957
▁पति	-10.7958
▁destination	-10.7958
▁maintenance	-10.7958
▁काउंसिल	-10.7958
▁सिफारिश	-10.7958
▁magnetic	-10.7958
▁दर्शक	-10.7962
▁पदार्थों	-10.7967
▁sites	-10.797
दास	-10.7972
च्छा	-10.7975
▁fighting	-10.7975
▁apple	-10.7977
▁promise	-10.7978
▁भो	-10.7979
1%	-10.798
▁जानना	-10.7981
▁सदा	-10.7982
▁hind	-10.7989
कालिक	-10.7989
▁song	-10.7991
मणि	-10.7997
▁mur	-10.7999
▁youth	-10.8
ku	-10.8001
▁witness	-10.8003
▁स्टेट	-10.8005
▁आतंक	-10.8006
▁neither	-10.8009
▁yourself	-10.8009
▁स्नायु	-10.8009
▁स्वाभाविक	-10.8009
▁valley	-10.8009
▁प्रतिष्ठा	-10.801
▁विष्णु	-10.8011
▁पठन	-10.8011
वेश	-10.8011
▁arrow	-10.8011
▁स्ट्रिंग	-10.8012
▁shoot	-10.8012
शर	-10.8019
▁exit	-10.8029
▁द्रव	-10.8029
▁usage	-10.8033
▁फैसल	-10.8036
वर्ष	-10.8039
▁हमास	-10.8043
▁शक	-10.8059
eth	-10.806
▁enterprise	-10.8061
▁असामान्य	-10.8061
▁टेलीफोन	-10.8061
▁मोहम्मद	-10.8061
▁surprise	-10.8061
▁प्रार्थना	-10.8061
▁intellectual	-10.8061
▁wealth	-10.8061
ेटर	-10.8061
▁turkish	-10.8062
▁fluid	-10.8065
▁क्रो	-10.8068
▁dil	-10.8069
▁प्रकाशन	-10.807
▁recovery	-10.8073
▁हेम	-10.8074
count	-10.8075
▁आंक	-10.8076
शब्द	-10.8077
▁प्रशासनिक	-10.8079
ट्रो	-10.808
▁बढ़ती	-10.808
bble	-10.8081
कुछ	-10.8083
▁पाये	-10.8083
▁engine	-10.8084
lab	-10.8085
▁solve	-10.8086
▁सेवाएं	-10.8087
▁ढो	-10.809
▁देय	-10.8098
वश	-10.8101
▁materials	-10.8102
▁punjab	-10.8103
▁consists	-10.8105
▁consequence	-10.8112
▁militant	-10.8112
▁प्रशंसा	-10.8112
▁विटामिन	-10.8112
▁module	-10.8112
▁नेशनल	-10.8112
productname	-10.8113
▁stored	-10.8113
्को	-10.8117
ase	-10.8118
ौं	-10.8119
ंदी	-10.8123
▁शाम	-10.8123
▁परेशान	-10.8125
स्राव	-10.8129
▁पोल	-10.8131
ब्ल	-10.8133
▁appears	-10.8137
▁अष्ट	-10.8141
tia	-10.8142
▁span	-10.8144
▁भ्रम	-10.8145
▁notification	-10.8147
▁contents	-10.8147
▁उक	-10.8148
▁कक्षा	-10.8151
चीन	-10.8152
▁bay	-10.8152
▁भूत	-10.8154
▁शर्तों	-10.8155
▁दया	-10.8157
most	-10.8159
▁tools	-10.8159
ढा	-10.816
▁apparent	-10.8164
▁welfare	-10.8164
▁रामायण	-10.8164
▁दाँत	-10.8164
▁basava	-10.8165
▁sitting	-10.8165
▁claims	-10.8167
▁chair	-10.8168
▁प्रतिदिन	-10.8169
▁जरुर	-10.8169
▁manual	-10.8172
▁talking	-10.8173
▁jack	-10.8175
▁scr	-10.8176
▁branches	-10.8177
▁charged	-10.8178
▁portion	-10.8179
60	-10.8183
▁lesson	-10.8183
सिन	-10.8184
▁मंद	-10.8186
▁busy	-10.8191
▁bou	-10.8191
▁अधो	-10.8192
▁trader	-10.8193
▁व्यापारिक	-10.8195
▁spec	-10.8205
▁जुड़ा	-10.821
▁kama	-10.8211
▁उग्र	-10.8215
▁identify	-10.8216
▁mahatma	-10.8216
▁stomach	-10.8216
▁वनस्पति	-10.8216
▁सितम्बर	-10.8216
hoo	-10.8216
▁secular	-10.8217
▁discount	-10.8218
▁बहुमत	-10.8219
▁विषयों	-10.8223
win	-10.8223
etic	-10.8223
▁रोगों	-10.8227
▁घाव	-10.8228
▁बुर	-10.8228
▁fell	-10.8229
▁गरम	-10.823
शाह	-10.823
▁plans	-10.8232
दूसरे	-10.8234
▁quo	-10.8235
कर्ण	-10.8236
▁kr	-10.8249
▁झुक	-10.8255
▁फ़ाइलें	-10.8257
▁suffer	-10.826
▁हिल	-10.8262
▁मारे	-10.8266
▁infect	-10.8266
ugh	-10.8268
▁bhag	-10.8268
▁journey	-10.8268
▁providing	-10.8268
▁विश्वसनीय	-10.8268
▁भर्ती	-10.8268
▁club	-10.8268
▁hurt	-10.8269
क्रमण	-10.827
▁trash	-10.827
▁spring	-10.8271
▁ज़रुरत	-10.8272
▁acceptance	-10.8272
्यान	-10.8272
▁judges	-10.8273
▁victory	-10.8276
▁unlike	-10.8278
▁projects	-10.8278
nga	-10.8281
▁अंदाज	-10.8282
bri	-10.8282
▁greatest	-10.8283
▁कष्ट	-10.8283
भू	-10.8285
▁magic	-10.8285
▁diet	-10.8286
▁बोध	-10.8287
विज्ञानी	-10.8289
▁समर्थक	-10.8291
▁paint	-10.8292
▁successfully	-10.8293
▁tan	-10.8293
▁नागरिकों	-10.8296
▁समझते	-10.8299
▁shell	-10.8302
▁sir	-10.8306
dhi	-10.8308
▁dal	-10.8308
ग्रहण	-10.8311
▁बॉक्स	-10.8314
▁धारण	-10.8318
विध	-10.832
▁behavior	-10.8321
▁अवधारणा	-10.8321
▁kabir	-10.8321
▁सचिव	-10.8322
▁प्रसव	-10.8322
▁prefer	-10.8322
▁संचरण	-10.8323
▁authentication	-10.8323
▁gaza	-10.8323
▁टीवी	-10.8327
▁नै	-10.8327
▁retain	-10.8329
मेर	-10.8329
▁backward	-10.833
'%	-10.8331
श्वर	-10.8335
▁ability	-10.8335
▁90	-10.8336
▁partial	-10.8339
सन्धि	-10.8342
▁monitor	-10.8343
nder	-10.8343
▁परिसर	-10.8347
बर्ट	-10.8348
▁बुला	-10.8349
▁margin	-10.8353
▁obtained	-10.8356
▁अस्त	-10.8357
विल	-10.8358
▁इस्लामिक	-10.8358
पूर	-10.8361
पार	-10.8363
▁उन्होने	-10.8366
टिव	-10.8367
▁आकृति	-10.8369
वो	-10.837
▁अपनाया	-10.8372
iff	-10.8373
▁signature	-10.8374
▁substantial	-10.8374
▁territory	-10.8374
▁उत्सर्जन	-10.8374
▁कम्प्यूटर	-10.8374
▁कनाडा	-10.8374
▁heaven	-10.8374
▁क्रमादेश	-10.8374
▁तलाश	-10.8374
ियल	-10.8375
▁उत्तम	-10.8375
▁symptoms	-10.8377
▁क्व	-10.8377
▁ऋषि	-10.8377
▁तै	-10.8377
▁हंस	-10.8378
पीड	-10.8381
▁golden	-10.8382
▁principles	-10.8382
ii	-10.8382
▁राज्यपाल	-10.8385
ढ़ी	-10.8385
समय	-10.8386
▁गहन	-10.839
▁सीडी	-10.8391
▁घुमा	-10.8394
point	-10.8398
वाड़	-10.8398
▁युक्त	-10.8401
▁संघीय	-10.8405
▁grade	-10.8406
▁चाय	-10.8407
rah	-10.8407
▁फुट	-10.8409
pre	-10.8415
वती	-10.8417
▁excess	-10.8425
▁employer	-10.8427
▁संपादक	-10.8427
▁sacred	-10.8428
▁1990	-10.8428
▁speaking	-10.8429
▁bookmark	-10.8429
▁ठोस	-10.843
▁binary	-10.8431
▁sister	-10.8431
▁आजकल	-10.8432
▁बिहार	-10.8434
▁kal	-10.8435
▁psych	-10.8435
▁कठिनाई	-10.8438
▁भरे	-10.8439
▁हिन्द	-10.8441
▁asian	-10.8443
▁पर्व	-10.8444
▁फाइ	-10.8451
law	-10.8451
▁differences	-10.8451
▁sym	-10.8451
प्राप्त	-10.8452
▁pap	-10.8453
▁extended	-10.8454
दृष्टि	-10.8455
▁चार्ट	-10.8456
▁गोली	-10.8462
ट्टा	-10.8462
हान	-10.8471
▁jain	-10.8472
चारी	-10.8474
nanda	-10.8475
▁भगत	-10.8476
▁filled	-10.8478
रक्त	-10.8478
▁ग्रंथि	-10.8478
▁consumption	-10.8481
▁रियासत	-10.8481
▁व्यवस्थित	-10.8481
▁संतुलन	-10.8481
▁जिहाद	-10.8481
▁immun	-10.8481
▁becoming	-10.8481
▁visual	-10.8481
▁sharp	-10.8482
▁दिवा	-10.8482
▁gross	-10.8482
▁moderate	-10.8483
▁तुम्हार	-10.8483
▁salt	-10.8483
▁काफ़ी	-10.8483
रिंग	-10.8484
▁इस्लामवादियों	-10.8486
▁controlled	-10.8487
▁plum	-10.8488
▁उन्होनें	-10.8489
▁explained	-10.8491
▁नीतियों	-10.8495
▁grown	-10.8495
हिं	-10.8497
▁टेस्ट	-10.8499
निर्माण	-10.8502
▁चिह्नित	-10.8503
you	-10.8507
▁token	-10.8507
▁वक्र	-10.851
card	-10.8513
थित	-10.8514
शक्ति	-10.852
▁vertical	-10.8522
ावस्था	-10.8522
40	-10.8526
▁religions	-10.853
्तर	-10.8534
▁abstract	-10.8534
▁administrator	-10.8534
▁legislature	-10.8534
▁sufficient	-10.8534
▁violent	-10.8534
▁yellow	-10.8534
▁विकिरण	-10.8534
▁advocate	-10.8534
णि	-10.8535
now	-10.8537
▁fee	-10.8537
▁व्यस्त	-10.854
▁स्टै	-10.8542
▁restore	-10.8542
▁अन्तः	-10.8546
अनु	-10.8552
▁offers	-10.8553
▁प्रश्नों	-10.8554
बंद	-10.8565
▁कोमल	-10.8566
▁इत	-10.8571
▁स्ट्र	-10.8578
▁prayer	-10.8579
hir	-10.8582
▁विद	-10.8582
▁सालों	-10.8584
▁seemed	-10.8584
▁decades	-10.8587
▁dictionary	-10.8588
▁पैमाने	-10.8588
▁झूठ	-10.8589
▁worse	-10.8589
▁सुलझा	-10.8589
▁महात्मा	-10.8589
▁restart	-10.859
▁sales	-10.8591
▁bihar	-10.8591
▁guest	-10.8592
▁ruling	-10.8593
▁मिलेगी	-10.8593
▁निकालना	-10.8593
▁आंत्र	-10.8593
▁marked	-10.8599
▁मंगल	-10.8601
cra	-10.8602
ानुसार	-10.8602
▁fig	-10.8603
▁मादा	-10.8604
मुक्त	-10.8605
▁विफलः	-10.8606
▁समानता	-10.8607
▁बही	-10.8609
▁मेरु	-10.8612
▁fly	-10.8613
▁टिक	-10.8617
ब्बा	-10.8622
▁meant	-10.8624
▁ढल	-10.8625
▁sap	-10.8627
▁भूख	-10.8632
▁walls	-10.8633
▁भेजे	-10.8637
▁occupation	-10.8643
▁leaving	-10.8643
▁arabia	-10.8643
▁थोड़ी	-10.8643
▁solid	-10.8643
▁2004	-10.8644
▁आवरण	-10.8645
▁परिचय	-10.8645
▁क्रे	-10.8646
▁prison	-10.8649
उस	-10.8649
▁सूजन	-10.8649
▁बदला	-10.865
▁मिलेगा	-10.865
▁बुक	-10.8653
▁शर्म	-10.8654
▁node	-10.8657
▁deva	-10.8661
▁फुफ्फुस	-10.8663
▁सोचते	-10.8664
headed	-10.8668
▁किला	-10.867
▁cup	-10.8676
▁scan	-10.8678
▁पुन	-10.8679
▁raja	-10.868
ायिक	-10.8682
dding	-10.8684
▁levels	-10.8684
▁चली	-10.8689
▁chand	-10.8691
ष्टि	-10.8692
▁कहने	-10.8696
▁लोगो	-10.8697
▁आधिकारिक	-10.8697
▁खतरनाक	-10.8697
▁प्रतियोगिता	-10.8697
▁अजीब	-10.8698
▁coast	-10.8699
▁संशोधित	-10.8699
▁stopped	-10.8699
▁गईं	-10.8701
▁आचरण	-10.8701
tat	-10.8702
▁inform	-10.8703
▁औषधि	-10.8704
▁angel	-10.8707
▁rename	-10.8711
see	-10.8712
▁उठाना	-10.8714
म्बर	-10.8714
▁citizen	-10.8714
▁laid	-10.8718
▁discuss	-10.8718
▁formula	-10.8719
pec	-10.8723
▁panic	-10.8726
▁पहल	-10.8727
▁फैसला	-10.8727
▁देशी	-10.8727
पेशी	-10.8729
off	-10.873
▁आतंकवादियों	-10.873
▁brave	-10.8735
▁govern	-10.8735
ोरा	-10.8741
▁dig	-10.8747
▁distinct	-10.8748
ori	-10.875
▁सरकारों	-10.875
▁१६	-10.8752
▁biggest	-10.8752
▁ऑनलाइन	-10.8752
▁झिल्ली	-10.8752
▁तरीकों	-10.8752
▁prophet	-10.8752
▁sorrow	-10.8752
▁stamp	-10.8753
▁महाराष्ट्र	-10.8753
▁acute	-10.8753
▁wound	-10.8753
▁compassion	-10.8754
▁क्रांतिकारी	-10.8754
▁कॉलेज	-10.8754
▁प्रतिलिपि	-10.8757
▁buildings	-10.8758
ाचार्य	-10.8759
blast	-10.8762
▁दावे	-10.8763
▁फट	-10.8764
▁चौक	-10.8769
▁संत	-10.8773
▁smaller	-10.8773
break	-10.8777
गर्भ	-10.8777
जनन	-10.878
तुल	-10.8781
मिक	-10.8785
▁कराना	-10.8787
▁बढ़ाने	-10.8788
cher	-10.8789
▁insist	-10.8789
पाक	-10.8792
▁सैनिक	-10.8794
▁लू	-10.8794
lent	-10.8797
▁झा	-10.8803
▁investigation	-10.8808
▁प्रेमचंद	-10.8808
▁instructions	-10.8808
▁conversion	-10.8808
▁premchand	-10.8809
ल्यू	-10.8811
▁mel	-10.8813
▁संक्षेप	-10.8813
▁घास	-10.8818
▁mp	-10.8818
▁खबर	-10.8819
▁meter	-10.8819
▁merely	-10.8819
▁गुना	-10.8823
थान	-10.8824
▁jam	-10.883
scope	-10.8833
fold	-10.8833
board	-10.8834
▁सांस	-10.8836
ब्रा	-10.8836
▁african	-10.8837
भोज	-10.8843
▁tear	-10.8847
▁खरीदने	-10.885
12	-10.8852
बर्ग	-10.8854
फोर	-10.8856
▁फ़ाइलों	-10.8856
▁लंबा	-10.886
▁हक	-10.8862
▁अक्टूबर	-10.8863
▁मूर्ख	-10.8863
▁babies	-10.8863
▁injury	-10.8863
▁william	-10.8863
▁सत्यापन	-10.8864
▁crores	-10.8865
rophy	-10.8866
▁लंबाई	-10.8867
ूरी	-10.8867
▁proof	-10.8867
▁sending	-10.8869
▁fan	-10.8872
▁बनाकर	-10.8874
ूंगा	-10.8881
स्थि	-10.8884
▁लगते	-10.8887
सेट	-10.889
bit	-10.8892
▁marketing	-10.8893
▁बिता	-10.8895
▁उलट	-10.8898
मीटर	-10.8902
▁आर्य	-10.8903
▁मूल्यों	-10.8905
▁usual	-10.891
▁christ	-10.8918
▁मातृ	-10.8919
▁mortgage	-10.8919
▁एप्लिकेशन	-10.8919
▁समुच्चय	-10.8919
▁artificial	-10.8919
▁प्रोटीन	-10.8919
▁पैनल	-10.8919
▁forget	-10.892
▁परमिट	-10.892
▁1999	-10.892
▁सामान्यतया	-10.8923
▁fuel	-10.8924
्फ़	-10.8924
▁blu	-10.8925
▁सौदा	-10.8926
▁जिनकी	-10.8935
▁हमले	-10.8938
what	-10.894
▁प्रजाति	-10.8942
▁reveal	-10.8945
▁पर्यटकों	-10.8947
ria	-10.8949
▁fourth	-10.895
low	-10.8955
▁शेर	-10.8957
▁worker	-10.8959
▁preferences	-10.8959
ith	-10.896
▁ईरानी	-10.8962
▁शून्य	-10.8966
▁joined	-10.8967
▁गवाह	-10.8968
▁functions	-10.8968
hold	-10.8973
▁shu	-10.8975
▁adequate	-10.8975
▁dynasty	-10.8975
▁नियन्त्रण	-10.8975
▁कलकत्ता	-10.8975
▁tourists	-10.8975
घोष	-10.8976
▁civilization	-10.8978
▁appeared	-10.8982
लाल	-10.8987
▁capable	-10.8988
list	-10.8993
यम	-10.8999
▁घन	-10.9
▁grave	-10.9001
▁विषम	-10.9002
▁विलय	-10.9005
▁मिलाकर	-10.9006
▁aware	-10.9007
▁मैक	-10.9009
कंद	-10.9015
▁रहित	-10.9028
▁proportion	-10.9031
▁calling	-10.9032
▁promotion	-10.9032
▁मुताबिक	-10.9032
▁ढूँढ	-10.9032
▁queen	-10.9032
▁narrow	-10.9033
▁1998	-10.9033
▁remained	-10.9033
▁dangerous	-10.9035
▁संक्रिया	-10.9036
▁passage	-10.9038
▁शू	-10.9038
▁स्वर्ग	-10.9038
थो	-10.9039
खु	-10.9041
▁carrying	-10.9046
▁पाता	-10.9049
▁brahman	-10.9051
नुमा	-10.9055
▁शव	-10.9057
▁समायोजन	-10.9059
आउट	-10.9059
nagar	-10.9059
▁संसाधनों	-10.9062
mba	-10.9067
had	-10.9067
▁fil	-10.9074
▁chromosome	-10.9088
▁prominent	-10.9088
▁universal	-10.9088
▁संप्रतीक	-10.9088
ज्ञान	-10.9089
▁proceedings	-10.9089
▁split	-10.909
▁तीसरे	-10.909
▁vedic	-10.9091
▁तनाव	-10.9092
▁bodies	-10.9092
▁durga	-10.9092
▁बादशाह	-10.9095
▁winter	-10.9096
▁गतिशील	-10.9097
चय	-10.9098
▁इंजन	-10.9098
▁evening	-10.9104
▁granted	-10.9105
▁निदान	-10.9105
वरी	-10.9112
▁http	-10.9112
▁teaching	-10.9119
तव	-10.9123
▁चढ़	-10.9127
किल	-10.9134
▁visiting	-10.9134
गुण	-10.9143
▁conversation	-10.9146
▁आकस्मिक	-10.9146
▁चुंबकीय	-10.9146
यन्त्र	-10.9146
▁persian	-10.9146
▁एकत्र	-10.9147
▁लॉगिन	-10.9148
▁घातक	-10.9148
▁नवीन	-10.915
▁गहरी	-10.915
▁आनन्द	-10.9151
▁distributed	-10.9151
▁quote	-10.9152
▁machinery	-10.9155
▁fir	-10.9156
▁टै	-10.9157
▁kin	-10.9158
▁बनता	-10.916
▁आजाद	-10.9169
खण्ड	-10.9171
▁cer	-10.9175
मेन	-10.9178
▁county	-10.9179
▁प्लग	-10.9187
▁por	-10.9188
▁visited	-10.9188
नाशी	-10.9189
wit	-10.9191
▁सुनने	-10.9194
▁छात्रों	-10.9196
▁घरों	-10.92
▁bla	-10.9201
पादन	-10.9203
▁entrance	-10.9203
▁sculpture	-10.9203
▁श्लोक	-10.9203
▁अत्यन्त	-10.9204
▁प्रसार	-10.9204
▁2009	-10.9204
▁occurred	-10.9204
▁hyper	-10.9205
▁पीढ़ी	-10.9205
▁तीसरा	-10.9207
▁revolutionary	-10.9208
▁फ़ोन	-10.9209
▁luck	-10.921
▁radiation	-10.9211
ंबर	-10.9215
▁दवाओं	-10.9217
▁gov	-10.9217
▁repeated	-10.9225
पाट	-10.9232
▁जाय	-10.9235
▁वर्षीय	-10.9237
ाइम	-10.9239
ough	-10.9244
gate	-10.9245
▁दोषी	-10.9246
▁पान	-10.9248
िंद	-10.925
▁maybe	-10.9252
▁paul	-10.9255
▁युग्म	-10.9257
▁differ	-10.9257
ney	-10.9258
▁एव	-10.9258
▁widget	-10.9261
▁अर्जुन	-10.9261
▁मछली	-10.9261
▁nokia	-10.9261
▁silence	-10.9261
▁maharashtra	-10.9261
▁यौन	-10.9261
▁referred	-10.9262
▁admit	-10.9263
▁नोकिया	-10.9263
▁बनाता	-10.9263
▁संगठनों	-10.9264
▁argue	-10.9264
▁नेताजी	-10.9268
}%	-10.9271
zo	-10.9271
▁congo	-10.9272
▁कृत्य	-10.9274
र्र	-10.9274
▁players	-10.9274
▁जुड़ी	-10.9276
kal	-10.9276
▁पड़ती	-10.9277
▁प्रलेख	-10.9282
▁वसूली	-10.9282
▁teach	-10.9286
▁दस्त	-10.929
चिकित्सा	-10.9291
▁पाप	-10.9291
▁एम्	-10.9292
▁poem	-10.9294
▁माने	-10.9295
54	-10.9295
▁organism	-10.9297
▁prepare	-10.9297
▁arrested	-10.9297
▁ताज	-10.9303
pot	-10.9309
▁tons	-10.9309
▁देवता	-10.931
▁maintained	-10.9317
▁expansion	-10.9319
▁mechanism	-10.9319
▁ज्ञापन	-10.9319
▁यहूदियों	-10.9319
▁grew	-10.9319
▁मुल	-10.9319
▁utter	-10.9319
▁लेखापरीक्षा	-10.9319
▁properties	-10.932
▁duties	-10.932
▁brahmin	-10.932
▁digest	-10.9322
▁आप्रवास	-10.9324
०००	-10.9325
है	-10.9326
वचन	-10.9329
▁संचित	-10.9329
▁घड़ी	-10.9329
otomy	-10.933
▁identified	-10.933
▁जुटा	-10.9347
▁provisions	-10.9347
▁चलाया	-10.9348
▁फार	-10.9351
▁classes	-10.9353
dom	-10.9356
▁टोकन	-10.9357
▁hal	-10.9358
▁programs	-10.9364
▁अश्व	-10.9366
पेट	-10.9367
▁मिश्रण	-10.937
▁क्ष	-10.9373
▁signs	-10.9374
▁sensitive	-10.9377
▁understood	-10.9377
▁अतिरिक़्त	-10.9377
▁विज्ञापन	-10.9377
eshwar	-10.9378
▁communist	-10.9378
▁protein	-10.9378
▁nurse	-10.9378
▁interrupt	-10.9378
▁horizontal	-10.9378
▁chromium	-10.9378
▁संचालित	-10.9381
▁extract	-10.9382
▁das	-10.9382
▁tum	-10.9383
▁percentage	-10.9384
▁plea	-10.9386
▁संवेदनशील	-10.9388
▁साख	-10.9391
▁फिलीस्तीन	-10.9391
▁sita	-10.9394
▁हजारों	-10.9394
▁बांट	-10.9394
▁आधा	-10.9395
▁drawn	-10.9399
व्यापी	-10.9401
ाश्म	-10.9401
▁बचाने	-10.9406
▁extend	-10.9406
▁होस्ट	-10.941
▁guy	-10.9412
▁साफ़	-10.9414
▁न्यायालयों	-10.9416
▁दुष्	-10.9418
▁रेड	-10.9424
ivity	-10.9424
▁syria	-10.9425
▁forced	-10.9428
▁hol	-10.9429
▁मैन	-10.9429
▁चर्च	-10.9429
वंश	-10.9429
▁बौद्ध	-10.9431
▁atmosphere	-10.9436
▁शॉर्टकट	-10.9436
▁फीसदी	-10.9436
▁बंबई	-10.9436
▁abandon	-10.9436
▁wheel	-10.9436
▁दौड़	-10.9437
▁सडक	-10.9437
▁attachment	-10.9439
▁स्पेन	-10.9439
▁clock	-10.9439
▁km	-10.944
▁dread	-10.944
पुष्ट	-10.9441
▁संयोजन	-10.9442
▁शस्त्र	-10.9442
▁छुपा	-10.9443
87	-10.9444
▁दरबार	-10.9444
ken	-10.9448
विकृति	-10.9449
key	-10.945
▁pea	-10.9451
▁झाड़	-10.9451
▁बर्फ	-10.9452
▁परिवर्तनों	-10.9454
▁निवासी	-10.9457
▁kinds	-10.9457
▁सम्बन्धित	-10.9461
ैं	-10.9464
77	-10.9466
▁sold	-10.9473
ियस	-10.9476
59	-10.9477
▁warming	-10.9482
▁कोष	-10.9483
wat	-10.9483
gil	-10.9484
▁तैयारी	-10.9484
बिन	-10.9485
▁replace	-10.9486
▁सकी	-10.9489
▁प्रस्तावित	-10.9489
न्द्र	-10.9489
▁उड़न	-10.949
unction	-10.9494
पोल	-10.9495
▁familiar	-10.9495
▁ज़रूरी	-10.9495
▁लाइसेंस	-10.9495
▁audience	-10.9496
▁मौका	-10.9496
▁संतुष्ट	-10.9496
▁प्रसंग	-10.9496
▁seller	-10.9496
▁infant	-10.9496
▁operator	-10.9496
▁सफलतापूर्वक	-10.9497
▁defend	-10.9497
▁बीस	-10.9499
▁archive	-10.95
▁खुली	-10.9504
गिन	-10.9506
▁गुम	-10.9506
श्लेष	-10.9507
▁सकेंगे	-10.951
▁मोटा	-10.951
▁बंधन	-10.9511
▁reasonable	-10.9513
▁प्रजा	-10.9514
▁थक	-10.9517
▁opt	-10.9519
▁अफ़	-10.9519
east	-10.9519
▁nut	-10.952
▁ठंड	-10.9524
▁खेती	-10.9537
▁squ	-10.9538
▁suggested	-10.9551
▁अथ	-10.9551
scribe	-10.9552
top	-10.9553
▁assess	-10.9555
▁पूँजी	-10.9555
▁सदैव	-10.9555
▁thread	-10.9556
▁assistance	-10.9556
▁अध्याय	-10.9556
▁तीर्थ	-10.9557
▁तं	-10.9557
▁जरूर	-10.9557
▁cheap	-10.9559
▁शादी	-10.956
▁पंजी	-10.9561
acharya	-10.9564
▁sept	-10.9566
हाल	-10.9566
▁merge	-10.9567
▁हाथी	-10.9569
▁आंकड़े	-10.957
▁manufacture	-10.9571
कां	-10.9575
lock	-10.9578
▁implement	-10.958
▁zo	-10.9584
vin	-10.9585
जीवी	-10.9596
धीरे	-10.9596
▁परेशानी	-10.96
स्तरीय	-10.9603
embl	-10.9604
कन्द	-10.9605
▁{0}	-10.9605
▁गज	-10.9605
▁सिखा	-10.9606
▁पक्षों	-10.961
▁फ़ि	-10.9611
▁frequency	-10.9615
▁privilege	-10.9615
▁studied	-10.9615
▁मुफ्त	-10.9615
▁समर्पित	-10.9615
▁दाखिल	-10.9615
▁पांव	-10.9615
▁carrier	-10.9615
▁किराया	-10.9615
▁hardware	-10.9616
▁सूचकांक	-10.9616
▁कपड़े	-10.9617
▁महि	-10.9618
▁वेश	-10.9618
▁आपसे	-10.9618
▁अमृत	-10.9618
▁scientists	-10.9619
▁स्टोर	-10.9619
▁cult	-10.9619
▁करेंः	-10.9619
▁गलती	-10.9621
▁सम्पूर्ण	-10.9623
▁pit	-10.9626
▁tin	-10.9626
▁कही	-10.963
▁flowers	-10.9631
▁लल	-10.9637
pass	-10.9641
kri	-10.9647
▁cry	-10.9648
▁अपरि	-10.965
▁बिन्दु	-10.9651
▁entirely	-10.9659
how	-10.966
धारण	-10.9662
कुर	-10.9664
▁उम्मीद	-10.9669
intelligent	-10.9675
▁prohibit	-10.9675
▁prospect	-10.9675
▁qualification	-10.9675
▁ubuntu	-10.9675
▁unicode	-10.9675
▁जिंदगी	-10.9675
▁फलस्वरूप	-10.9675
▁मैथुन	-10.9675
▁mirror	-10.9675
▁सकारात्मक	-10.9675
▁requirements	-10.9675
▁दुग्ध	-10.9676
▁ब्राउज	-10.9677
▁लकड़ी	-10.9677
▁ग्रीन	-10.968
वाही	-10.9683
बै	-10.9684
▁कट्टरपंथी	-10.9687
▁neck	-10.9689
मिति	-10.9696
▁अनंत	-10.9698
▁जाया	-10.9698
▁संज्ञा	-10.9699
▁cair	-10.97
▁achieved	-10.9702
▁instruments	-10.9703
▁jai	-10.9707
बिया	-10.9707
वाहिनी	-10.9707
▁प्राधिकार	-10.9709
keeper	-10.971
▁शाक	-10.9711
▁परजीवी	-10.9713
▁फलक	-10.9714
▁destroyed	-10.9715
▁jobs	-10.9719
▁लगने	-10.9727
▁adjust	-10.9732
▁manufacturing	-10.9736
▁sacrifice	-10.9736
▁सृजन	-10.9736
▁सम्राट	-10.9736
ञ्च	-10.9736
▁हस्तक्षेप	-10.9737
▁seeing	-10.9737
▁प्रेरणा	-10.9738
▁संपन्न	-10.9739
▁विभेद	-10.9741
▁lone	-10.9742
▁rice	-10.9743
▁pool	-10.9744
▁मिलना	-10.9744
▁virus	-10.9748
▁purposes	-10.9749
▁स्कीम	-10.9749
▁दत्त	-10.9752
▁ruin	-10.9754
▁kilo	-10.9755
▁printing	-10.9757
दंड	-10.976
क्रिय	-10.976
ांकित	-10.9771
वृद्धि	-10.9771
व्यय	-10.9774
▁gran	-10.9776
ाहार	-10.9779
▁पाठ्य	-10.978
▁mix	-10.9781
▁बताने	-10.9785
स्टा	-10.9788
▁leads	-10.9791
▁transform	-10.9792
▁पाठक	-10.9792
▁treasure	-10.9797
▁गारंटी	-10.9797
▁exactly	-10.9797
▁variable	-10.9797
▁आकलन	-10.9797
▁random	-10.9797
▁जज	-10.9798
▁prize	-10.9798
▁remaining	-10.98
▁संपादन	-10.98
▁भेंट	-10.9801
▁twin	-10.9801
▁प्रसाद	-10.9804
▁songs	-10.9808
▁आस्था	-10.981
▁crowd	-10.981
hrew	-10.9812
▁वास	-10.9812
▁customers	-10.9814
▁तरफ़	-10.9815
ेन्स	-10.9815
▁पहाड़	-10.982
क्रा	-10.9828
▁electric	-10.9829
पत्ति	-10.9829
▁managed	-10.983
▁चिर	-10.9833
laughter	-10.9838
▁patients	-10.9841
▁सम्बंध	-10.985
▁मंदी	-10.9851
▁vessel	-10.9858
▁worry	-10.9858
▁घृणा	-10.9858
▁रासायनिक	-10.9858
▁संवैधानिक	-10.9858
▁david	-10.9858
▁अवकाश	-10.9858
▁वितरित	-10.9858
▁insult	-10.9858
▁activate	-10.9858
▁nhs	-10.9859
▁crack	-10.9859
▁solvent	-10.986
▁angle	-10.9861
▁assert	-10.9861
रेखा	-10.9863
ार्म	-10.9864
ाइज	-10.9867
▁organised	-10.9874
▁mc	-10.9874
▁kid	-10.9875
48	-10.9876
▁जोड	-10.988
▁helping	-10.988
▁रवि	-10.988
भाष	-10.9882
88	-10.9882
99	-10.9886
▁उत्पादों	-10.9887
▁deed	-10.9888
▁interested	-10.9892
▁nagar	-10.9896
घट	-10.9898
▁अगला	-10.9902
्यूट	-10.9907
▁संकल्प	-10.9908
वर्धन	-10.9911
▁घाटी	-10.9911
▁अड़	-10.9913
▁mir	-10.9915
▁ज्वर	-10.9916
▁alcohol	-10.992
▁इलेक्ट्रॉनिक	-10.992
▁प्रदूषक	-10.992
▁विपणन	-10.992
▁honour	-10.992
▁महादेवी	-10.992
▁acknowledge	-10.992
▁बेहद	-10.992
▁ऊंट	-10.992
▁परिस्थिति	-10.992
▁ledger	-10.9921
▁recorded	-10.9921
▁crash	-10.9922
▁prasad	-10.9923
▁सेवन	-10.9926
▁बढे	-10.9927
ावली	-10.9932
▁खड़ी	-10.9937
ात्मा	-10.994
▁दांत	-10.9942
inter	-10.9943
▁कृ	-10.9949
िणी	-10.995
▁वर्णित	-10.9951
ैंड	-10.9952
▁photos	-10.9955
':%	-10.9955
▁लिखें	-10.9961
अन	-10.9962
lick	-10.9966
▁specimen	-10.9982
▁लोकसभा	-10.9982
▁sustain	-10.9982
▁मुंह	-10.9982
▁lymph	-10.9982
▁लम्बे	-10.9982
▁monetar	-10.9983
▁भागीदार	-10.9985
▁silk	-10.9985
मापी	-10.9985
पट्टी	-10.9986
▁gang	-10.9986
▁अभिव्यक्ति	-10.9987
▁उपग्रह	-10.9988
▁वक़्त	-10.999
▁चावल	-10.9991
▁नाभि	-10.9991
▁मोड़	-10.9991
▁russian	-10.9995
गरी	-10.9996
▁प्रबंधित	-10.9999
ावन	-10.9999
▁500	-11
▁नली	-11.0003
▁जिम्मेदार	-11.0005
ank	-11.0008
▁determined	-11.0013
▁organisms	-11.0015
▁रूस	-11.0021
भेद	-11.0022
rav	-11.0025
▁अध्य	-11.0027
▁अन्ध	-11.003
▁वाम	-11.003
▁aged	-11.0034
▁मिस	-11.0035
will	-11.0038
▁पोषण	-11.0041
▁गेट	-11.0044
▁कोलकाता	-11.0044
▁विकलांग	-11.0044
▁bjp	-11.0044
▁urdu	-11.0045
▁estate	-11.0045
▁interview	-11.0045
▁committed	-11.0045
▁श्रव्य	-11.0045
▁clause	-11.0046
▁adjustment	-11.0048
▁eggs	-11.0049
णीय	-11.0051
arth	-11.0052
▁representation	-11.0052
परक	-11.0053
कर्ष	-11.0053
▁trick	-11.0058
▁निवल	-11.006
▁mine	-11.006
sses	-11.0066
▁discover	-11.0067
न्ग	-11.0068
▁spin	-11.0072
वर्ड	-11.0073
▁surround	-11.0076
काय	-11.0079
▁allah	-11.008
▁slip	-11.0083
गुल	-11.0084
ogue	-11.0086
▁arrangement	-11.0088
▁mega	-11.0091
▁अधिकरण	-11.0091
▁निर्माता	-11.0102
▁जार्ज	-11.0103
▁लगाए	-11.0107
▁abnormal	-11.0107
▁conclude	-11.0107
▁contribute	-11.0107
▁decrease	-11.0107
▁nervous	-11.0107
▁आपराधिक	-11.0107
▁देवनागरी	-11.0107
▁typical	-11.0107
▁अपेक्षित	-11.0107
▁मुद्दे	-11.0107
्हा	-11.0107
▁photograph	-11.0108
▁लहर	-11.0108
▁scene	-11.0108
▁महत्त्वपूर्ण	-11.0108
▁deleted	-11.0109
▁विलियम	-11.0109
▁ऊंचाई	-11.011
▁liability	-11.011
▁संचय	-11.0112
▁अल्लाह	-11.0113
▁छू	-11.0113
▁अनुचित	-11.0113
▁पड़ेगा	-11.0114
▁suitable	-11.0115
▁सूचित	-11.0116
▁पूति	-11.0116
▁निशा	-11.012
▁निंदा	-11.012
▁acceptable	-11.0122
▁स्टाफ	-11.0126
▁कहे	-11.0126
▁soldiers	-11.0129
oe	-11.013
▁विद्वान	-11.0132
▁उलझ	-11.0136
▁स्पर्श	-11.0138
▁forum	-11.0141
▁क्यू	-11.0147
▁संगम	-11.0149
▁आदत	-11.0154
▁extreme	-11.0156
गें	-11.0167
▁israelis	-11.017
▁coffee	-11.0171
▁definition	-11.0171
▁efficient	-11.0171
▁entitled	-11.0171
▁microsoft	-11.0171
▁सम्भावना	-11.0171
▁लसीका	-11.0171
▁chamber	-11.0171
▁innocent	-11.0171
▁sniff	-11.0171
▁मकबर	-11.0171
▁composition	-11.0171
▁hazard	-11.0171
▁preview	-11.0172
▁introduction	-11.0172
▁1980	-11.0172
▁१९८	-11.0173
▁educational	-11.0174
▁गरीबी	-11.0175
▁स्वभाव	-11.0176
▁adding	-11.0176
▁flash	-11.0179
▁तालिका	-11.0181
▁bhagat	-11.0182
▁rai	-11.0189
▁ज्ह	-11.0195
▁folk	-11.0197
▁journal	-11.0198
▁stated	-11.0204
दायी	-11.0204
▁हमे	-11.0207
भोग	-11.0209
▁cop	-11.0213
▁skill	-11.0215
▁पश्चात्	-11.0222
▁vary	-11.0222
▁burning	-11.0226
▁बढ़ने	-11.0228
रचना	-11.023
ैत	-11.0232
▁analys	-11.0232
80	-11.0233
सल्ल	-11.0233
▁html	-11.0234
▁opposite	-11.0234
▁ऑस्ट्रेलिया	-11.0234
▁दिलचस्प	-11.0234
▁greek	-11.0234
▁shadow	-11.0234
▁आरोग्य	-11.0234
▁प्रतिकूल	-11.0234
▁प्राधिकृत	-11.0234
▁dvd	-11.0234
▁दीवान	-11.0235
▁समारोह	-11.0235
▁नवंबर	-11.0235
▁पुस्तकालय	-11.0237
▁जिसमे	-11.0237
▁genes	-11.0239
▁progressive	-11.0243
▁approved	-11.0243
▁लड़की	-11.0249
▁illness	-11.0249
▁extremely	-11.0249
▁(-)	-11.0256
▁acting	-11.0257
▁बैठा	-11.0257
▁detailed	-11.0258
भिन्न	-11.0263
hearted	-11.0266
cut	-11.0267
udi	-11.0268
▁तरल	-11.0268
▁विविधता	-11.0269
▁रत्न	-11.0269
▁जोड़े	-11.027
▁पूर्वक	-11.0271
▁schemes	-11.0274
▁ruled	-11.0275
30	-11.0283
▁प्रजातिय	-11.0284
▁बनना	-11.0287
मध्य	-11.0289
डोर	-11.0295
▁mahadevi	-11.0298
▁taliban	-11.0298
▁गंतव्य	-11.0298
▁अखिल	-11.0298
pod	-11.0299
▁agencies	-11.03
▁emission	-11.0301
▁jaw	-11.0301
▁marble	-11.0302
▁rising	-11.0302
▁प्रसारण	-11.0303
▁cli	-11.0304
▁गहराई	-11.0304
▁tract	-11.0305
▁हटाना	-11.0307
▁fur	-11.0312
▁din	-11.0315
▁हृद	-11.0317
vat	-11.0317
राज्य	-11.0318
▁शैल	-11.0319
▁भड़	-11.0323
▁marginal	-11.0325
▁adopt	-11.0329
र्द्ध	-11.0329
▁विश	-11.0333
ानन्द	-11.0334
ache	-11.0335
▁उब	-11.0336
▁gall	-11.034
निर्देश	-11.0341
तापूर्वक	-11.0342
▁bowler	-11.0346
▁tit	-11.0353
तुर	-11.0353
▁पक्षी	-11.0353
▁passing	-11.0354
▁भत	-11.0355
▁lin	-11.0356
▁processes	-11.0358
▁conducted	-11.0358
▁wake	-11.0359
▁disappear	-11.0363
▁arithmetic	-11.0363
▁opportunities	-11.0363
▁recruit	-11.0363
▁suicide	-11.0363
▁उल्लंघन	-11.0363
▁तीक्ष्ण	-11.0363
▁परिपक्व	-11.0363
▁प्रोफ़ाइल	-11.0363
▁कार्यपालिका	-11.0363
▁inflation	-11.0363
▁thick	-11.0363
▁robot	-11.0363
▁1996	-11.0364
▁lawyer	-11.0364
▁clinic	-11.0364
▁objects	-11.0365
▁स्कैन	-11.0365
▁डूब	-11.0365
पटल	-11.0372
▁carefully	-11.0373
uv	-11.0374
▁बाँध	-11.0375
▁वास्तविकता	-11.0378
▁curve	-11.038
जान	-11.0382
▁घिर	-11.0382
▁आज्ञा	-11.0385
▁holder	-11.0386
▁laugh	-11.0386
▁penal	-11.039
▁बैठे	-11.0392
▁लड	-11.0396
भुज	-11.0397
▁जानवरों	-11.0398
▁bengali	-11.04
▁छिद्र	-11.0403
dir	-11.0403
खोर	-11.0404
▁constitute	-11.0406
समूह	-11.0407
ोत्स	-11.0408
▁widely	-11.0413
ागार	-11.0414
▁कृत	-11.0414
▁अंग्रेजों	-11.042
▁chest	-11.0424
▁अनव	-11.0426
▁bringing	-11.0427
▁league	-11.0428
▁magistrate	-11.0428
▁manifest	-11.0428
▁myself	-11.0428
▁strategy	-11.0428
▁डिजिटल	-11.0428
▁मुलाकात	-11.0428
▁intention	-11.0428
▁smoke	-11.0428
▁premium	-11.0429
▁impo	-11.0429
▁admitted	-11.0429
▁abort	-11.0432
▁वाणिज्यिक	-11.0433
▁lease	-11.0433
▁proc	-11.0436
▁डिम्ब	-11.0437
▁बचपन	-11.0441
▁शेयरों	-11.0442
▁फ्रेम	-11.0449
मोह	-11.0456
▁बताता	-11.0456
▁फिल्मों	-11.0457
▁fre	-11.0461
▁arise	-11.0461
दाय	-11.0461
▁improved	-11.0462
▁संतान	-11.0462
▁किसान	-11.0462
▁ended	-11.0465
▁गीता	-11.0468
impl	-11.0468
▁shoulder	-11.0473
▁बारह	-11.0476
▁employee	-11.0477
▁bright	-11.0478
▁dur	-11.0484
ैंस	-11.0488
▁निकलने	-11.049
रोपण	-11.0493
▁सचमुच	-11.0493
▁सोवियत	-11.0493
▁वयस्क	-11.0493
▁tongue	-11.0493
▁लॉन्च	-11.0493
active	-11.0493
▁imported	-11.0494
▁इंसान	-11.0495
▁stuff	-11.0496
▁cease	-11.0496
कार्ड	-11.0497
▁परिपथ	-11.0497
१०	-11.0497
▁मिटाएँ	-11.0498
▁मतदान	-11.0499
▁tata	-11.0503
विचार	-11.0504
▁putting	-11.0505
▁epic	-11.0505
▁प्रयासों	-11.0508
▁शक्तियों	-11.051
▁सुपर	-11.0517
ncies	-11.0521
▁खेत	-11.0521
ograph	-11.0522
▁info	-11.0525
▁सीमाओं	-11.0531
▁paris	-11.0533
▁कथन	-11.0534
ग्ध	-11.0537
संस्कृत	-11.0539
▁चिप	-11.0543
▁उच	-11.0544
▁समझना	-11.0546
▁थोड	-11.0547
▁spoke	-11.0551
▁happening	-11.0555
▁हिला	-11.0556
ाग्र	-11.0559
▁afghan	-11.0559
▁badruddin	-11.0559
▁communal	-11.0559
▁गम्भीर	-11.0559
▁लीजिए	-11.0559
▁सर्वश्रेष्ठ	-11.0559
▁मौलिक	-11.0559
▁utilis	-11.0559
▁गहरे	-11.0559
▁आबादी	-11.0559
▁अमान्य	-11.0559
▁kidney	-11.0559
▁cursor	-11.0559
ूँगा	-11.0559
▁गुणसूत्र	-11.056
▁lanka	-11.0562
▁duration	-11.0566
▁लूट	-11.0568
▁railways	-11.0569
गुना	-11.0573
▁grass	-11.0573
▁प्रशासक	-11.0579
▁pet	-11.0581
▁snow	-11.059
▁प्रमाणित	-11.0595
▁लख	-11.0603
genera	-11.0604
▁capture	-11.0605
टेन	-11.0607
लोम	-11.0613
▁टीका	-11.0614
▁अहम	-11.0616
▁अंकित	-11.0619
▁प्रारम्भ	-11.0619
▁जरुरत	-11.0621
▁walking	-11.0622
▁afford	-11.0625
▁diabetes	-11.0625
▁happiness	-11.0625
▁nobody	-11.0625
▁विधायिका	-11.0625
▁1993	-11.0625
▁औजार	-11.0625
▁भांति	-11.0625
maker	-11.0626
▁मतभेद	-11.0626
▁gandhiji	-11.0627
▁वरिष्ठ	-11.0628
▁occ	-11.0628
▁uniform	-11.063
▁dependent	-11.063
▁क्षमा	-11.063
▁ramayana	-11.0631
▁बुलाया	-11.0631
▁rear	-11.0633
▁सहकारी	-11.0633
▁विनियम	-11.0633
▁mahabharat	-11.0635
reg	-11.0636
▁प्रक्रम	-11.0638
▁deposits	-11.064
▁upset	-11.0641
rita	-11.0642
▁containing	-11.0643
▁bose	-11.0644
aran	-11.0646
▁backup	-11.0646
▁जैव	-11.0651
▁estimated	-11.066
रियल	-11.0662
▁loading	-11.0665
tab	-11.0666
▁गौर	-11.0667
▁कायम	-11.0669
▁divide	-11.0671
old	-11.0673
ँच	-11.0676
▁फेर	-11.0677
▁rapid	-11.0677
रेख	-11.0678
▁qa	-11.0683
▁condemn	-11.0692
▁platform	-11.0692
▁आक्रामक	-11.0692
▁भ्रूण	-11.0692
▁वाजपेयी	-11.0692
▁battery	-11.0692
▁continuous	-11.0692
▁मुद्दा	-11.0692
▁qaeda	-11.0692
▁swami	-11.0692
▁स्थूल	-11.0692
▁कहलाता	-11.0692
▁लम्बी	-11.0692
▁absence	-11.0692
▁गिरावट	-11.0692
▁क्षतिपूर्ति	-11.0692
▁paying	-11.0692
▁सोशल	-11.0694
▁quit	-11.0695
ogen	-11.0695
▁corruption	-11.0695
▁तीसरी	-11.0696
▁vedas	-11.0696
▁upload	-11.0696
▁pip	-11.0697
▁horn	-11.0699
चालित	-11.0702
▁covering	-11.0703
▁मिलियन	-11.0704
▁whenever	-11.0705
▁ढाल	-11.0708
▁छोर	-11.0711
▁सॉ	-11.0711
▁आवृत्ति	-11.0711
▁praise	-11.0712
▁जंग	-11.0712
▁जर्मन	-11.072
▁testing	-11.0725
▁selling	-11.0735
rium	-11.0746
▁wise	-11.0746
▁nec	-11.0747
this	-11.0749
▁प्रत्य	-11.075
▁osteo	-11.0755
tically	-11.0755
ध्द	-11.0755
भूषण	-11.0757
▁मजबूर	-11.0759
▁सतर्क	-11.0759
▁हार्डवेयर	-11.0759
▁serial	-11.0759
▁parameter	-11.076
▁सौदे	-11.0761
▁आधारभूत	-11.0762
शासित	-11.0762
▁append	-11.0763
▁indic	-11.0763
type	-11.0764
▁strict	-11.0765
▁पेज	-11.0767
▁transportation	-11.0776
▁blank	-11.0779
▁शाल	-11.078
▁अप्रति	-11.0783
▁plane	-11.0784
▁deliver	-11.0785
▁प्रबल	-11.079
▁आघात	-11.079
नाशक	-11.0798
▁निपटान	-11.0801
▁ताप	-11.0801
▁वक्ष	-11.0801
▁भरने	-11.0801
▁पहाड़ी	-11.0802
▁logic	-11.0803
▁मानचित्र	-11.0804
asa	-11.0806
पश्चिम	-11.0808
▁esc	-11.0811
▁विद्या	-11.0817
▁launched	-11.0818
▁sala	-11.0819
▁shaped	-11.0823
▁asking	-11.0825
▁devotion	-11.0827
▁approval	-11.0827
▁efficiency	-11.0827
▁somebody	-11.0827
▁क्रोमियम	-11.0827
▁ग्लोबल	-11.0827
▁वार्मिंग	-11.0827
▁कब्जा	-11.0827
▁खगोल	-11.0827
▁alliance	-11.0827
▁चट्टान	-11.0827
▁plot	-11.0827
▁अभिनेता	-11.0827
▁आशय	-11.0827
▁preserve	-11.0827
▁सारांश	-11.0827
▁flood	-11.0828
▁bombing	-11.083
▁laden	-11.0832
ेष्ट	-11.0832
▁पहलू	-11.0832
▁linked	-11.0833
▁प्राणी	-11.0834
▁पोत	-11.0835
▁बालक	-11.0837
▁फंच	-11.0838
▁crown	-11.084
▁ढेर	-11.0842
▁संगठित	-11.0842
india	-11.0843
▁समूहों	-11.0844
▁निपटा	-11.0853
▁मिश्रित	-11.0856
▁mango	-11.0858
▁कृति	-11.0861
▁तुर्क	-11.0861
43	-11.0866
▁आवश्यकताओं	-11.0867
▁किसानों	-11.0867
▁finish	-11.0868
▁सीट	-11.0868
▁दाद	-11.0873
▁pillars	-11.0879
▁मन्त्र	-11.0883
▁ताम	-11.0883
▁transaction	-11.0884
▁क्वा	-11.0886
▁मील	-11.0888
वात	-11.0892
▁eventually	-11.0895
▁बदरूद्दीन	-11.0895
▁विकिपीडियाः	-11.0895
▁व्यावहारिक	-11.0895
▁resort	-11.0895
▁facing	-11.0895
▁graphics	-11.0895
▁alarm	-11.0895
▁resistance	-11.0896
▁सूअर	-11.0897
▁shock	-11.0898
▁supposed	-11.0901
▁सर्विस	-11.0901
▁integrated	-11.0902
▁बजाए	-11.0902
hole	-11.0902
व्रण	-11.0902
15	-11.0902
▁verbal	-11.0903
दाद	-11.0907
▁demo	-11.0908
lai	-11.0908
▁arrived	-11.0909
▁socialist	-11.091
च्छद	-11.0911
ग्राह	-11.0915
क्यू	-11.0918
▁रखती	-11.0919
▁sole	-11.092
धारा	-11.0923
▁processor	-11.0927
▁served	-11.0928
▁मुक्ति	-11.093
▁मध्यस्थ	-11.093
▁bare	-11.0934
▁वध	-11.0934
▁टाल	-11.0936
▁mud	-11.0939
पोष	-11.0943
सिद्ध	-11.0944
▁इज	-11.0945
68	-11.0946
जन्य	-11.0949
fall	-11.0956
▁execution	-11.0963
▁fracture	-11.0963
▁knock	-11.0963
▁membrane	-11.0963
▁neighbor	-11.0963
▁relevant	-11.0963
▁summary	-11.0963
▁क्रेडिट	-11.0963
▁globe	-11.0963
▁saddam	-11.0963
▁त्वरित	-11.0963
▁entries	-11.0963
▁वंचित	-11.0963
▁practical	-11.0963
▁broadcast	-11.0964
▁modified	-11.0964
▁gram	-11.0964
▁zoom	-11.0965
▁सुनवाई	-11.0965
▁larva	-11.0965
▁गुलाम	-11.0966
▁ऋतु	-11.0967
▁हां	-11.0969
▁engineer	-11.0969
▁उपक्रम	-11.0971
▁अमीर	-11.0971
▁विलंब	-11.0975
▁राहत	-11.0976
▁चुप	-11.0976
▁बनायी	-11.0976
▁गाजा	-11.0978
▁ग्राहकों	-11.0979
▁वाइ	-11.098
read	-11.098
print	-11.0981
head	-11.0981
▁ढक	-11.0985
▁रहीं	-11.0986
▁ऐल	-11.0987
▁prof	-11.0988
▁जंगल	-11.0997
▁छोड़े	-11.0997
ोसिस	-11.0999
▁flying	-11.1003
▁शंकर	-11.1003
▁लिखना	-11.1009
▁digit	-11.101
डऋ	-11.1012
▁addresses	-11.1013
▁संकेतक	-11.1013
्वेष	-11.1014
▁सूचक	-11.1022
▁absorb	-11.1032
▁outstanding	-11.1032
▁कूटनीति	-11.1032
▁भाजपा	-11.1032
▁cavity	-11.1032
▁universe	-11.1032
▁भ्रष्टाचार	-11.1032
▁oriented	-11.1032
▁goddess	-11.1032
▁burden	-11.1033
▁warrant	-11.1033
▁पाउंड	-11.1034
▁household	-11.1034
▁आवेदनपत्र	-11.1035
▁remark	-11.1037
▁आँक	-11.1037
▁ट्रि	-11.1038
▁mere	-11.104
▁converted	-11.104
▁bhavan	-11.1041
▁नम्बर	-11.1045
▁सुविधाएं	-11.1046
▁idol	-11.1047
▁drum	-11.1052
मण्डल	-11.1054
▁तू	-11.1055
▁मोर	-11.1061
▁फूट	-11.1061
▁मानो	-11.1071
▁auditor	-11.1072
▁gro	-11.1074
शऋ	-11.1078
▁चोरी	-11.1079
▁engage	-11.108
नुसार	-11.1085
▁chart	-11.1085
▁russia	-11.1087
▁babu	-11.1087
▁provider	-11.1089
शोधन	-11.109
▁victim	-11.1094
▁पिछ	-11.1095
11	-11.1096
▁गंध	-11.11
▁combination	-11.1101
▁declaration	-11.1101
▁enhance	-11.1101
▁exhibit	-11.1101
▁netaji	-11.1101
▁thirty	-11.1101
▁yesterday	-11.1101
▁एजेंसी	-11.1101
▁कतिपय	-11.1101
▁हुसैन	-11.1101
▁fifth	-11.1102
▁दुर्लभ	-11.1102
▁नियंत्रक	-11.1102
▁infrastructure	-11.1102
▁रोबोट	-11.1102
▁आधे	-11.1102
▁vagina	-11.1102
▁shopping	-11.1103
▁1950	-11.1104
▁गिरा	-11.1105
▁sharing	-11.1107
▁देखिए	-11.1109
छेदन	-11.111
▁हू	-11.1111
▁45	-11.1111
▁धूल	-11.1113
ैंट	-11.1115
▁ध्रुव	-11.1118
▁आंकड़ा	-11.1121
▁न्यूज	-11.1121
▁लाई	-11.1123
▁प्रिंट	-11.1125
बैक	-11.1131
▁regulations	-11.1133
▁सोने	-11.1139
▁यानी	-11.1142
▁भावी	-11.1149
▁rash	-11.1149
▁observe	-11.115
space	-11.1153
oil	-11.1153
राष्ट्रीय	-11.1158
24	-11.116
▁तुमने	-11.1162
▁pray	-11.1163
▁सीता	-11.1164
▁दिखाना	-11.1165
▁वरीयता	-11.117
▁coalition	-11.1171
▁prescribed	-11.1171
▁इलाहाबाद	-11.1171
▁प्रोत्साहित	-11.1171
▁बहादुर	-11.1171
▁जाहिर	-11.1171
▁smooth	-11.1171
▁पंजीकृत	-11.1172
▁mutual	-11.1172
▁array	-11.1173
▁humble	-11.1173
sphere	-11.1173
▁verses	-11.1174
▁mortal	-11.1175
▁गोपनीय	-11.1175
▁पौंड	-11.1176
▁पिछला	-11.1178
ख़ाना	-11.1179
ifera	-11.118
▁suggestion	-11.1181
▁offline	-11.1181
▁refused	-11.1188
▁offering	-11.1188
▁realize	-11.1189
▁क्लब	-11.1195
▁अमल	-11.1196
पास	-11.12
▁सकाः	-11.1205
▁नाल	-11.1209
▁जानवर	-11.1215
▁आलेख	-11.1215
zy	-11.1216
८०	-11.1223
esis	-11.1225
प्रेषण	-11.1226
eight	-11.1226
राइड	-11.1227
क्षमता	-11.1233
▁interpret	-11.1237
▁criticism	-11.1242
▁magazine	-11.1242
▁petition	-11.1242
▁vajpayee	-11.1242
▁अमेरिकन	-11.1242
▁हिन्दुओं	-11.1242
▁statistics	-11.1242
▁प्रचालन	-11.1242
▁शानदार	-11.1242
▁computing	-11.1242
▁pulse	-11.1242
▁अमरीकी	-11.1242
▁कैमरा	-11.1242
▁अरुण	-11.1242
▁यथार्थ	-11.1243
▁जापानी	-11.1243
▁dividend	-11.1243
▁layout	-11.1243
▁submitted	-11.1243
▁childhood	-11.1245
▁turk	-11.1246
▁stress	-11.1248
▁पड़ना	-11.1249
▁अधिकारिता	-11.125
▁favor	-11.125
▁नरम	-11.1251
▁neph	-11.1251
▁जाएंगे	-11.1258
▁दिखाएं	-11.1259
▁bc	-11.1259
▁पढ़ाई	-11.1261
▁celebrated	-11.1261
▁hardly	-11.1267
ढे	-11.1268
▁nice	-11.127
▁beach	-11.1271
विद्	-11.1273
▁permissions	-11.1273
▁खां	-11.1274
ऐं	-11.1276
under	-11.1279
र्रा	-11.1281
ाइज़	-11.1287
▁directed	-11.1288
पूर्ति	-11.129
▁प्रविष्ट	-11.1292
cade	-11.1293
श्रम	-11.1299
▁75	-11.1303
▁hydro	-11.1304
{}	-11.1305
▁scientist	-11.1308
▁पागल	-11.1309
▁discipline	-11.1313
▁hanuman	-11.1313
▁passenger	-11.1313
▁अमिताभ	-11.1313
▁स्वामित्व	-11.1313
▁स्टॉक	-11.1313
▁स्वप्न	-11.1313
▁silver	-11.1313
▁कीमियागर	-11.1313
▁बैटरी	-11.1313
▁instant	-11.1315
▁qatar	-11.1315
▁jump	-11.1317
riya	-11.132
▁सहन	-11.1321
▁हाई	-11.1321
▁33	-11.1322
▁गर्व	-11.1324
ocyte	-11.1324
▁फर्क	-11.1325
भद्र	-11.1328
▁बेचने	-11.1332
▁नमक	-11.1333
▁dollars	-11.134
▁grain	-11.1341
टेल	-11.1343
▁कैद	-11.1345
▁उग	-11.1353
with	-11.1355
▁whereas	-11.1359
▁difficulty	-11.136
▁meal	-11.1365
▁shak	-11.1377
▁hence	-11.1381
▁११	-11.1381
मोद	-11.1382
बाज़ी	-11.1383
▁nose	-11.1384
▁employed	-11.1384
▁immigration	-11.1384
▁mohammed	-11.1384
▁suspect	-11.1384
▁निगरानी	-11.1384
▁scroll	-11.1384
▁superior	-11.1384
▁variation	-11.1384
▁belonging	-11.1385
▁असंभव	-11.1385
▁किशोर	-11.1385
▁schema	-11.1385
▁1997	-11.1385
▁हँस	-11.1386
▁bought	-11.1387
▁interval	-11.1388
▁possession	-11.1388
▁हॉल	-11.1389
▁frank	-11.139
▁recording	-11.1391
▁brand	-11.1391
▁किरण	-11.1393
▁बरस	-11.1393
▁pitch	-11.1394
▁core	-11.1395
▁combined	-11.1396
▁नीला	-11.1397
▁चीज़ें	-11.1397
▁नलिका	-11.1399
▁ट्रेड	-11.1402
▁jaya	-11.1402
▁examined	-11.1404
गीर	-11.1405
▁engaged	-11.1407
▁arrangements	-11.1408
▁purana	-11.1412
▁जनक	-11.1417
▁charter	-11.1418
ैक्स	-11.1423
▁बैक	-11.1425
rup	-11.1426
▁environmental	-11.1428
च्छेद	-11.1429
▁gp	-11.1434
▁writ	-11.1435
▁jag	-11.1436
▁mun	-11.1442
हाँ	-11.1444
रक्षित	-11.1454
▁analog	-11.1456
▁audacity	-11.1456
▁concession	-11.1456
▁troops	-11.1456
▁चमत्कार	-11.1456
▁दिसंबर	-11.1456
▁अधिवेशन	-11.1456
▁मुद्रण	-11.1456
▁dutch	-11.1456
▁रोशनी	-11.1456
▁crystal	-11.1456
▁snake	-11.1456
▁कच्चे	-11.1456
▁silent	-11.1457
▁obligation	-11.1459
वर्धक	-11.1459
▁lift	-11.1461
▁खिलफ	-11.1461
▁buying	-11.1463
▁लाना	-11.1464
▁गद्य	-11.1466
▁reverse	-11.1467
▁टूल	-11.1467
▁प्रयोगशाला	-11.1468
त्रा	-11.1469
▁certainly	-11.1473
▁दौरा	-11.1473
▁अस्थिर	-11.1474
▁passion	-11.1475
▁डालना	-11.1475
▁pipe	-11.1477
▁canada	-11.1479
▁knowing	-11.1479
▁सलाहकार	-11.1488
▁निकलना	-11.149
▁स्ल	-11.1491
▁हितों	-11.1492
▁friendly	-11.1495
▁rein	-11.1496
▁toxic	-11.1499
लिपि	-11.1501
▁विकार	-11.1505
▁ईस्ट	-11.1505
▁छः	-11.1506
ख़्त	-11.1512
▁meat	-11.1512
▁कार्यक्रमों	-11.1513
▁emotional	-11.1514
▁immediate	-11.1514
▁plug	-11.1524
▁recognition	-11.1529
▁ritual	-11.1529
▁satellite	-11.1529
▁डिजाइन	-11.1529
▁द्विआधारी	-11.1529
▁cartoon	-11.1529
▁उर्दू	-11.1529
▁लेबनान	-11.1529
▁हज़ार	-11.1529
▁यकीन	-11.1529
▁banyan	-11.153
▁बकाया	-11.153
▁captain	-11.153
▁मुझसे	-11.1531
▁प्रभावशाली	-11.1531
▁स्टाक	-11.1531
▁क्रिस	-11.1533
▁हफ्ते	-11.1537
▁अतिथि	-11.154
action	-11.1541
मोन	-11.1543
ogenic	-11.1548
lish	-11.1549
▁skills	-11.1551
▁कैप	-11.1557
▁भाषाएँ	-11.1557
▁निशान	-11.1558
▁finished	-11.1561
▁रुख	-11.1561
वृति	-11.1563
्बे	-11.1567
▁वाहक	-11.1572
संधान	-11.1573
hap	-11.1575
▁रच	-11.1577
lusion	-11.1577
▁oh	-11.158
▁बताए	-11.1584
वुड	-11.1585
▁haz	-11.1587
▁sati	-11.1589
cide	-11.1589
युद्ध	-11.1591
▁leu	-11.1591
▁rabi	-11.1592
▁forty	-11.1599
ादेश	-11.1601
▁अब्दुल	-11.1602
▁inflammation	-11.1602
▁prevail	-11.1602
▁तालिबान	-11.1602
▁न्यूयार्क	-11.1602
▁स्त्रोत	-11.1602
▁distress	-11.1602
▁खिसका	-11.1602
▁कारोबार	-11.1602
▁brown	-11.1602
▁binding	-11.1602
▁gtk	-11.1602
▁कौशल	-11.1602
▁दमन	-11.1605
▁देखता	-11.1608
▁माइ	-11.161
▁वर्मा	-11.1611
▁कुंजीपटल	-11.1612
▁प्रवर्तन	-11.1612
सिस	-11.1614
चक्र	-11.1615
mail	-11.1616
▁निकास	-11.1618
▁चलना	-11.1618
claim	-11.1623
▁alien	-11.1625
▁दायर	-11.163
▁cellular	-11.1632
▁चरम	-11.164
▁neo	-11.165
क़्स	-11.1652
▁corn	-11.1656
stream	-11.1663
▁mari	-11.1666
▁tight	-11.1668
▁चढ़ा	-11.1672
aba	-11.1672
long	-11.1673
▁बनाती	-11.1673
फिल	-11.1674
▁accomplish	-11.1675
▁communities	-11.1675
▁continent	-11.1675
▁legislation	-11.1675
▁unexpected	-11.1675
▁अस्पष्ट	-11.1675
▁तृतीय	-11.1675
▁थोड़े	-11.1675
▁गाँव	-11.1675
▁fold	-11.1676
▁guess	-11.1677
डेटा	-11.1677
चौ	-11.1677
▁टाइम्स	-11.1678
▁liver	-11.1678
▁elder	-11.1681
▁अस्	-11.1682
berg	-11.1683
▁bah	-11.1684
▁proud	-11.1686
▁followers	-11.1687
▁एशियाई	-11.1687
ष्य	-11.1688
▁सेटिंग्स	-11.1689
▁हौ	-11.1692
▁native	-11.1693
▁जूट	-11.1693
संघ	-11.1697
▁जादू	-11.1697
▁सुविधाओं	-11.1697
▁पर्ण	-11.1699
▁slowly	-11.1705
▁वजन	-11.1712
▁regularly	-11.1712
flow	-11.1715
▁turning	-11.1715
cil	-11.1721
▁आभासी	-11.1723
▁nest	-11.1727
▁बीत	-11.1736
ग्राही	-11.1738
▁मानस	-11.1738
निवेश	-11.1739
▁बांड	-11.1742
▁कॉम	-11.1744
▁chronic	-11.1749
▁compound	-11.1749
▁conservative	-11.1749
▁conspiracy	-11.1749
▁convince	-11.1749
▁jordan	-11.1749
▁quantity	-11.1749
▁taught	-11.1749
▁twice	-11.1749
▁अप्रत्याशित	-11.1749
▁उत्तरदायित्व	-11.1749
▁समज्ह	-11.1749
▁wheat	-11.1749
▁डेविड	-11.1749
▁alphabet	-11.1749
▁सबूत	-11.1749
▁सिद्धांतों	-11.175
▁निष्ठा	-11.1751
▁inspection	-11.1751
▁smile	-11.1751
▁लाभांश	-11.1752
▁आकर्षण	-11.1754
प्रसू	-11.1754
▁उत्तराधिकार	-11.1756
than	-11.1757
▁विपक्ष	-11.1758
▁कहां	-11.1759
▁transactions	-11.1761
▁नर्स	-11.1762
▁धूम	-11.1763
vya	-11.1765
band	-11.1767
▁सेकेंड	-11.1779
▁अपराधी	-11.1783
▁भाग्य	-11.1788
▁संगत	-11.1791
▁worm	-11.1793
▁बोलने	-11.1795
uz	-11.1798
▁स्राव	-11.1799
सुर	-11.1801
▁यहीं	-11.1806
▁योजनाओं	-11.1809
▁कहें	-11.181
▁तरंग	-11.181
▁सुल	-11.1811
▁possess	-11.182
▁immortal	-11.1824
▁lebanon	-11.1824
▁merchant	-11.1824
▁neighbour	-11.1824
▁pocket	-11.1824
▁worried	-11.1824
▁क्षैतिज	-11.1824
▁पुर्तगाल	-11.1824
▁अखबार	-11.1824
▁abdul	-11.1824
▁वाकई	-11.1824
▁chosen	-11.1824
▁कमेटी	-11.1824
▁उग्रवादी	-11.1826
▁निराशा	-11.1826
▁घंटा	-11.1826
▁रोचक	-11.1827
▁submit	-11.1828
▁feeding	-11.1829
▁तमिल	-11.1829
▁अभिकल्प	-11.1829
पन्न	-11.1829
▁मिलान	-11.183
▁ऊँचाई	-11.183
▁wire	-11.1833
म्मा	-11.1833
▁रद्दी	-11.1835
▁स्थितियों	-11.1835
▁grace	-11.1836
▁एकत्रित	-11.1837
रक्तता	-11.1838
▁जरा	-11.1842
▁कतार	-11.1844
▁helpful	-11.1845
▁संग्रहण	-11.1846
िस्म	-11.1848
▁reset	-11.1849
▁electrical	-11.1855
▁कहती	-11.1856
90	-11.1857
▁चोर	-11.1861
▁प्रसन्न	-11.1863
leg	-11.1864
▁डालें	-11.1866
▁desired	-11.1869
▁succeed	-11.1869
▁आंत	-11.1875
ela	-11.1875
algia	-11.1877
▁scholars	-11.1879
▁recommended	-11.188
▁कैन	-11.1881
▁indica	-11.1882
▁उसको	-11.1883
वेयर	-11.1884
ांत्र	-11.1886
rou	-11.1891
deo	-11.1892
▁bai	-11.1896
▁totally	-11.1898
▁lecture	-11.1899
▁vegetable	-11.1899
▁खूबसूरत	-11.1899
▁मॉड्यूल	-11.1899
▁वांछित	-11.1899
▁composed	-11.1899
▁obstina	-11.1899
▁विक्रय	-11.1899
▁इन्होंने	-11.1899
▁album	-11.1899
▁beetle	-11.19
▁हल्का	-11.19
▁अग्रणी	-11.1901
▁वार्ता	-11.1901
▁आँकड़ा	-11.1901
▁theatre	-11.1902
▁punishment	-11.1902
▁खुर	-11.1903
▁समग्र	-11.1905
▁अंततः	-11.1905
file	-11.1906
▁hindustan	-11.1907
▁नींद	-11.1907
ग्राम	-11.1908
▁checking	-11.1909
▁झेल	-11.1911
▁चालक	-11.1911
्रेट	-11.1912
▁फर्म	-11.1913
▁प्रेषण	-11.1916
▁अन्यथा	-11.1916
निधि	-11.1918
▁साज	-11.192
▁lax	-11.1922
▁ego	-11.193
far	-11.1931
▁आँख	-11.1931
▁commissioner	-11.1931
▁रखकर	-11.1932
▁पर्यटक	-11.1937
▁tough	-11.1949
संवेद	-11.1951
▁सैनिकों	-11.1952
▁thin	-11.1953
▁max	-11.1953
▁dear	-11.196
जीवन	-11.1962
pet	-11.1964
rush	-11.1965
▁बोलना	-11.197
क्षिप्त	-11.1971
उद	-11.1974
▁bureau	-11.1975
▁bangladesh	-11.1975
▁everybody	-11.1975
▁nematode	-11.1975
▁भौगोलिक	-11.1975
▁इसीलिए	-11.1975
▁डिग्री	-11.1975
▁स्मारक	-11.1975
▁assured	-11.1975
▁चेतना	-11.1975
▁२००८	-11.1976
▁अँग	-11.1978
▁शार	-11.198
▁implementation	-11.1981
bhai	-11.1982
▁inspired	-11.1983
▁victims	-11.1983
▁eating	-11.1985
▁jute	-11.1987
▁वृष	-11.1991
▁अधिकृत	-11.1997
पीठ	-11.2
phone	-11.2
▁वृद्ध	-11.2001
▁शुभ	-11.2003
ux	-11.2005
▁आपत्ति	-11.2007
ंतर	-11.2008
▁कुशल	-11.2012
▁suffered	-11.2018
▁टिकट	-11.2021
other	-11.2021
▁पट्ट	-11.2021
फलक	-11.2023
url	-11.2023
▁marine	-11.2028
▁मित्रों	-11.2028
▁settle	-11.2029
▁पद्म	-11.2039
▁मामल	-11.2043
▁विरासत	-11.2051
▁इंस्टॉल	-11.2051
▁व्यायाम	-11.2051
▁survive	-11.2051
▁परिचालन	-11.2051
▁exceed	-11.2051
▁सम्भव	-11.2053
▁कोयला	-11.2053
▁copies	-11.2053
ambi	-11.2057
मेन्ट	-11.2058
▁कंध	-11.2058
▁measurement	-11.2058
▁equat	-11.2059
▁बौद्धिक	-11.2059
▁अभियोग	-11.2061
▁batch	-11.2063
▁बंधक	-11.2065
▁acquired	-11.2069
▁distinguished	-11.2072
▁अपार	-11.2073
▁tank	-11.2074
मिजाज	-11.2075
▁printed	-11.2075
वाणी	-11.2078
ऋद्द	-11.2079
▁tall	-11.2081
▁अस्त्र	-11.2081
▁mixed	-11.2089
▁equally	-11.209
▁tale	-11.2092
bred	-11.2093
▁छेद	-11.2094
▁specially	-11.2096
▁कार्यकारी	-11.2097
▁rejected	-11.2098
▁repeat	-11.2098
▁pixels	-11.21
▁दिखता	-11.2101
▁फॉर	-11.2104
▁केंद्रित	-11.211
▁द्रव्य	-11.2111
veda	-11.2111
▁गिल	-11.2114
vara	-11.2116
▁moti	-11.2116
lateral	-11.212
▁बेकार	-11.2126
▁1947	-11.2128
▁alchemist	-11.2128
▁bachchan	-11.2128
▁citrus	-11.2128
▁cooperation	-11.2128
▁लोकतांत्रिक	-11.2128
▁द्रुत	-11.2128
▁tiger	-11.2128
▁रेत	-11.213
▁talent	-11.2131
▁ख़रीद	-11.2132
▁00	-11.2134
▁surya	-11.2134
▁bench	-11.2138
▁एकीकृत	-11.2139
▁चाहेंगे	-11.214
▁recognised	-11.2143
▁निस्	-11.2143
▁कऋ	-11.2146
▁mantra	-11.2149
▁islamism	-11.2151
चर्म	-11.2158
▁इंकार	-11.2159
▁अहमद	-11.2161
▁यात्री	-11.2163
▁सिख	-11.2169
▁construct	-11.2171
▁साम्राज़्यवाद	-11.2175
▁gap	-11.2182
▁बोझ	-11.2188
▁रोका	-11.219
ड़ै	-11.2195
▁पुनर	-11.2195
य्या	-11.2195
▁withdraw	-11.2197
पर्व	-11.2202
फोन	-11.2202
ायत	-11.2203
▁complicated	-11.2206
▁municipal	-11.2206
▁pollutant	-11.2206
▁पूर्वावलोकन	-11.2206
▁शृंखला	-11.2206
▁outlook	-11.2206
▁कार्टून	-11.2206
▁सिन्धु	-11.2206
▁stood	-11.2206
▁संकलन	-11.2206
▁कचरा	-11.2206
विमर्श	-11.2206
▁निद्रा	-11.2206
▁स्वरयंत्र	-11.2206
▁सारणी	-11.2207
▁accommodation	-11.2207
▁partnership	-11.2207
▁precious	-11.221
▁endorse	-11.2211
▁achievement	-11.2211
▁टाटा	-11.2213
▁निकाय	-11.2213
▁james	-11.2215
▁रीति	-11.2215
▁सीधी	-11.2216
▁nan	-11.2217
▁लगेगा	-11.2218
▁intended	-11.2219
▁chip	-11.222
▁overall	-11.222
▁चूक	-11.2222
▁जिनसे	-11.2225
▁गोर	-11.2226
▁दुसर	-11.2226
दण्ड	-11.2228
वंत	-11.223
▁सकल	-11.2232
▁corporate	-11.2235
▁lens	-11.2235
▁pakistani	-11.2236
▁जुल	-11.2237
▁math	-11.2238
▁पिन	-11.2241
volu	-11.2246
▁पतन	-11.2246
71	-11.2248
▁अंग्रेज़ी	-11.2249
▁इस्लामवाद	-11.2252
▁translate	-11.2262
▁obvious	-11.2269
विन्यास	-11.2276
▁prisoner	-11.2277
▁evident	-11.2284
▁exposure	-11.2284
▁आन्दोलन	-11.2284
▁किलोमीटर	-11.2284
▁पब्लिक	-11.2284
▁प्रोफेसर	-11.2284
▁विक्रेता	-11.2284
▁आकर्षक	-11.2284
▁स्मरण	-11.2284
▁पसंदीदा	-11.2284
▁monarch	-11.2284
▁spark	-11.2284
▁licence	-11.2284
▁याचिका	-11.2284
▁सूरदास	-11.2284
▁भविष्यवाणी	-11.2284
▁1992	-11.2285
▁समाहित	-11.2285
▁climb	-11.2285
▁wireless	-11.2286
▁प्लगिन	-11.2286
▁संभवतः	-11.2288
▁एल्गोरिथ्म	-11.2296
महा	-11.2298
व्रत	-11.2298
▁tim	-11.23
gram	-11.2304
▁रानी	-11.2311
मोचन	-11.2311
▁बनाम	-11.2311
▁gum	-11.2312
▁आँखों	-11.2323
▁उछ	-11.2325
▁फीड	-11.2326
ान्तरण	-11.2328
▁introduc	-11.2331
▁दीवारों	-11.2333
▁रति	-11.2338
▁उपज	-11.2343
▁largely	-11.2344
▁compact	-11.235
▁victor	-11.2351
narayan	-11.2354
field	-11.2355
▁vice	-11.2357
▁functional	-11.2358
हें	-11.2359
▁इंजीनियर	-11.2359
▁relat	-11.236
▁arbitra	-11.2361
▁maxim	-11.2362
▁दिसम्बर	-11.2362
▁रिजर्व	-11.2362
▁फिल्टर	-11.2362
▁behalf	-11.2362
▁buffer	-11.2362
▁राष्ट्रवाद	-11.2363
▁lending	-11.2363
▁गिनती	-11.2363
▁अशोक	-11.2363
▁resign	-11.2363
▁मेहनत	-11.2363
▁virgin	-11.2363
▁सम्पन्न	-11.2363
▁imperialism	-11.2364
▁इन्द्र	-11.2364
▁सच्चाई	-11.2364
▁छेड़	-11.2365
▁recall	-11.2366
▁enforcement	-11.2366
▁उपरांत	-11.2366
▁रेशम	-11.2366
▁आँखें	-11.2368
▁interpretation	-11.2368
mission	-11.2369
आप	-11.238
▁बजे	-11.2381
▁व्यक्तित्व	-11.2385
▁उठाया	-11.2388
▁permanently	-11.2389
▁shore	-11.2392
▁गयीं	-11.2397
बुक	-11.2399
▁revealed	-11.2405
▁tie	-11.2406
▁crossing	-11.2411
▁बाँट	-11.2412
▁तेज़	-11.2415
▁द्वीपों	-11.2423
▁examine	-11.2423
सहाय	-11.2423
▁(“	-11.2425
ञ	-11.2435
▁पृ	-11.2436
▁punish	-11.2438
▁enemies	-11.2442
▁possibility	-11.2442
▁saffron	-11.2442
▁voluntary	-11.2442
▁निरीक्षक	-11.2442
▁पूछताछ	-11.2442
▁चक्कर	-11.2442
▁इटली	-11.2442
▁शुरूआत	-11.2442
▁resist	-11.2443
▁प्लेयर	-11.2444
▁tribal	-11.2444
▁सुदूर	-11.2444
▁checked	-11.2444
▁adverse	-11.2444
▁उपभोग	-11.2444
▁मोर्च	-11.2444
▁riot	-11.2447
▁tourism	-11.2447
▁नोटिस	-11.2449
▁अनू	-11.245
▁मासिक	-11.2453
▁भव्य	-11.2453
▁blog	-11.2454
▁darkness	-11.2455
▁opposed	-11.2456
▁अपेक्षाकृत	-11.2459
▁पत्रकार	-11.2464
▁sought	-11.2464
▁hub	-11.2471
▁धमनी	-11.2478
▁नारायण	-11.2482
▁मानने	-11.2485
hri	-11.2486
पर्ण	-11.2491
▁पलट	-11.2492
▁खोजें	-11.2492
▁जॉ	-11.2497
▁attacked	-11.2499
▁डालने	-11.2508
▁चंद	-11.252
▁असंगत	-11.252
▁preparation	-11.2522
▁कटौती	-11.2522
▁सत्यापित	-11.2522
▁उमीद	-11.2522
▁मुद्दों	-11.2522
▁उपाधि	-11.2522
रज्जु	-11.2522
▁क्लिप	-11.2522
▁निष्पक्ष	-11.2522
▁1991	-11.2523
▁admission	-11.2523
टेड	-11.2523
▁अवरुद्ध	-11.2524
▁odd	-11.2524
▁dawn	-11.2524
guidelines	-11.2525
▁stun	-11.2525
▁टैक्स	-11.2526
▁बरत	-11.2526
्दाम	-11.2527
कोण	-11.2528
▁समर्थ	-11.2532
▁अंगुल	-11.2532
▁फ़ोटो	-11.2532
▁entrepreneur	-11.2534
▁जादा	-11.2536
▁fate	-11.2537
▁affection	-11.2537
▁कटु	-11.2538
▁भावनाओं	-11.2541
▁curcu	-11.2541
▁होंगी	-11.2544
▁politicians	-11.2544
▁मोल	-11.2547
▁सुन्दर	-11.255
▁pace	-11.2551
▁छोड़ना	-11.2556
▁फ्रे	-11.2557
▁modest	-11.2558
▁दण्ड	-11.2559
▁restrict	-11.2573
iety	-11.2577
▁hat	-11.2579
▁associate	-11.2581
▁नौकर	-11.2583
▁devil	-11.2586
▁deter	-11.2587
▁फ़र्	-11.259
▁दशकों	-11.259
▁detail	-11.2591
▁म्यू	-11.2592
▁३०	-11.2592
▁पढ़ना	-11.2593
spoken	-11.2597
▁corrupt	-11.2598
▁asset	-11.26
क्रो	-11.2602
▁aircraft	-11.2602
▁amitabh	-11.2602
▁asparagus	-11.2602
▁registration	-11.2602
▁stretch	-11.2602
▁पुरूष	-11.2602
▁संदिग्ध	-11.2602
▁सहानुभूति	-11.2602
▁मेजबान	-11.2602
▁स्थानांतरित	-11.2602
▁कृषक	-11.2602
▁अनियमित	-11.2602
▁महाराजा	-11.2602
▁खनिज	-11.2602
▁श्लेष्म	-11.2603
▁सूत्रकृमि	-11.2603
▁गले	-11.2603
▁श्रद्धा	-11.2603
▁महासागर	-11.2603
▁biological	-11.2605
▁संग्राम	-11.2606
▁संवर्धन	-11.2607
▁gradually	-11.2607
▁mask	-11.2608
amba	-11.2609
▁plus	-11.261
▁bold	-11.261
▁मक्का	-11.2614
▁spoken	-11.2618
▁raid	-11.2618
▁लटक	-11.2618
▁organized	-11.2621
▁अवतार	-11.2622
▁उपयोगिता	-11.2622
▁scholar	-11.2624
▁रिहा	-11.2634
▁इंद्र	-11.2636
क्षम	-11.2636
▁डु	-11.265
▁anger	-11.2651
▁रेख	-11.2651
वेग	-11.2655
▁लक्ष	-11.2657
येंगे	-11.2657
▁detected	-11.266
कम्प	-11.2662
▁indirect	-11.2665
▁आदर	-11.2665
▁मजदूरी	-11.2666
▁define	-11.2667
▁अंब	-11.267
▁dan	-11.2671
ground	-11.2673
केन्द्र	-11.2676
▁mast	-11.2677
▁homo	-11.2679
▁consolidat	-11.2684
▁deficiency	-11.2684
▁hussein	-11.2684
▁palestine	-11.2684
▁अक्तूबर	-11.2684
▁अवहेलना	-11.2684
▁पारंपरिक	-11.2684
▁मुयमंत्र	-11.2684
▁समुचित	-11.2684
▁exclusive	-11.2684
▁guidance	-11.2684
▁infinite	-11.2684
▁fabric	-11.2684
▁indonesia	-11.2684
▁ग्रसनी	-11.2684
▁जवाहरलाल	-11.2684
▁रूपये	-11.2684
▁surgical	-11.2684
लैंगिक	-11.2684
▁पाठ्यक्रम	-11.2684
▁वर्तनी	-11.2685
▁सकने	-11.2685
▁कारावास	-11.2687
▁involves	-11.2688
▁शान्ति	-11.2689
▁रक़्त	-11.269
▁अर्थशास्त्र	-11.269
▁विशेषाधिकार	-11.2692
▁subhash	-11.2693
▁दिखायें	-11.2695
▁ख़ान	-11.2698
▁requested	-11.2698
▁kun	-11.2702
▁cable	-11.2704
▁organic	-11.2705
▁रहेंगे	-11.2706
चंद्र	-11.2706
65	-11.271
new	-11.2711
▁देगी	-11.2717
▁महिल	-11.272
▁republican	-11.272
▁incomplete	-11.272
बन्धु	-11.2721
▁oct	-11.2725
hab	-11.2729
▁alive	-11.273
each	-11.2732
▁65	-11.2735
▁नकद	-11.2741
सीसी	-11.2746
▁हथियारों	-11.2755
▁रोड	-11.2758
बुद्धि	-11.2762
▁खट	-11.2764
▁लॉक	-11.2765
▁compromise	-11.2766
▁oxygen	-11.2766
▁अयोध्या	-11.2766
▁आशंका	-11.2766
▁ह्रास	-11.2766
▁सिनेमा	-11.2766
▁segment	-11.2766
▁gentle	-11.2766
▁1930	-11.2768
▁residential	-11.2768
▁निबट	-11.2769
▁२५	-11.2769
२००	-11.277
सूत्र	-11.2771
▁इकट्ठा	-11.2772
▁consent	-11.2773
▁कॉपी	-11.2773
▁चमड़	-11.2776
▁equality	-11.2778
▁रौ	-11.2779
liness	-11.2779
▁चार्ज	-11.2783
▁rapidly	-11.2784
▁assigned	-11.2784
▁floating	-11.2787
▁sec	-11.2787
▁वामपंथी	-11.2788
▁तीर	-11.2791
▁अघ	-11.2791
▁कुट	-11.281
▁panda	-11.2813
▁attach	-11.2818
▁व्यास	-11.2823
▁संवेदना	-11.2823
▁यानि	-11.2828
▁blame	-11.283
▁मश	-11.2831
▁वेस्ट	-11.2836
पुच्छ	-11.284
▁डै	-11.2847
▁explanation	-11.2848
▁intestine	-11.2848
▁monument	-11.2848
▁neglect	-11.2848
▁ourselves	-11.2848
▁removal	-11.2848
▁territories	-11.2848
▁इंग़्लैंड	-11.2848
▁खुफिया	-11.2848
▁बृहत	-11.2848
▁deputy	-11.2848
▁abroad	-11.2848
▁उत्सव	-11.2848
▁साँस	-11.2848
▁अपडेट	-11.2848
▁तमाम	-11.2848
▁outcome	-11.2848
▁madras	-11.2849
▁कट्टर	-11.2849
▁penetrati	-11.2849
▁mineral	-11.2849
▁चेहरा	-11.2849
▁query	-11.285
▁१३	-11.2852
▁लोकल	-11.2852
▁बुद्धिमान	-11.2852
▁मुख्यालय	-11.2853
▁अवसाद	-11.2854
▁परिचित	-11.2855
▁labor	-11.2858
▁पैरा	-11.2858
▁salary	-11.2859
▁frequently	-11.286
▁equi	-11.2861
▁अर्द्ध	-11.2861
जुल	-11.2862
ाध्यक्ष	-11.2862
▁विचित्र	-11.2863
▁प्रतिबंधित	-11.2866
▁भ्रमण	-11.2866
▁pillar	-11.2868
ाँक	-11.2869
▁लगना	-11.2874
▁चीज़ों	-11.2875
▁abuse	-11.2876
▁vein	-11.2877
▁bowl	-11.2877
▁देयता	-11.288
▁चित्त	-11.2882
योजित	-11.2885
▁नाव	-11.289
98	-11.2898
हरण	-11.29
▁स्क्रिप्ट	-11.2901
▁comb	-11.2902
▁रोमन	-11.2902
hari	-11.2905
▁collected	-11.2907
▁stem	-11.2908
▁पराग	-11.291
▁listening	-11.2913
▁pest	-11.2916
▁लक्षणों	-11.2927
▁enforce	-11.2928
▁courage	-11.2929
▁dedicated	-11.2932
▁diplomacy	-11.2932
▁fifty	-11.2932
▁stupid	-11.2932
▁प्राधिकरण	-11.2932
▁मंत्रिपरिषद	-11.2932
▁www	-11.2932
▁depth	-11.2932
▁ornament	-11.2932
▁मादक	-11.2932
▁mongol	-11.2932
▁बैकअप	-11.2932
▁तारामंडल	-11.2932
▁शुक्राणु	-11.2933
▁आश्चर्यजनक	-11.2933
▁1989	-11.2933
▁जटिलता	-11.2933
▁अणु	-11.2933
▁2010	-11.2933
▁अनुशासन	-11.2934
▁sweat	-11.2934
▁शिविर	-11.2935
विच	-11.2935
▁परंपरागत	-11.2935
▁rush	-11.2936
▁trace	-11.2936
▁basically	-11.2937
▁collective	-11.2937
▁renew	-11.2937
▁जातियों	-11.2941
▁spite	-11.2944
▁राह	-11.2945
gha	-11.2955
▁सोचता	-11.2966
▁आयाम	-11.2967
▁निरस्त	-11.2968
icular	-11.2968
error	-11.2973
95	-11.2974
▁निः	-11.2975
▁36	-11.2978
▁scope	-11.298
ract	-11.2981
▁जिम्मेदारी	-11.2984
▁करोड़े	-11.2987
▁अस्वीकृत	-11.3
▁भक्ति	-11.3001
uli	-11.3002
▁लीग	-11.3005
▁maid	-11.301
विद	-11.301
▁गौ	-11.3013
व्यवस्था	-11.3013
responsibilities	-11.3016
▁easier	-11.3016
▁headquarter	-11.3016
▁judiciary	-11.3016
▁आध्यात्मिक	-11.3016
▁न्यायपालिका	-11.3016
▁सौंदर्य	-11.3016
▁हिंदुओं	-11.3016
▁literary	-11.3016
▁tomorrow	-11.3016
▁mandatory	-11.3016
▁pepper	-11.3016
▁shelter	-11.3016
▁भयानक	-11.3016
▁अकेला	-11.3016
▁allahabad	-11.3016
▁शल्यक्रिया	-11.3016
▁नवम्बर	-11.3017
▁ticket	-11.3017
▁1970	-11.3017
▁merit	-11.3018
▁वृहत	-11.3018
▁cattle	-11.3019
▁मंड	-11.3021
▁देखिये	-11.3021
▁pump	-11.3023
▁प्रतिवर्ष	-11.3023
▁शर्तें	-11.3025
▁presidential	-11.3029
▁पशुओं	-11.3029
97	-11.303
▁slide	-11.3038
▁मोटे	-11.3038
▁सम्मानित	-11.3045
iform	-11.3053
▁मुड़	-11.3054
भंग	-11.3061
▁बढ़ता	-11.3065
▁बल्लेबाजी	-11.3066
▁बचे	-11.3072
ometer	-11.3073
▁shari	-11.3075
मेह	-11.3075
▁नॉर	-11.3076
▁manufacturer	-11.3077
लोप	-11.3082
▁वाय	-11.3086
▁चलचित्र	-11.3087
व्यू	-11.3088
ल्लाह	-11.3089
▁वाणिज्य	-11.3094
▁टुकड	-11.3095
गुआ	-11.3095
खड़	-11.3096
हस्त	-11.3097
संबंधी	-11.3099
▁रहेगी	-11.31
▁ayodhya	-11.31
▁encoding	-11.31
▁उबुन्टू	-11.31
▁प्रतिस्पर्धा	-11.31
▁liberation	-11.31
▁pretty	-11.31
▁अनुसरण	-11.31
▁दोबारा	-11.3101
▁alleged	-11.3101
कण्ठ	-11.3101
▁पिच	-11.3101
▁1948	-11.3102
▁दैव	-11.3102
▁बदलना	-11.3103
▁व्याकरण	-11.3103
▁धारक	-11.3105
▁तंतु	-11.3105
tail	-11.3107
▁फिलीस्तीनियों	-11.3109
▁lion	-11.3112
▁प्रतिबन्ध	-11.3113
▁ताक	-11.3113
▁दूरभाष	-11.3115
▁कोशिकाएं	-11.3116
▁नतीजा	-11.3117
स्पेस	-11.3119
▁considerable	-11.3119
▁anyway	-11.3123
play	-11.3124
▁आगमन	-11.3127
▁cough	-11.3132
▁idle	-11.3133
मैं	-11.3142
▁producer	-11.3145
born	-11.3145
▁historic	-11.3145
migr	-11.3153
▁आपात	-11.3153
कथा	-11.3154
▁जंगली	-11.3154
▁mini	-11.3158
▁ढांच	-11.3162
▁लौटा	-11.3163
roid	-11.3166
▁exam	-11.3167
▁puran	-11.3178
▁पर्यवेक्ष	-11.3182
स्फीति	-11.3185
▁assault	-11.3186
▁servant	-11.3186
▁surplus	-11.3186
▁एजेंट	-11.3186
▁नजदीक	-11.3186
▁फायदा	-11.3186
▁मराठी	-11.3186
▁नकारात्मक	-11.3186
▁parasite	-11.3186
▁monkey	-11.3187
▁मृग	-11.3187
▁2011	-11.3187
▁मास्टर	-11.3187
▁allocation	-11.3187
▁नवजात	-11.3188
प्रेरक	-11.3188
▁पीने	-11.3189
▁planned	-11.319
▁excessive	-11.319
▁harmful	-11.3191
▁चिल्ला	-11.3192
▁विवश	-11.3195
▁दन्त	-11.3195
▁judgement	-11.3196
▁mood	-11.3198
▁specialist	-11.3198
▁tower	-11.32
▁sunni	-11.32
▁संयोग	-11.3202
▁ignored	-11.3207
▁masses	-11.3208
▁आलेखी	-11.3209
▁preference	-11.3213
▁paste	-11.3215
graph	-11.322
डू	-11.3223
▁barb	-11.3225
▁निरपेक्ष	-11.3234
▁चांद	-11.3238
▁अनुमत	-11.324
map	-11.3241
▁presentation	-11.3245
फॉर्म	-11.3246
▁invite	-11.3251
▁अवस्थित	-11.3252
▁जगत	-11.3259
▁उगा	-11.326
▁छोड़ने	-11.3266
▁pointer	-11.3267
कृष्ण	-11.3272
▁scatter	-11.3272
▁administer	-11.3272
▁descend	-11.3272
▁peripheral	-11.3272
▁strategic	-11.3272
▁turpentine	-11.3272
▁twelve	-11.3272
▁दार्शनिक	-11.3272
▁लक्ष्मण	-11.3272
▁सांप्रदायिक	-11.3272
▁precise	-11.3272
▁smoking	-11.3272
▁disaster	-11.3272
▁craft	-11.3272
▁जंतु	-11.3272
▁smell	-11.3272
शुल्क	-11.3272
▁absent	-11.3272
▁operative	-11.3273
▁प्रभा	-11.3273
▁पीड़क	-11.3273
▁earnings	-11.3273
▁समूच	-11.3274
▁चलाना	-11.3274
लेक्स	-11.3275
▁anywhere	-11.3276
▁halt	-11.3277
▁taste	-11.3278
▁जमानत	-11.3278
▁fancy	-11.3278
▁amend	-11.3279
▁वऋ	-11.3279
▁खाड़ी	-11.328
▁समापन	-11.3284
▁जगा	-11.329
▁shame	-11.3292
▁दर्जा	-11.3294
▁treaty	-11.3296
sagar	-11.3298
गणित	-11.3298
▁apprehensi	-11.3302
▁तंग	-11.3305
्था	-11.3308
सम्मत	-11.3309
train	-11.3315
▁implemented	-11.3315
▁समाजवादी	-11.3317
▁प्रवास	-11.3321
▁calm	-11.3325
र्इ	-11.3326
▁gear	-11.3327
▁goat	-11.3332
16	-11.3337
शाखाओं	-11.3342
version	-11.3343
▁optic	-11.3348
▁faster	-11.3352
▁convict	-11.3355
▁लौ	-11.3356
▁79	-11.3357
▁कॉन्फ़िगर	-11.3358
▁enquiry	-11.3359
▁mercury	-11.3359
▁नियोक्ता	-11.3359
▁सॉफ़्टवेयर	-11.3359
▁स्नातक	-11.3359
▁worst	-11.3359
▁जेम्स	-11.3359
▁प्रतिष्ठित	-11.3359
▁स्तम्भ	-11.3359
▁खूब	-11.3359
▁vocal	-11.336
▁अतीत	-11.336
▁gallery	-11.336
▁statue	-11.336
▁उदासीन	-11.336
▁प्रदत्त	-11.3363
▁निभाई	-11.3367
मूर्ति	-11.3367
डऋए	-11.3368
▁textile	-11.3369
▁प्रक्षेप	-11.3372
▁suck	-11.3373
▁असीम	-11.3373
मिज़ाज	-11.3373
▁बढ़ावा	-11.3373
▁saha	-11.3374
▁advised	-11.3375
▁अपूर्ण	-11.3381
▁indicator	-11.3384
▁छप	-11.3386
▁सरदार	-11.3388
▁dip	-11.3388
▁स्वाद	-11.3393
▁पावर	-11.3395
एनए	-11.34
▁replaced	-11.3401
▁remind	-11.3403
▁discussed	-11.3407
▁informed	-11.3407
▁fulfill	-11.3408
कंठ	-11.3408
▁विद्वानों	-11.3412
▁norm	-11.3412
▁pose	-11.3427
▁lateral	-11.3431
▁हेल	-11.3431
▁obstruct	-11.3443
rome	-11.3444
▁caught	-11.3447
▁concentrate	-11.3447
▁extensive	-11.3447
▁financing	-11.3447
▁freight	-11.3447
▁prosecution	-11.3447
▁swollen	-11.3447
▁प्रोफाइल	-11.3447
▁श्रीलंका	-11.3447
▁सख्त	-11.3447
▁प्रशांत	-11.3447
▁मंगोल	-11.3447
▁slightly	-11.3447
struck	-11.3447
▁महाद्वीप	-11.3448
▁modify	-11.3448
▁intercourse	-11.3448
▁तैनात	-11.3448
▁2012	-11.3448
▁zero	-11.3448
▁copper	-11.3448
चिह्न	-11.3449
व्यवहार	-11.3449
▁भरपूर	-11.3449
▁अपहरण	-11.3449
▁initiative	-11.3449
▁अनुपालन	-11.3449
ान्वित	-11.3451
▁andaman	-11.3452
▁raising	-11.3452
▁remarkable	-11.3452
▁sikh	-11.3453
▁चिपका	-11.3454
▁attraction	-11.3455
▁लिखत	-11.3455
▁रात्रि	-11.3455
▁खपत	-11.3457
▁उभार	-11.3459
▁प्रदाता	-11.3461
▁बौ	-11.3461
▁prem	-11.3463
▁syrian	-11.3463
▁लड़का	-11.3465
▁connecting	-11.348
▁पण्य	-11.3483
cular	-11.3484
ॉक्स	-11.3487
jar	-11.3488
▁प्रतिरूप	-11.3489
▁मर्द	-11.3491
▁माफ	-11.3499
▁lame	-11.3501
▁प्राधिकारी	-11.3507
face	-11.3507
▁मूस	-11.3511
वायर	-11.3513
▁sew	-11.3516
▁कृमि	-11.3517
lysis	-11.3528
23	-11.3529
▁circular	-11.3535
▁debenture	-11.3535
▁impression	-11.3535
▁qualified	-11.3535
▁ऑंकडा	-11.3535
▁तानाशाह	-11.3535
▁विद्यार्थी	-11.3535
▁सापेक्ष	-11.3535
▁सुप्रीम	-11.3535
▁depict	-11.3535
▁fashion	-11.3535
▁marathi	-11.3535
▁बंदरगाह	-11.3535
▁heritage	-11.3535
▁आइटम	-11.3535
▁उच्चारण	-11.3535
▁vpn	-11.3535
▁सफाई	-11.3535
▁causing	-11.3535
▁sudan	-11.3536
▁सपने	-11.3536
▁brotherhood	-11.3536
▁शिष्य	-11.3537
▁रसीद	-11.3537
▁गुज़र	-11.3537
▁consciousness	-11.3539
▁specifically	-11.354
▁martin	-11.354
▁ऑफिस	-11.3542
▁मरीज	-11.3544
▁ganesh	-11.3549
▁assist	-11.3557
▁लेंगे	-11.3557
▁personality	-11.3559
▁300	-11.3561
▁बढाने	-11.3562
▁पडा	-11.3564
▁oi	-11.3568
load	-11.3568
▁cock	-11.3569
▁constructed	-11.357
▁मधुर	-11.3574
▁ग्रेट	-11.3578
▁जेन	-11.3579
▁sara	-11.3582
▁lag	-11.3592
समझ	-11.36
चन्द्र	-11.3607
▁देनी	-11.361
▁नाते	-11.3617
600	-11.3617
एच	-11.3618
▁परिसंपत्ति	-11.3623
▁applicable	-11.3625
▁concentration	-11.3625
▁kirgiz	-11.3625
▁kolkata	-11.3625
▁supplement	-11.3625
▁निर्वाचित	-11.3625
▁हालाँकि	-11.3625
▁अनुमोदन	-11.3625
▁sentiment	-11.3625
▁अपलोड	-11.3625
▁पंडित	-11.3625
▁नदियों	-11.3625
▁अवलोकन	-11.3625
▁paragraph	-11.3625
▁मन्दिर	-11.3626
▁अर्जित	-11.3626
▁असफलता	-11.3626
▁राजवंश	-11.3627
▁उल्लेखनीय	-11.3627
▁उन्हीं	-11.3627
▁१९३	-11.3627
▁transferred	-11.3628
▁creative	-11.3628
▁dominate	-11.3628
▁richard	-11.3628
▁axis	-11.3628
चिकित्सक	-11.3628
looking	-11.3628
▁attractive	-11.363
▁assam	-11.3632
▁disability	-11.3632
▁clothes	-11.3636
▁experienced	-11.3638
▁पूर्ववर्ती	-11.3638
ौरी	-11.3638
भाषी	-11.364
jit	-11.3643
▁dna	-11.3643
बदल	-11.3646
▁पायी	-11.3647
▁सोचना	-11.3647
▁चित्रण	-11.365
रोहित	-11.3651
▁फ्री	-11.3652
18	-11.3661
ought	-11.3662
▁protected	-11.3664
▁कड़ा	-11.3667
▁तेज़ी	-11.3671
▁miles	-11.3671
▁बनाएं	-11.3677
▁खेलने	-11.3677
▁सेंटर	-11.3679
▁hypo	-11.368
▁tech	-11.3682
▁ब्लॉक	-11.3683
कोट	-11.3686
▁generate	-11.3694
▁sindh	-11.3705
▁सीए	-11.3712
▁chalukya	-11.3715
▁cooperative	-11.3715
▁dictator	-11.3715
▁immigrant	-11.3715
▁kirghiz	-11.3715
▁utility	-11.3715
▁इकाइयों	-11.3715
▁उत्तेजित	-11.3715
▁धूम्रपान	-11.3715
▁संगमर्मर	-11.3715
▁potato	-11.3715
▁preparing	-11.3715
▁yamuna	-11.3715
▁robert	-11.3715
▁असफ़ल	-11.3715
▁पेंशन	-11.3715
▁sultan	-11.3715
▁दीजिए	-11.3715
▁भरोसा	-11.3715
▁धमकी	-11.3715
▁डाँट	-11.3715
▁denied	-11.3715
▁patriot	-11.3715
▁sorry	-11.3715
▁abbas	-11.3715
▁पोषक	-11.3716
▁considerably	-11.3717
▁classification	-11.3718
वृक्ष	-11.3719
▁bread	-11.3719
▁batting	-11.372
▁वर्गाकार	-11.3721
▁cum	-11.3722
▁देवताओं	-11.3722
▁strip	-11.3723
▁dome	-11.3724
▁इंटर	-11.3726
▁कवक	-11.3728
▁कराता	-11.3729
▁spinal	-11.3733
▁सहयोगियों	-11.3737
mount	-11.3737
▁ओह	-11.3742
ected	-11.3743
▁अनाज	-11.3745
▁आधी	-11.3752
▁आरोह	-11.3758
▁chop	-11.3767
▁tap	-11.3769
wear	-11.3769
बीज	-11.377
नियोजित	-11.3772
निरोध	-11.3776
▁ignore	-11.3784
▁influenced	-11.3785
▁ऊतकों	-11.3793
▁metro	-11.3797
mph	-11.3798
▁exploit	-11.38
▁मन्द	-11.38
▁instruct	-11.3801
वक्ता	-11.3803
▁facilitate	-11.3804
▁वास्तु	-11.3805
▁counsel	-11.3806
▁intensive	-11.3806
▁negotiation	-11.3806
▁participate	-11.3806
▁tehran	-11.3806
▁vaccine	-11.3806
▁भूगोल	-11.3806
▁अदायगी	-11.3806
▁यूनियन	-11.3806
▁xml	-11.3806
▁ग्रुप	-11.3806
▁surdas	-11.3806
▁बुखार	-11.3806
▁सटीक	-11.3806
▁अब्बास	-11.3806
anthrop	-11.3806
शोष	-11.3806
▁आज़ाद	-11.3807
▁सम्पत्ति	-11.3807
▁copyright	-11.3807
▁धुंध	-11.3808
▁प्लेट	-11.381
▁guilty	-11.3811
अनुच्छेद	-11.3811
मंडप	-11.3811
▁अंकुर	-11.3811
▁alpha	-11.3812
▁पिंड	-11.3819
moon	-11.382
▁वैसा	-11.3824
▁watching	-11.3827
▁stable	-11.3831
▁settled	-11.3832
जातीय	-11.3833
▁rarely	-11.3834
▁विंडोज़	-11.3834
▁thereby	-11.3834
▁constituted	-11.3836
▁खाद	-11.384
▁increasingly	-11.3845
▁कब्र	-11.3851
▁खरीदा	-11.3855
▁ठहर	-11.3857
▁seriously	-11.3858
▁monitoring	-11.3859
▁रूट	-11.3859
▁convention	-11.386
▁diplomatic	-11.3873
▁drinking	-11.3873
▁announce	-11.3875
▁declare	-11.3875
▁deeply	-11.3878
▁फुल	-11.3887
▁कंटक	-11.3891
▁undo	-11.3893
▁दिखाता	-11.3894
▁ऊंचा	-11.3894
pathy	-11.3895
कृष्ट	-11.3897
▁sponsor	-11.3897
▁inferior	-11.3897
▁subhashbabu	-11.3897
▁टेलीविजन	-11.3897
▁सर्वप्रथम	-11.3897
▁ethnic	-11.3897
▁आश्वासन	-11.3897
▁enclos	-11.3897
▁दुःख	-11.3897
एनालॉग	-11.3898
▁exclusion	-11.3898
लक्ष्मी	-11.3898
▁transmit	-11.3898
▁mixture	-11.3898
▁समीप	-11.3899
▁दक्षता	-11.3899
▁charles	-11.3899
ज्वर	-11.3904
▁hook	-11.3904
ग्रंथ	-11.3906
भ्र	-11.3908
uria	-11.3909
▁logical	-11.3909
▁hetero	-11.391
▁ड्रग	-11.391
▁लायक	-11.3914
▁hinduism	-11.3916
▁प्रोग्रामिंग	-11.3916
▁physi	-11.3919
▁मारना	-11.3926
▁gupta	-11.3935
▁encouraged	-11.3941
▁discovered	-11.3941
▁शरण	-11.395
▁पड़ने	-11.3956
fusion	-11.3966
▁sperm	-11.3966
▁emerge	-11.3967
▁बनती	-11.397
▁jewel	-11.3971
इए	-11.3982
▁echo	-11.3987
▁nicobar	-11.399
▁ग्रीष्म	-11.399
▁advertisement	-11.399
▁collapse	-11.399
▁extraordinary	-11.399
▁irrigation	-11.399
▁olympic	-11.399
▁threshold	-11.399
▁निष्पादित	-11.399
▁माउंट	-11.399
▁सर्वसाधारण	-11.399
▁अध्यापक	-11.399
▁भाँति	-11.399
▁convey	-11.399
▁उपेक्षा	-11.399
▁कड़ियाँ	-11.399
▁चिंतित	-11.399
▁italian	-11.399
▁loyal	-11.399
▁confront	-11.3991
▁विधानमंडल	-11.3991
▁erdo	-11.3991
▁अधिसूचना	-11.3991
▁ग्रीवा	-11.3991
▁contrary	-11.3992
▁मौन	-11.3993
▁packet	-11.3994
▁अनुभूति	-11.3995
ार्बुद	-11.3995
▁classical	-11.3997
▁पाचन	-11.3998
▁minority	-11.3999
▁हाव	-11.4
▁commit	-11.4001
▁startup	-11.4007
▁शिशुओं	-11.4007
शाखा	-11.4011
▁अत्य	-11.4011
बिट	-11.4014
color	-11.4019
मूलक	-11.4022
▁देखो	-11.4025
▁तड़	-11.4033
▁बढ़कर	-11.4034
वाद्य	-11.4036
▁initially	-11.4037
▁germ	-11.404
▁सावधान	-11.4044
▁कुर्	-11.4044
▁तीस	-11.4045
▁effectively	-11.4046
▁mul	-11.4049
aria	-11.405
कंप	-11.4059
▁acquire	-11.4061
▁libya	-11.4064
▁calculation	-11.4083
▁colleague	-11.4083
▁depression	-11.4083
▁jawaharlal	-11.4083
▁opponent	-11.4083
▁pregnancy	-11.4083
▁quarrel	-11.4083
▁क़ुरआन	-11.4083
▁जेरूसलम	-11.4083
▁सॉल्वैंट	-11.4083
▁स्थगित	-11.4083
▁consequent	-11.4083
▁खिंच	-11.4083
▁दुबारा	-11.4083
▁fiscal	-11.4083
▁बनवाया	-11.4083
▁निवेदन	-11.4083
▁रावण	-11.4083
▁racial	-11.4083
▁बुकमार्क	-11.4084
▁barrier	-11.4084
▁trait	-11.4084
▁turkmen	-11.4085
▁कर्सर	-11.4085
▁manipulat	-11.4085
▁पंजीकरण	-11.4085
▁वर्ल्ड	-11.4085
▁1960	-11.4086
▁divine	-11.4087
▁भक्त	-11.4087
▁श्रेणीःभारत	-11.4087
▁snap	-11.409
▁approximately	-11.4091
▁पक्का	-11.4092
▁difficulties	-11.4093
▁seeking	-11.4093
▁grid	-11.4095
▁hate	-11.4095
current	-11.4096
▁muk	-11.4096
▁castor	-11.4096
पोषण	-11.4099
▁karna	-11.4102
▁lime	-11.4103
▁तैर	-11.4108
▁flame	-11.4112
pore	-11.4113
▁mechanical	-11.4113
▁rig	-11.4125
▁सिटी	-11.4131
श्वास	-11.4136
▁गौरव	-11.4136
▁ऊन	-11.4138
फ्ल	-11.4145
▁साक्ष	-11.4157
▁refuse	-11.4157
▁मेटा	-11.4157
▁damaged	-11.4161
▁निदेश	-11.4162
▁ultimate	-11.4163
lakshmi	-11.4178
▁comparison	-11.4178
▁federation	-11.4178
▁jobseeker	-11.4178
▁दूतावास	-11.4178
▁निरन्तर	-11.4178
▁वैयक्तिक	-11.4178
▁episode	-11.4178
▁उन्नयन	-11.4178
▁रियायत	-11.4178
▁तिब्बत	-11.4178
▁यांत्रिक	-11.4178
▁fibre	-11.4178
▁typing	-11.4178
▁सघन	-11.4178
▁पचास	-11.4178
▁dash	-11.4178
▁श्रीकृष्ण	-11.4179
▁शरियत	-11.4179
▁कोयले	-11.4179
▁gulf	-11.4179
▁everywhere	-11.4179
▁भेदभाव	-11.4179
▁युवक	-11.4179
▁encryption	-11.418
▁reduction	-11.4182
▁संतति	-11.4182
▁पूर्णतया	-11.4182
▁shout	-11.4184
▁वृषण	-11.4184
▁depending	-11.4185
▁java	-11.4185
worth	-11.4187
▁weakness	-11.4189
▁brick	-11.419
▁अध्यक्षता	-11.4191
write	-11.4192
▁प्रक्रमण	-11.4193
▁आईडी	-11.4193
▁जैविक	-11.4194
▁dealer	-11.4194
▁lee	-11.4194
▁fax	-11.4195
▁suspended	-11.4197
▁lap	-11.4197
▁wishes	-11.4198
फिर	-11.4202
▁टंक	-11.4206
opathy	-11.4208
▁कूद	-11.4208
▁घटित	-11.4209
न्ज	-11.421
▁क्रोध	-11.4212
▁scheduled	-11.422
▁बढ़ते	-11.422
▁सर्प	-11.4221
▁फंस	-11.4228
▁चाहें	-11.4235
▁नहर	-11.4237
डाउन	-11.4242
▁बताये	-11.4246
▁electro	-11.4249
▁bail	-11.4252
चित्त	-11.4252
▁trained	-11.4256
91	-11.4257
▁elect	-11.4262
▁fatal	-11.4264
▁hire	-11.4273
post	-11.4273
▁afraid	-11.4273
▁brilliant	-11.4273
▁celery	-11.4273
▁definite	-11.4273
▁duplicate	-11.4273
▁equivalent	-11.4273
▁receiving	-11.4273
▁terrible	-11.4273
▁आश्वस्त	-11.4273
▁ऊंचे	-11.4273
▁क़ुरान	-11.4273
▁गड़बड़	-11.4273
▁मनोरंजन	-11.4273
▁exclude	-11.4273
▁रूपांतरण	-11.4273
▁investigate	-11.4273
▁pacific	-11.4273
ुद्दीन	-11.4273
▁honest	-11.4273
▁मार्गदर्शन	-11.4274
▁madhya	-11.4275
▁वक्तव्य	-11.4275
▁hitler	-11.4275
द्रुम	-11.4275
▁attendance	-11.4277
▁brush	-11.4277
▁shiv	-11.4277
▁ऑटो	-11.4279
▁tension	-11.4279
पुल	-11.4279
▁dump	-11.428
▁प्रमाणीकरण	-11.4281
▁क्लास	-11.4281
<	-11.4283
▁भटक	-11.4283
साध्य	-11.4284
▁pause	-11.429
▁अंडे	-11.4295
▁hip	-11.4296
पट्ट	-11.4297
▁translated	-11.43
▁गणेश	-11.43
▁लेनदार	-11.4303
▁captured	-11.4305
▁relatively	-11.4309
▁authenticate	-11.4314
that	-11.4318
▁surrounding	-11.432
dhya	-11.4324
▁तीव्रता	-11.4343
▁represented	-11.4343
▁creditor	-11.4343
▁56	-11.4347
▁recognize	-11.4347
विहीन	-11.4367
▁टाइम	-11.4369
▁arrival	-11.4369
▁primarily	-11.4369
▁rhythm	-11.4369
▁आश्रय	-11.4369
▁क्लाइंट	-11.4369
▁श्रोणि	-11.4369
▁सर्वोत्तम	-11.4369
▁स्वायत्त	-11.4369
▁bleeding	-11.4369
▁अन्वेषण	-11.4369
▁पाषाण	-11.4369
▁भृंग	-11.4369
▁नींव	-11.4369
▁पाण्डव	-11.4369
▁सूँघ	-11.4369
▁ideology	-11.4369
▁explore	-11.4369
▁कच्चा	-11.4369
▁सहारे	-11.437
क्रीड़ा	-11.4372
▁bottle	-11.4372
▁अन्तिम	-11.4372
▁vil	-11.4372
▁symbolic	-11.4373
▁सिक्का	-11.4374
▁संभोग	-11.4374
▁skip	-11.4375
▁रूढ़	-11.4375
डियम	-11.4375
25	-11.4378
▁उम्मीदवार	-11.4378
para	-11.4381
▁आरेख	-11.4381
▁हार्ड	-11.4381
▁pav	-11.4383
▁किताबें	-11.4386
▁emotion	-11.4389
▁tiny	-11.4389
▁विकृत	-11.439
▁gir	-11.4394
▁reward	-11.4398
▁सिरे	-11.4403
▁मज़ा	-11.4407
▁nationalism	-11.4413
▁चतुर	-11.4415
▁साहित्यिक	-11.4415
▁experimental	-11.4425
▁अश्म	-11.4429
▁correctly	-11.4429
direct	-11.4429
▁appoint	-11.4433
▁broke	-11.4436
▁pond	-11.444
▁nazi	-11.4442
ानंद	-11.4445
▁सोचने	-11.4446
▁प्रक्रियाओं	-11.4454
▁कटा	-11.4459
▁बेचा	-11.4461
▁२६	-11.4463
▁creature	-11.4466
▁demonstration	-11.4466
▁deploy	-11.4466
▁devanagari	-11.4466
▁dioxide	-11.4466
▁embrace	-11.4466
▁geographical	-11.4466
▁haplogroup	-11.4466
▁kitchen	-11.4466
▁ophthalm	-11.4466
▁phenomenon	-11.4466
▁retirement	-11.4466
▁मुहाफ़ज़ाह	-11.4466
▁यमुना	-11.4466
▁सिंचाई	-11.4466
▁विश्लेषक	-11.4466
▁जरिए	-11.4466
▁ultra	-11.4466
▁सूडान	-11.4466
▁telegraph	-11.4466
▁हिटलर	-11.4467
▁कहानियों	-11.4467
▁पराजित	-11.4467
▁गौतम	-11.4467
▁rival	-11.4468
▁spray	-11.4468
▁ficus	-11.4468
▁अफसर	-11.4469
▁ताजा	-11.447
राष्ट्र	-11.4471
▁authorised	-11.4472
▁italy	-11.4473
▁patent	-11.4473
▁यज्ञ	-11.4474
▁irish	-11.4474
▁मुख्यतः	-11.4475
▁कमीशन	-11.4475
▁नोक	-11.4477
▁सतत	-11.4477
▁उपदेश	-11.448
▁mili	-11.4482
▁सशक्त	-11.4482
▁educated	-11.4482
▁प्रसारित	-11.4483
▁बंट	-11.4486
▁oldest	-11.4488
▁jha	-11.4489
▁generated	-11.449
▁socialism	-11.4493
प्रदेश	-11.4495
▁दौरे	-11.4504
▁lying	-11.4504
▁भट्ट	-11.451
▁अनुमानित	-11.4516
code	-11.4516
uj	-11.4519
▁cheer	-11.452
▁prose	-11.4527
▁contractor	-11.4546
▁अपनाई	-11.4548
पिण्ड	-11.4562
▁recep	-11.4563
▁प्रतिबिंब	-11.4564
▁buddhist	-11.4564
▁determination	-11.4564
▁herself	-11.4564
▁participation	-11.4564
▁subordinate	-11.4564
▁vertebra	-11.4564
▁ऑपरेशन	-11.4564
▁निकोबार	-11.4564
▁निषेध	-11.4564
▁पिक्सेल	-11.4564
▁स्क्रॉल	-11.4564
▁हस्पताल	-11.4564
▁unmatch	-11.4564
▁मह्त्व	-11.4564
▁मामूली	-11.4564
▁मलेरिया	-11.4564
▁आमंत्रित	-11.4564
▁tibet	-11.4564
▁invitation	-11.4564
▁पाण्डु	-11.4564
▁धीमी	-11.4564
▁pretend	-11.4564
▁empower	-11.4565
▁ख़ुद	-11.4565
▁hatred	-11.4565
▁grammar	-11.4565
फोर्ड	-11.4566
▁transmitted	-11.4566
▁शोषण	-11.4566
▁arbitration	-11.4566
▁preach	-11.4567
▁patel	-11.4567
▁पेरिस	-11.4567
स्टोन	-11.457
▁मुक़्त	-11.4571
▁transformation	-11.4573
burg	-11.4576
▁withdrawal	-11.4576
▁समितियों	-11.4578
▁इधर	-11.4579
▁प्रतिफल	-11.4584
▁आगम	-11.4584
रुचि	-11.4584
▁assumed	-11.4585
▁theater	-11.4587
▁decent	-11.4592
▁initiated	-11.4593
▁सेकंड	-11.4598
▁कार्यरत	-11.4601
▁समस्याएं	-11.4603
▁एण्ड	-11.4606
▁पालि	-11.461
▁आंकड़	-11.461
▁पट्टा	-11.4614
पंथ	-11.4619
▁बारीक	-11.463
शायर	-11.4631
▁urge	-11.4631
▁प्रस्तुति	-11.4635
▁separately	-11.4636
70	-11.4637
▁नागरिकता	-11.4642
▁रूसी	-11.4645
पाठ	-11.4647
▁mall	-11.4649
▁अभिव्यक्त	-11.4658
▁comfort	-11.4659
wash	-11.4659
ाउंड	-11.4661
▁uzb	-11.4663
▁acquisition	-11.4663
▁aggressive	-11.4663
▁devotee	-11.4663
▁eligible	-11.4663
▁exhaust	-11.4663
▁profound	-11.4663
▁satisfied	-11.4663
▁sketch	-11.4663
▁supervisor	-11.4663
▁suppress	-11.4663
▁आह्वान	-11.4663
▁कैबिनेट	-11.4663
▁खिड़की	-11.4663
▁वॉल्यूम	-11.4663
▁संक्रामक	-11.4663
▁irregular	-11.4663
▁worldwide	-11.4663
▁अश्रु	-11.4663
▁हिंसक	-11.4663
▁कहानियाँ	-11.4663
▁pupil	-11.4664
▁availability	-11.4664
▁अभिनय	-11.4664
▁वित्तपोषण	-11.4664
▁breach	-11.4664
▁प्रदर्शक	-11.4664
▁श्याम	-11.4664
▁framework	-11.4665
▁pearl	-11.4666
▁रचनात्मक	-11.4667
▁छपाई	-11.4668
▁scrap	-11.4671
▁क्रूर	-11.4671
▁निर्वाह	-11.4671
▁अर्जन	-11.4672
▁beast	-11.4672
▁ज़ोर	-11.4674
▁गार्ड	-11.4674
निर्णय	-11.4677
▁लंग	-11.4678
▁अनजान	-11.468
पुरुष	-11.468
▁imposed	-11.468
bhu	-11.4681
course	-11.4683
▁bodi	-11.4684
▁arranged	-11.4684
यात्रा	-11.4684
▁recognized	-11.4686
▁हिट	-11.4687
▁hut	-11.4689
▁कैश	-11.4692
मक्ख	-11.4692
▁मंजूरी	-11.4692
▁टूर	-11.4693
▁पुकार	-11.4694
hostname	-11.4695
▁शीश	-11.4698
▁चैक	-11.4699
▁कार्यकाल	-11.4704
▁delivered	-11.4707
▁बाइ	-11.4708
पंथी	-11.4709
गम्य	-11.4719
▁journalist	-11.4721
▁कुशलता	-11.4721
लाइट	-11.4721
तोष	-11.4724
▁स्थिरता	-11.4726
▁spending	-11.4729
ोल्ड	-11.473
▁similarly	-11.4732
िज्म	-11.4734
▁बाइट	-11.4736
▁द्वितीयक	-11.4737
▁अलवा	-11.4738
मार्क	-11.4741
▁peaceful	-11.475
▁कुंजीपट	-11.4755
opia	-11.4761
▁emphasis	-11.4763
▁दुर्भाग्य	-11.4763
conceited	-11.4763
▁1939	-11.4763
▁closing	-11.4763
▁constituent	-11.4763
▁earliest	-11.4763
▁identification	-11.4763
▁reproduction	-11.4763
▁अद्भुत	-11.4763
▁फैक्टरी	-11.4763
▁साफ्टवेयर	-11.4763
▁हनुमान	-11.4763
▁monsoon	-11.4763
▁termination	-11.4763
▁interior	-11.4763
▁casual	-11.4763
▁निःशुल्क	-11.4763
▁मेन्यू	-11.4763
▁स्त्रियों	-11.4763
ोच्छेदन	-11.4764
▁citizenship	-11.4764
▁नवीनतम	-11.4764
▁reduc	-11.4764
▁urgent	-11.4765
ंबु	-11.4765
▁पैकेट	-11.4765
▁उपनिवेश	-11.4766
▁अकड़	-11.4766
▁वैद्य	-11.4767
▁scripture	-11.4767
▁अदृश्य	-11.4767
▁urine	-11.4768
▁फारसी	-11.477
view	-11.477
▁समतल	-11.4771
▁स्वार्थ	-11.4772
▁civilian	-11.4772
ध्वनि	-11.4776
मस्तिष्क	-11.4778
▁handling	-11.4779
प्रमाण	-11.4779
▁सूरज	-11.4785
▁34	-11.479
▁आइस	-11.4796
▁driven	-11.4802
▁orbit	-11.4803
burn	-11.481
▁essentially	-11.4814
लोग	-11.4815
दूर	-11.4817
▁buyer	-11.4818
▁regulation	-11.4819
▁pour	-11.4823
दन्त	-11.4823
▁चिकन	-11.4823
▁humanity	-11.4825
▁पण	-11.4843
झोंक	-11.485
▁बनते	-11.4856
▁commander	-11.486
▁intellect	-11.4864
▁commodity	-11.4864
▁encounter	-11.4864
▁inevitable	-11.4864
▁observation	-11.4864
▁possibly	-11.4864
▁अनिश्चित	-11.4864
▁अप्रत्यक्ष	-11.4864
▁इंतजार	-11.4864
▁उत्तेजना	-11.4864
▁बूढ़े	-11.4864
▁हज़रत	-11.4864
▁circum	-11.4864
▁hostility	-11.4864
▁unusual	-11.4864
▁इंदिरा	-11.4864
▁चार्ल्स	-11.4864
▁kerala	-11.4864
▁राज्यसभा	-11.4864
▁करुणा	-11.4864
▁pilot	-11.4864
▁राजनेता	-11.4865
▁rating	-11.4865
▁precede	-11.4865
▁तुनक	-11.4865
▁ख़ुश	-11.4865
▁दुहरा	-11.4868
▁bigger	-11.4868
▁priest	-11.4868
▁अवशेष	-11.487
▁malaria	-11.4872
▁iii	-11.4873
▁ashok	-11.4873
▁bon	-11.4874
▁कालेज	-11.4875
▁limb	-11.4876
▁गाइड	-11.4878
▁घोर	-11.4878
निर्धारण	-11.488
krishna	-11.488
▁शास्त्रीय	-11.488
▁रूपरेखा	-11.4881
▁ताड़	-11.4883
▁seventh	-11.4884
▁सफर	-11.4884
text	-11.4885
▁गोल्ड	-11.4885
▁सूचि	-11.4886
▁डाइ	-11.4887
▁अर्थात्	-11.4889
▁ढांचा	-11.4893
▁जैक	-11.4896
▁पृथ	-11.49
▁तथापि	-11.4901
▁रोज़	-11.4901
▁मोती	-11.4901
▁आंखों	-11.4902
युग	-11.4904
▁nationalist	-11.4904
▁लगाये	-11.4905
wee	-11.4909
89	-11.4913
▁dimension	-11.4916
मति	-11.4917
▁समाजवाद	-11.4922
▁nail	-11.4923
▁मूर	-11.4929
▁बदलते	-11.4931
▁initiat	-11.4935
▁disturb	-11.4936
म्बु	-11.4938
▁आंख	-11.4945
▁मिश्र	-11.4949
ाक्षर	-11.4957
▁नाराज	-11.4963
▁bahadur	-11.4966
▁brazil	-11.4966
▁derived	-11.4966
▁diagnose	-11.4966
▁removing	-11.4966
▁valuable	-11.4966
▁क्रियाकलाप	-11.4966
▁दूरसंचार	-11.4966
▁धैर्य	-11.4966
▁विश्राम	-11.4966
▁powder	-11.4966
▁तार्किक	-11.4966
▁प्रोजेक्ट	-11.4966
▁वापिस	-11.4966
▁स्वाधीनता	-11.4966
▁throat	-11.4966
▁scratch	-11.4966
▁truly	-11.4966
▁क्रिस्टल	-11.4966
▁managing	-11.4966
▁conquer	-11.4966
▁श्रवण	-11.4967
▁laboratory	-11.4967
▁psychological	-11.4967
▁मार्टिन	-11.4967
▁contemporary	-11.4967
▁हानिकारक	-11.4967
▁crocus	-11.4967
आस्तियां	-11.4968
▁favorite	-11.4968
▁rebel	-11.4968
▁पौधा	-11.4968
▁eliminat	-11.4969
▁playback	-11.4969
▁विश्वयुद्ध	-11.4969
▁पित्त	-11.4971
▁grip	-11.4972
▁parse	-11.4973
▁हटाएँ	-11.4977
▁massive	-11.4978
▁मृदु	-11.4978
दिल	-11.4978
▁घटिया	-11.4979
▁ultimately	-11.4982
▁आसमान	-11.4982
▁निशाना	-11.4983
▁नाच	-11.4985
सूचक	-11.499
▁emerged	-11.4991
▁realised	-11.4992
▁तनु	-11.4993
▁जहर	-11.4994
▁उपयोगकर्ताओं	-11.4999
▁कैसा	-11.5004
▁coordinate	-11.5007
▁अटल	-11.5009
डपट	-11.5011
▁pile	-11.5012
दिवसीय	-11.5014
र्श	-11.5014
ogenesis	-11.5017
▁taxation	-11.5022
▁चुनने	-11.5022
▁संकीर्ण	-11.5026
घाट	-11.5029
▁चलती	-11.503
▁promis	-11.5031
▁trap	-11.5046
▁coat	-11.5047
uddin	-11.5051
▁adulter	-11.5051
▁frequent	-11.5055
▁gita	-11.5058
ographic	-11.506
▁वाच	-11.5065
▁commodities	-11.5069
▁fraudulent	-11.5069
▁imagination	-11.5069
▁messenger	-11.5069
▁peacock	-11.5069
▁डेमोक्रेट	-11.5069
▁भयभीत	-11.5069
▁मजहब	-11.5069
▁bargain	-11.5069
▁completion	-11.5069
▁दीपावली	-11.5069
▁संतुलित	-11.5069
▁परिपाटी	-11.5069
▁canadian	-11.5069
▁decease	-11.5069
▁घायल	-11.5069
▁personnel	-11.5069
▁fetch	-11.5069
▁यात्रियों	-11.5069
▁संस्थापक	-11.507
▁ट्रांस	-11.507
▁मंजिल	-11.507
▁असहमत	-11.507
▁blend	-11.5071
▁refund	-11.5072
▁alert	-11.5072
▁winning	-11.5073
▁commitment	-11.5073
▁crush	-11.5073
▁वर्गीकृत	-11.5074
▁fond	-11.5074
▁सभापति	-11.5075
▁बिछ	-11.5076
▁buck	-11.5076
▁spine	-11.5077
▁awareness	-11.5078
▁yard	-11.5079
▁इराद	-11.508
▁loop	-11.5082
▁linga	-11.5084
▁bitter	-11.5084
{0}	-11.5087
▁fox	-11.5087
शून्य	-11.5087
▁executed	-11.5091
शासन	-11.5092
▁mess	-11.5096
▁सेवाएँ	-11.5098
wood	-11.5098
▁पेय	-11.5099
▁disturbed	-11.51
▁कटि	-11.5103
▁strain	-11.5114
▁जुट	-11.5114
▁सुनाई	-11.5117
▁monte	-11.5119
▁optical	-11.512
▁tuber	-11.5123
▁पडता	-11.5123
▁measured	-11.5126
▁undergo	-11.513
▁operational	-11.513
▁fran	-11.5134
kul	-11.5138
वाचक	-11.5142
▁execute	-11.5152
▁arrive	-11.5152
▁stag	-11.5153
युग्म	-11.5158
▁जानकार	-11.5159
ाइटिस	-11.5162
▁मुझ	-11.5163
▁conscious	-11.5171
wag	-11.5173
▁statutory	-11.5174
▁tendulkar	-11.5174
▁अकादमी	-11.5174
▁जबरदस्त	-11.5174
▁शैक्षणिक	-11.5174
▁chicken	-11.5174
▁उत्सुक	-11.5174
▁शिथिल	-11.5174
▁essay	-11.5174
▁स्थानांतरण	-11.5174
▁गुम्बद	-11.5174
▁stroke	-11.5174
ogram	-11.5174
▁indira	-11.5174
▁1994	-11.5175
vascular	-11.5175
▁fare	-11.5175
▁ग़लत	-11.5175
▁गाँधीजी	-11.5175
▁passport	-11.5175
▁console	-11.5176
▁tenancy	-11.5176
▁परिश्रम	-11.5177
▁कारीगर	-11.5178
▁unfortunately	-11.5181
▁प्रारम्भिक	-11.5183
▁unlock	-11.5184
▁ख़ास	-11.5185
▁अनुबंध	-11.5185
▁सीमांत	-11.5187
▁mature	-11.5188
pala	-11.5192
▁keen	-11.5193
▁tiru	-11.5194
▁objection	-11.5194
मन्त्र	-11.5195
▁rail	-11.5197
दंश	-11.52
▁systematic	-11.5203
▁रंगीन	-11.5206
where	-11.5208
▁absolutely	-11.521
▁गुच्छ	-11.5211
▁restricted	-11.5212
विद्या	-11.522
▁अटक	-11.5223
▁150	-11.5229
▁clip	-11.5232
▁बाढ़	-11.5232
▁जेब	-11.5234
धारित	-11.5239
▁पूछें	-11.5242
atura	-11.5243
भ्रम	-11.5245
▁इंद्रिय	-11.525
▁arrange	-11.5254
ोचित	-11.5256
▁browse	-11.5266
▁अनुपस्थित	-11.5272
▁400	-11.5272
water	-11.5276
▁careful	-11.5277
▁अफगान	-11.5278
▁acacia	-11.5279
▁embassy	-11.5279
▁evolve	-11.5279
▁indigenous	-11.5279
▁integrity	-11.5279
▁remittance	-11.5279
▁अद्वितीय	-11.5279
▁refresh	-11.5279
▁thorough	-11.5279
▁widow	-11.5279
▁yemen	-11.5279
▁काल्पनिक	-11.5279
▁hunger	-11.5279
▁मद्रास	-11.5279
▁संबोधित	-11.5279
▁clerk	-11.5279
▁commerce	-11.5279
▁dominant	-11.5279
▁sheikh	-11.5279
▁anxious	-11.5279
▁mecca	-11.5279
▁जोधपुर	-11.5279
▁सिंधु	-11.5279
▁नदियाँ	-11.5279
▁twist	-11.5279
▁austria	-11.5279
▁अथारिटी	-11.5279
▁kabul	-11.5279
▁विचारण	-11.528
▁reception	-11.528
▁मलाशय	-11.5281
▁शिक्षित	-11.5281
▁धोखा	-11.5282
▁बतौर	-11.5282
▁workspace	-11.5284
▁यकृत	-11.5285
▁choler	-11.5285
▁distinction	-11.5287
▁बनावट	-11.5288
▁nadu	-11.529
▁सांसद	-11.5291
▁flee	-11.5294
ड्डी	-11.5296
▁discovery	-11.5298
▁obviously	-11.5299
which	-11.5299
अंतर	-11.5305
▁खासकर	-11.5314
▁दिखने	-11.5317
▁51	-11.5318
▁succeeded	-11.5321
▁bowling	-11.5321
desh	-11.5333
▁affair	-11.5345
भूति	-11.5346
▁वसूल	-11.5346
विशेष	-11.5353
▁melt	-11.5358
▁assume	-11.5363
▁तुलन	-11.5365
▁लिखते	-11.5365
▁पिट	-11.5366
▁cpu	-11.5372
▁arjun	-11.5373
▁retreat	-11.5375
▁academy	-11.5385
▁categories	-11.5385
▁compulsory	-11.5385
▁elaborate	-11.5385
▁expensive	-11.5385
▁fifteen	-11.5385
▁intervention	-11.5385
▁measuring	-11.5385
▁significance	-11.5385
▁warfare	-11.5385
▁ऊंची	-11.5385
▁कैरियर	-11.5385
▁ग्रीनहाउस	-11.5385
▁डिवाइस	-11.5385
▁दुश्मन	-11.5385
▁फेफड़ों	-11.5385
▁मौखिक	-11.5385
▁eleven	-11.5385
▁ठाकुर	-11.5385
▁ambition	-11.5385
▁कार्यकलाप	-11.5385
▁विज़ेट	-11.5385
▁पैदल	-11.5385
▁मुआवज	-11.5385
▁मुद्रित	-11.5385
▁क्षीण	-11.5385
▁dozen	-11.5385
▁spain	-11.5385
▁intense	-11.5385
▁elsewhere	-11.5386
▁धूप	-11.5386
▁shankar	-11.5386
▁उत्पत्ति	-11.5386
जिह्वा	-11.5387
▁honey	-11.5387
▁स्कन्ध	-11.5388
▁गुलाब	-11.5389
पात्र	-11.5389
▁pride	-11.539
▁दिखाए	-11.5392
▁aryan	-11.5392
▁श्रोता	-11.5397
डऋई	-11.5397
▁संकुल	-11.5401
▁शक्तियां	-11.5401
▁बगल	-11.5402
▁कामगार	-11.5404
▁chew	-11.5404
khar	-11.5407
▁आगामी	-11.5409
सागर	-11.5429
▁आचार्य	-11.5435
▁सजीव	-11.5435
▁सबके	-11.5436
▁प्रसन्नता	-11.5436
शमन	-11.544
100	-11.5453
▁लेगा	-11.5453
कृतियों	-11.5456
▁celebrat	-11.5459
पायर	-11.5461
▁करवाना	-11.5472
▁37	-11.5482
चित्रण	-11.5485
काण्ड	-11.5487
▁contra	-11.5489
▁आविष्कार	-11.5493
▁साक्षात्कार	-11.5493
▁arafat	-11.5493
▁competitive	-11.5493
▁excellent	-11.5493
▁intensity	-11.5493
▁judgment	-11.5493
▁pesticide	-11.5493
▁producing	-11.5493
▁एजेन्सी	-11.5493
▁खलीफा	-11.5493
▁प्रीमियम	-11.5493
▁मजिस्ट्रेट	-11.5493
▁लाइब्रेरी	-11.5493
▁शाहजहाँ	-11.5493
▁सरस्वती	-11.5493
▁अवशिष्ट	-11.5493
▁exposed	-11.5493
▁गुर्दे	-11.5493
▁चिन्ता	-11.5493
▁agenda	-11.5493
▁तुलसी	-11.5493
▁स्ट्रीम	-11.5493
▁nigeria	-11.5493
▁drain	-11.5493
▁gloss	-11.5493
▁ज़मीन	-11.5493
▁वास्तुकला	-11.5493
▁गणतन्त्र	-11.5493
bacter	-11.5494
▁competent	-11.5494
▁स्नेह	-11.5494
▁boost	-11.5494
▁toolbar	-11.5495
▁एक्सेस	-11.5496
▁spanish	-11.5497
▁उन्नति	-11.5497
▁कपड़ा	-11.5499
▁अंडमान	-11.5501
▁cutting	-11.5502
▁duck	-11.5503
root	-11.5506
▁उत्प	-11.5509
▁wonderful	-11.5511
▁adviser	-11.5511
▁encrypted	-11.5512
▁बेटे	-11.5514
izz	-11.5515
मिश्रण	-11.5515
▁२२	-11.5515
domain	-11.5515
screen	-11.5515
▁broker	-11.5518
▁lump	-11.5519
▁gases	-11.5522
ayana	-11.5524
▁सिंक	-11.5525
▁बांस	-11.554
वृक	-11.5541
च्युत	-11.5542
▁painful	-11.5546
बॉक्स	-11.5546
▁आलू	-11.5548
▁42	-11.5556
▁soldier	-11.5565
्शन	-11.5567
▁distinguish	-11.5572
एक्स	-11.5577
द्रोह	-11.5579
▁ठग	-11.5587
▁1000	-11.5598
▁रूख	-11.5599
▁kala	-11.5599
▁bazaar	-11.5601
▁circulation	-11.5601
▁crucial	-11.5601
▁incorrect	-11.5601
▁khomeini	-11.5601
▁peninsula	-11.5601
▁pillow	-11.5601
▁respiratory	-11.5601
▁गवर्नर	-11.5601
▁नमूनों	-11.5601
▁विद्यार्थियों	-11.5601
▁paradise	-11.5601
▁vietnam	-11.5601
▁रिचर्ड	-11.5601
▁सशस्त्र	-11.5601
▁retrieve	-11.5601
▁मुज्ह	-11.5601
▁ईंधन	-11.5601
▁maharaja	-11.5601
▁गठित	-11.5601
▁nominal	-11.5602
▁peasant	-11.5602
▁प्रचलन	-11.5602
▁warrior	-11.5602
▁अनुसूचि	-11.5602
▁स्नान	-11.5602
▁हैसियत	-11.5602
▁स्लाइड	-11.5602
▁modification	-11.5602
▁परिदृश्य	-11.5603
▁बिगड़	-11.5603
▁बगैर	-11.5603
▁1995	-11.5603
▁verify	-11.5603
▁उद्गम	-11.5604
▁बहिर्	-11.5604
▁दुर्बल	-11.5604
▁उछाल	-11.5605
▁वायदा	-11.5605
▁dental	-11.5605
▁mohan	-11.5605
लग्न	-11.5606
▁somewhere	-11.5606
▁संरक्षित	-11.5607
▁assad	-11.5607
▁giant	-11.5609
▁जठर	-11.5614
▁बड़ै	-11.5614
▁शान्त	-11.5616
▁lobe	-11.5617
▁विकासशील	-11.5617
▁झलक	-11.562
▁कार्यस्थान	-11.5622
▁गायब	-11.5622
स्वामी	-11.5625
system	-11.5625
▁kali	-11.563
giri	-11.5631
▁ड़ाल	-11.5632
▁संकल्पना	-11.5634
▁shake	-11.5639
▁coral	-11.5642
▁deem	-11.5646
▁असु	-11.5648
ट्ठा	-11.5652
▁reminder	-11.5656
▁66	-11.566
▁आचार	-11.5665
▁modem	-11.5668
▁verma	-11.5681
▁vine	-11.5687
▁tala	-11.5698
▁peter	-11.5701
▁slave	-11.5709
▁1979	-11.5711
▁comprehensive	-11.5711
▁cultivation	-11.5711
▁diwali	-11.5711
▁extremist	-11.5711
▁karnataka	-11.5711
▁miracle	-11.5711
▁ombudsman	-11.5711
▁perspective	-11.5711
▁securities	-11.5711
▁अंतर्निहित	-11.5711
▁कर्नाटक	-11.5711
▁बेरोजगार	-11.5711
▁संप्रदाय	-11.5711
▁सार्वभौम	-11.5711
▁plenty	-11.5711
▁वाष्प	-11.5711
▁expiry	-11.5711
▁injured	-11.5711
▁व्यतीत	-11.5711
▁घोड़े	-11.5711
▁संस्कार	-11.5711
▁संपदा	-11.5711
▁किरगिज	-11.5711
▁bulk	-11.5712
▁वज्र	-11.5712
▁ख़राब	-11.5712
▁zealand	-11.5712
▁सचेत	-11.5712
▁पैलेस	-11.5712
▁wander	-11.5713
▁बेचैन	-11.5713
▁edward	-11.5713
▁storm	-11.5713
▁व्यर्थ	-11.5714
▁grey	-11.5714
▁अधिग्रहण	-11.5714
▁joke	-11.5714
▁शब्दकोश	-11.5715
दोष	-11.5715
▁nearby	-11.5716
▁ईराक	-11.5716
▁तराश	-11.5718
▁boundary	-11.5719
▁समांतर	-11.572
चरण	-11.5721
▁पूर्णतः	-11.5721
▁गोद	-11.5723
▁नागर	-11.5725
▁highway	-11.5725
▁debit	-11.5728
▁dull	-11.5732
▁arabian	-11.5739
▁invited	-11.574
fast	-11.5741
▁परियोजनाओं	-11.5745
posing	-11.5747
▁प्राक्	-11.5763
▁01	-11.5763
देय	-11.5766
चिंत	-11.5775
सर्व	-11.5777
title	-11.5777
▁satya	-11.5788
▁81	-11.5789
▁burma	-11.5794
▁identifie	-11.5801
96	-11.5805
▁eliminate	-11.582
▁bhar	-11.5822
▁abdominal	-11.5822
▁ligament	-11.5822
▁pregnant	-11.5822
▁presidency	-11.5822
▁restaurant	-11.5822
▁रिपब्लिकन	-11.5822
▁संकुचन	-11.5822
▁retired	-11.5822
▁फ़िल्टर	-11.5822
▁शुष्क	-11.5822
▁नाजुक	-11.5822
▁निवृत्ती	-11.5822
▁कप्तान	-11.5822
▁बाधित	-11.5823
▁सुन्नी	-11.5823
92	-11.5823
▁tired	-11.5823
▁व्यवस्थापक	-11.5823
▁muscular	-11.5823
▁मीनार	-11.5823
▁शुरुवात	-11.5823
▁हैल्थ	-11.5823
▁प्लगइन	-11.5823
▁वायरस	-11.5823
▁comprise	-11.5824
▁1984	-11.5824
▁greenhouse	-11.5824
हर्निया	-11.5826
▁nasal	-11.5826
▁सरणी	-11.5826
▁बिस्तर	-11.5826
▁फायर	-11.5827
▁कुर्सी	-11.5827
▁समकालीन	-11.583
▁coach	-11.5831
▁नियोजन	-11.5832
▁बेहतरीन	-11.5832
▁controller	-11.5832
▁fool	-11.5833
▁indication	-11.5834
▁productive	-11.5837
▁लम्बा	-11.584
▁ease	-11.5841
▁shortage	-11.5842
▁चतुर्	-11.5851
▁misuse	-11.5852
free	-11.5853
▁pine	-11.5854
बूझ	-11.5864
▁73	-11.5864
▁chlor	-11.587
▁क्रमिक	-11.5871
ाख्य	-11.5874
▁charm	-11.588
▁जुआ	-11.5898
दत्त	-11.59
▁अन्याय	-11.5903
▁माया	-11.5907
vati	-11.5913
▁embryo	-11.5931
▁१००	-11.5933
▁diminish	-11.5935
▁cluster	-11.5935
▁hybrid	-11.5935
▁whisper	-11.5935
▁भ्रष्ट	-11.5935
▁सामर्थ्य	-11.5935
nunciation	-11.5935
▁ceremony	-11.5935
▁deception	-11.5935
▁maternity	-11.5935
▁perception	-11.5935
▁skeletal	-11.5935
▁tajmahal	-11.5935
▁अंकगणितीय	-11.5935
▁डब्ल्यू	-11.5935
▁डीवीडी	-11.5935
▁प्रौढ़	-11.5935
▁रिश्तेदार	-11.5935
▁कंपनियां	-11.5935
▁धरोहर	-11.5935
▁सराहना	-11.5935
▁applies	-11.5935
▁मेहराब	-11.5935
▁स्ट्रीट	-11.5935
▁मंत्रियों	-11.5935
▁sterling	-11.5935
▁प्रायद्वीप	-11.5935
▁parvati	-11.5936
▁निर्दोष	-11.5936
▁खारिज	-11.5936
▁उदयपुर	-11.5936
▁pursue	-11.5936
▁imprisonment	-11.5936
▁ट्रैफ	-11.5936
▁परिसंपत्तियां	-11.5936
थलग	-11.5937
▁distort	-11.5938
▁बेशक	-11.5938
▁guardian	-11.5939
▁endorsement	-11.594
▁permitted	-11.594
▁सचिन	-11.5941
▁तलवार	-11.5942
▁sensory	-11.5942
▁react	-11.5943
▁अनुरुप	-11.5947
▁opera	-11.5948
▁गन्ध	-11.5952
▁strengthen	-11.5953
▁अभियुक्त	-11.5955
▁नौका	-11.5957
▁रिलीज	-11.596
process	-11.5962
निर्दिष्ट	-11.5962
▁katar	-11.5962
▁राजाओं	-11.5973
▁dung	-11.5973
▁नियति	-11.5973
▁tied	-11.5976
lux	-11.5977
▁payable	-11.5982
▁applet	-11.5983
▁यूनिकोड	-11.5989
▁बैंड	-11.6006
२०	-11.6008
हानि	-11.6011
▁tang	-11.6014
▁छुप	-11.602
▁नोड	-11.6022
▁pink	-11.6041
▁sometime	-11.6042
constellation	-11.6048
▁1945	-11.6048
▁aggregate	-11.6048
▁appellate	-11.6048
▁literacy	-11.6048
▁portuguese	-11.6048
▁recipient	-11.6048
▁singapore	-11.6048
▁surrender	-11.6048
▁uncertain	-11.6048
▁अनुमोदित	-11.6048
▁जागरूक	-11.6048
▁पौराणिक	-11.6048
▁प्रामाणिक	-11.6048
▁मिथ्या	-11.6048
▁शैक्षिक	-11.6048
▁सन्दर्भ	-11.6048
▁decorated	-11.6048
▁delicate	-11.6048
▁अड्डा	-11.6048
▁पैटर्न	-11.6048
▁steady	-11.6048
▁स्वतन्त्रता	-11.6048
▁भयंकर	-11.6048
▁पुरातन	-11.6048
▁प्रचुर	-11.6048
▁voting	-11.6049
▁साहब	-11.6049
▁particle	-11.6049
▁angry	-11.6049
▁समावेश	-11.6049
भरण	-11.605
▁polish	-11.605
▁फ्रेंच	-11.605
▁penalty	-11.6051
▁किनारा	-11.6052
▁sect	-11.6053
▁भौं	-11.6054
▁ग्रिड	-11.6055
▁उपयुक़्त	-11.6057
▁निर्माताओं	-11.6057
▁calculated	-11.6059
▁highlight	-11.606
▁witnesses	-11.6062
▁दिखती	-11.6066
▁सम्बंधित	-11.6067
▁punjabi	-11.6069
इये	-11.6076
▁पेपर	-11.6077
▁hint	-11.608
▁collector	-11.608
ेषक	-11.6089
▁accord	-11.6119
प्रवाह	-11.613
▁politician	-11.6131
मित्र	-11.6143
▁organize	-11.6148
▁realise	-11.6152
००००	-11.6152
▁enormous	-11.6163
▁jodhpur	-11.6163
▁liquor	-11.6163
▁matrix	-11.6163
▁necessarily	-11.6163
▁nowadays	-11.6163
▁डिबेंचर	-11.6163
▁डेनमार्क	-11.6163
▁तेहरान	-11.6163
▁दुरुपयोग	-11.6163
▁पारिवारिक	-11.6163
▁प्रशिक्षित	-11.6163
▁व्हाइट	-11.6163
▁हड़ताल	-11.6163
▁undertaking	-11.6163
▁परितारिका	-11.6163
▁puzzle	-11.6163
▁insight	-11.6163
▁गनोम	-11.6163
ाश्रय	-11.6163
▁लाहौर	-11.6163
▁सम्पादित	-11.6163
प्रोसेसर	-11.6163
▁pseudo	-11.6163
▁cinema	-11.6164
▁mould	-11.6164
▁flaming	-11.6164
▁संकलक	-11.6164
▁सिवाय	-11.6164
▁antenna	-11.6164
▁bbc	-11.6164
▁sensation	-11.6164
▁pending	-11.6164
▁orphan	-11.6164
▁optimis	-11.6164
▁reflex	-11.6164
▁रवैय	-11.6165
▁ownership	-11.6165
▁disconnect	-11.6165
▁देखरेख	-11.6165
▁व्याप्त	-11.6166
▁edible	-11.6166
▁हास्य	-11.6167
▁mild	-11.6167
▁बिखर	-11.6168
▁समायोजित	-11.6168
▁लपेट	-11.6168
▁पालिसी	-11.6168
▁username	-11.6169
▁पीछा	-11.617
▁adhere	-11.6171
ummy	-11.6171
▁clove	-11.6172
वल्लभ	-11.6173
▁booklet	-11.6173
▁blindness	-11.6174
▁motive	-11.6175
▁गुरू	-11.6177
वर्धित	-11.6178
▁jsa	-11.618
▁crow	-11.6182
▁अतुल	-11.6182
%%)	-11.6191
▁hack	-11.6191
छाँट	-11.6193
▁74	-11.6193
oplasty	-11.6197
▁बढ़िया	-11.6198
▁gem	-11.6201
▁fence	-11.6202
▁corona	-11.6204
▁cyst	-11.6209
विराम	-11.6214
▁नीच	-11.6224
mukh	-11.6227
प्रबंध	-11.6238
▁hiv	-11.6255
▁recognise	-11.6258
▁consume	-11.6258
▁chrom	-11.627
▁ravi	-11.6273
▁abscess	-11.628
▁bamboo	-11.628
▁coconut	-11.628
▁linguistic	-11.628
▁michael	-11.628
▁monopoly	-11.628
▁netanyahu	-11.628
▁reproductive	-11.628
▁residence	-11.628
▁घुड़सवार	-11.628
▁वार्तालाप	-11.628
▁सृष्टि	-11.628
▁ideological	-11.628
▁phrase	-11.628
▁रसोई	-11.628
▁chemist	-11.628
▁premises	-11.628
▁relax	-11.628
phobia	-11.628
▁okay	-11.628
▁पसन्द	-11.628
श्रृंग	-11.628
▁jammu	-11.628
▁ऐंठन	-11.6281
▁preferred	-11.6281
▁thunder	-11.6281
▁playlist	-11.6282
optional	-11.6282
▁झुकाव	-11.6284
▁पेशाब	-11.6286
▁आंखें	-11.6286
्हीं	-11.6286
▁घबरा	-11.6286
▁टकरा	-11.629
▁करवाया	-11.629
▁बफर	-11.6292
▁leap	-11.6293
गिर्द	-11.6296
▁इंच	-11.6298
▁पट्टे	-11.6299
▁नाड़ी	-11.6306
ऑडियो	-11.6311
पुराण	-11.6311
बहुत	-11.6311
रुद्ध	-11.6312
▁पीटर	-11.6312
▁अधिमान	-11.6313
▁अनुकरण	-11.6315
▁उदय	-11.6315
▁इण्डि	-11.6316
▁वैश	-11.6319
oscopy	-11.632
तौर	-11.6331
▁सुगम	-11.6333
श्वेत	-11.6336
घ्न	-11.6338
host	-11.6347
फ़्र	-11.6352
▁wipe	-11.6383
▁कपट	-11.6383
▁धक्क	-11.639
▁champion	-11.6397
▁disposal	-11.6397
▁excitement	-11.6397
▁extinct	-11.6397
▁hyderabad	-11.6397
▁passphrase	-11.6397
▁surgeon	-11.6397
▁अत्याधिक	-11.6397
▁अफ़्रीका	-11.6397
▁क्यूंकि	-11.6397
▁नाइट्रोजन	-11.6397
▁मॉनिटर	-11.6397
▁साझेदार	-11.6397
▁amazing	-11.6397
▁queue	-11.6397
▁मत्स्य	-11.6397
▁graduate	-11.6397
▁fortune	-11.6398
▁कैन्टन	-11.6398
▁boast	-11.6398
▁begun	-11.6398
▁microscope	-11.6399
▁अंतरफलक	-11.6399
▁(2)	-11.6399
▁rajput	-11.6399
▁dropped	-11.6399
▁persist	-11.64
▁1988	-11.64
▁fought	-11.64
▁पुण्य	-11.64
▁झगड़	-11.6401
▁transition	-11.6401
▁rotation	-11.6404
▁stability	-11.6404
▁grasp	-11.6405
▁जुडे	-11.6406
▁महानगर	-11.6406
actor	-11.6407
▁पटेल	-11.6409
▁ethic	-11.641
▁transit	-11.6412
▁उकसा	-11.6412
▁उमर	-11.6412
▁सस्ता	-11.6415
▁क्षेत्रफल	-11.6417
▁वलय	-11.6419
▁अनन्त	-11.6419
▁नोट्स	-11.6422
▁गंज	-11.6423
▁उपहार	-11.6424
▁एकाधिक	-11.6425
▁amongst	-11.6425
लिखित	-11.6429
सुविधा	-11.643
wrapped	-11.6432
▁graphical	-11.6433
भक्षी	-11.6439
▁ईंट	-11.6442
islam	-11.6447
▁kalam	-11.6461
▁uncle	-11.6463
▁गैल	-11.6476
▁72	-11.6478
सरकारी	-11.6493
▁ganesha	-11.6498
▁sharia	-11.6507
▁क़्यों	-11.6515
▁ahmed	-11.6516
▁harvest	-11.6516
▁satisfy	-11.6516
▁sulphur	-11.6516
▁टिप्पणिय	-11.6516
▁abdomen	-11.6516
▁alignment	-11.6516
▁shepherd	-11.6516
▁tamarind	-11.6516
▁किलोग्राम	-11.6516
▁सांख्यिकी	-11.6516
▁fraud	-11.6516
▁pallava	-11.6516
▁ब्यूरो	-11.6516
▁revolt	-11.6516
▁प्रसूति	-11.6516
▁offender	-11.6516
▁conceal	-11.6516
▁distant	-11.6517
▁तुर्कमेन	-11.6517
▁राजदूत	-11.6517
▁लवण	-11.6517
▁assemble	-11.6517
▁cadre	-11.6517
▁ऑफ़लाइन	-11.6517
▁बन्धक	-11.6518
▁induce	-11.6518
▁gateway	-11.6518
▁friendship	-11.6519
▁stiff	-11.6519
▁deserve	-11.652
▁akp	-11.652
▁घटनाक्रम	-11.6521
▁अनुक्रिया	-11.6523
famed	-11.6525
▁सपाट	-11.6527
▁मध्यवर्ती	-11.6528
▁sixty	-11.6529
▁arjuna	-11.653
▁consultation	-11.6531
क़रीब	-11.6531
▁अज्ञान	-11.6533
▁campus	-11.6534
▁सीरम	-11.6538
▁मनाया	-11.6543
▁कुचल	-11.6544
▁chill	-11.6546
oplasm	-11.6548
▁relate	-11.6549
connect	-11.6549
कृमि	-11.655
सूचना	-11.6551
▁patch	-11.6554
६५	-11.6571
▁singer	-11.6572
who	-11.6593
▁rope	-11.6596
रेश	-11.6597
▁debtor	-11.6608
▁ambassador	-11.6637
▁destiny	-11.6637
▁instinct	-11.6637
▁molecule	-11.6637
▁nutrition	-11.6637
▁occupied	-11.6637
▁participant	-11.6637
▁physician	-11.6637
▁satisfaction	-11.6637
▁societies	-11.6637
▁उद्धरण	-11.6637
▁गठबन्धन	-11.6637
▁चालुक़्य	-11.6637
▁ज़िम्मेदार	-11.6637
▁तुल्यकालन	-11.6637
▁प्रासंगिक	-11.6637
▁ब्रितानी	-11.6637
▁सिंगापुर	-11.6637
▁dirham	-11.6637
▁maturity	-11.6637
▁qualities	-11.6637
▁solitary	-11.6637
▁tobacco	-11.6637
▁trunk	-11.6637
▁संक्रमित	-11.6637
▁उजागर	-11.6637
▁राजपूत	-11.6637
▁orientation	-11.6637
▁skull	-11.6637
▁स्तूप	-11.6637
numerable	-11.6637
▁खामोश	-11.6637
▁दोपहर	-11.6637
▁मौके	-11.6637
▁restrictions	-11.6637
▁incentive	-11.6637
▁animation	-11.6637
[...]
